e Ġ
s Ġ
e r
i n
Ġ s
t Ġ
o r
a l
a n
d Ġ
a r
e n
o n
Ġ c
Ġ b
Ġ p
Ġ m
r e
a t
Ġ w
a c
in g
l e
Ġ f
i t
Ġ t
i c
s t
e l
o l
, Ġ
r o
o m
r a
y Ġ
i l
a s
er Ġ
al l
u r
c h
l eĠ
ac k
i r
u n
Ġ d
e s
Ġ h
2 0
l o
Ġs t
Ġ 1
Ġ g
a m
a d
a p
l i
e sĠ
e dĠ
e t
e c
f or
t h
r i
i on
a b
m Ġ
o f
s h
e tĠ
o o
a g
e d
an dĠ
l u
0 0
i g
u l
l ack
v er
om en
Ġs h
v eĠ
i s
Ġf or
u m
Ġ (
o t
i d
u t
a in
Ġ n
Ġ -
an d
u s
it h
' sĠ
eĠ c
Ġ 2
Ġw all
o p
Ġ l
t er
e m
o w
eĠ b
c k
eĠ s
eĠ p
3 dĠ
t i
s sĠ
Ġ a
a k
e ar
Ġ k
Ġw omen
q u
1 0
c o
Ġt h
Ġ in
ab leĠ
e x
Ġ r
t sĠ
1 2
m m
i z
Ġb lack
Ġ re
Ġ x
Ġ 3
lo w
Ġc h
u p
ur al
sĠ w
e w
Ġ 20
l a
Ġ v
Ġc o
5 0
i m
c mĠ
o u
eĠ w
d i
e el
r in
g h
Ġs p
h it
Ġ 4
. 5
o g
e a
' '
at h
Ġm ural
1 6
sĠ s
li p
p h
ap er
tĠ b
Ġt o
ic k
m o
at ion
d a
i f
1 9
c m
r ing
er sĠ
i tĠ
t o
Ġ j
i veĠ
r y
an g
Ġs c
Ġ 5
ol d
Ġc ar
Ġm en
ig h
sĠ b
y Ġb
eĠ m
tĠ p
r u
y l
le ssĠ
a ir
p er
l as
o s
ar t
n e
Ġ le
p ro
eĠ f
1 1
eĠ d
Ġ y
Ġp ro
g re
Ġ e
a v
Ġ o
li gh
ar g
Ġw ith
m en
o ck
b lack
b leĠ
s ,
el f
t r
i p
Ġs etĠ
b o
Ġs il
3 0
p aper
eĠ h
1 8
Ġ 6
l at
i a
x x
l ac
ec k
a tĠ
2 5
ir l
oo k
u b
sĠ for
i esĠ
as h
in k
e ,Ġ
e )
t on
ac h
r on
u g
Ġc ol
en d
Ġ ar
m a
eĠ g
eĠ t
ain lessĠ
Ġ ro
Ġwall Ġmural
re s
e le
Ġ andĠ
ar d
o v
at er
sĠ c
cmĠ x
v in
Ġ z
ol dĠ
tĠ c
u st
an c
Ġ 8
e ,
w ith
ar dĠ
ra m
s ,Ġ
re w
Ġs iz
ad h
t ion
om p
d ing
Ġc as
r ac
adh es
Ġ of
e y
p c
Ġw hit
Ġm o
on eĠ
1 4
adhes iveĠ
s p
elf -
y Ġp
ar k
en t
e p
ig n
20 0
a f
or t
Ġsh o
Ġ &
es s
Ġb o
Ġwomen 'sĠ
ra p
1 5
u k
v erĠ
o ur
elf- adhesiveĠ
sĠ p
en s
el l
i sh
at ch
ec or
Ġ an
1 3
d o
on g
w e
in eĠ
t or
st eel
am p
ap erĠ
tĠ f
co ver
d er
4 0
ro w
i st
en g
1 00
y Ġs
Ġb lu
ra k
i k
r ic
t erĠ
t ing
( w
c as
l ing
i dĠ
d u
m mĠ
Ġst ainlessĠ
Ġp rin
'' x
Ġ 7
6 0
en tĠ
'' )
m an
c ol
e st
yĠ d
ath er
Ġ 9
a dĠ
x h
b er
i v
x l
le e
Ġin ch
an k
e ad
Ġ1 9
sh ir
tĠ w
i um
xh )
il l
sĠ f
eĠ for
t ain
t ec
i al
ed ding
Ġm et
Ġ1 0
t ra
v el
a st
a u
tĠ d
Ġ i
or k
eĠ -
las s
Ġ us
Ġ20 0
e -
Ġs m
sĠw all
in d
an t
a x
Ġc on
Ġp ack
1 7
it ch
sĠ -
vin yl
a il
(w xh)
Ġth eĠ
f f
re m
yĠ g
do or
e al
a w
Ġwall paper
ap p
sĠ d
n ew
Ġ un
t ic
th eĠ
Ġ lo
Ġsc rew
Ġs lip
Ġs lee
c on
ul l
t edĠ
un n
un g
9 0
y Ġm
ew el
ri st
Ġ on
y Ġf
- w
Ġ 0
Ġst ick
u mĠ
i an
en Ġp
7 0
l arg
e :
pro of
b lu
y Ġc
ar m
y Ġw
) Ġ(
Ġb ag
eck lac
2 4
Ġb yĠ
in i
8 0
ri p
as s
ĠstainlessĠ steel
h eel
at edĠ
e g
sĠ g
Ġp h
- s
Ġ uk
un dĠ
an tĠ
sĠ h
u al
Ġg re
Ġ ad
omen 'sĠ
eĠ st
sĠ m
v a
s on
i bleĠ
n o
t leĠ
ver s
ir th
h a
sĠ (
Ġm at
, Ġblack
ol l
ul ti
el low
re t
Ġs k
up p
3 9
h om
re dĠ
i ec
gre en
. 0
row n
ot o
oo d
ro p
(wxh) (
cmĠ (wxh)(
m l
c ar
Ġslee veĠ
Ġ or
f l
2 1
le c
all o
h o
ec al
a y
Ġ1 2
Ġ ac
sĠ t
, Ġm
ra in
w hit
n on
Ġs w
h u
Ġg irl
ro s
Ġs u
,Ġ xx
er Ġb
ne ak
en c
eĠ (
Ġs et
ea dĠ
Ġ1 4
tĠ m
re d
le t
Ġ qu
ear ring
irth da
Ġc omp
Ġsil ver
es ign
p aperĠ
Ġmen 'sĠ
Ġd i
l in
res s
Ġ ex
il low
k id
an n
and al
ecor ation
mm )
ri d
e v
y c
o c
s )
p ack
o x
um p
un d
ic al
ter n
y Ġt
l ad
3 5
of f
oo t
re ssĠ
Ġ li
mo v
e b
e en
r en
as k
t op
o e
u d
edĠ g
ti veĠ
l it
yĠ h
Ġpro tec
tĠ (
sĠ re
ot or
tĠ h
cmĠx Ġ2
t ag
k ing
2 2
oo dĠ
s c
Ġs er
lo ck
o ol
e f
it ion
Ġr ug
- shir
Ġs of
st er
e ch
ov enĠp
ow er
ot ton
, Ġb
Ġc ur
ableĠ s
rac ele
Ġf ron
eĠw all
Ġsm all
tĠ for
u sĠ
ligh t
Ġt r
Ġsho esĠ
edĠ p
o ut
am er
Ġcol or
im al
, Ġp
an va
e /
ing Ġb
ph oneĠ
tĠ -
t ur
i umĠ
sh o
Ġf l
e an
- 20
, Ġc
& #
s u
hu a
4 5
3 2
in c
i o
Ġk id
Ġ1 00
n ecklac
Ġw ater
i b
Ġf ram
am a
g en
Ġf il
Ġco ver
illow cas
Ġ al
ro m
l er
i x
u sh
sĠ andĠ
Ġb rak
ash ion
ur p
g an
Ġp c
s k
la y
/ 4
Ġsiz eĠ
il tĠ
3 4
b on
Ġ ri
g ra
ab le
s -
b ack
â Ģ
Ġ /
Ġs neak
at or
d el
. 7
o k
Ġn ew
leĠ b
. 4
ing Ġp
Ġsh ir
Ġwall paperĠ
or n
l y
e ach
Ġs ock
st ic
es ,Ġ
g o
er c
or tsĠ
is c
elf-adhesiveĠ vinyl
is ex
at ibleĠ
rist ma
tĠ t
re p
l ong
j ewel
w all
i sĠ
j ust
l ic
c ess
Ġp iec
n av
Ġp lu
y p
le ar
Ġt ra
col or
e as
2 6
t yĠ
l ar
erĠ d
k itĠ
Ġcur tain
- p
2 3
y ,Ġ
sĠ of
Ġt op
il d
o d
Ġd og
Ġc om
Ġsiz e:
Ġh and
lu e)
le dĠ
. 8
s m
lo th
u ck
edĠ b
er s
Ġst er
Ġwallpaper ĠwallĠmural
Ġ1 6
Ġp ol
ra f
Ġp lat
y ellow
ed ium
eĠ in
em b
un k
v etĠ
old er
Ġh :
eĠs iz
d d
8 7
sĠ st
al le
at ural
2 -
ag n
em entĠ
lass ic
sĠw ith
3 6
ligh tĠ
s w
Ġv in
at iveĠ
Ġg oldĠ
. 6
Ġs ol
ow n
en n
erĠ h
5 -
Ġslip Ġrug
Ġ1 8
mov ableĠs
19 9
Ġr ing
o il
cess or
movableĠs elf-adhesiveĠ
k n
u re
or al
et ic
la stic
j o
ic on
li m
ra w
z z
ro om
um b
on da
ain ting
is s
illowcas esĠ
g irl
Ġsil verĠ
5 8
w omen
l an
in n
r yĠ
5 4
ar s
Ġp er
edĠ c
esĠ for
Ġster ling
am s
it yĠ
39 ;
ar n
Ġg al
d og
Ġm ar
st al
-w :
cmĠx Ġh:
- f
aperĠ (
eĠ to
Ġs n
1 -
at t
/ 8
ne edĠg
needĠg lue)
aperĠ( needĠglue)
ovenĠp aperĠ(needĠglue)
. 9
m ar
m on
tĠ g
Ġle ather
Ġb ol
Ġn on
e k
Ġ3 0
s il
ol og
s /
- b
ret ch
. 2
eĠw ith
en dĠ
Ġ all
sĠs elf-adhesiveĠvinyl
3dĠ hom
for m
mo un
e er
Ġa u
ou bleĠ
&# 39;
cover ĠsetĠ
b b
Ġ +
larg e
3 -
) Ġ-
f low
Ġ 50
Ġp an
Ġm ak
ry stal
just ableĠ
ro undĠ
Ġst or
Ġx Ġ1
Ġst rap
ru sh
, Ġf
Ġst eel
i i
i vers
Ġg ra
amer ic
eĠc as
Ġmo un
Ġs andal
u ff
in ter
8 2
Ġm otor
qu ar
Ġmet al
j ack
e ep
m et
at tern
s etĠ
- c
4 2
Ġw id
k ey
ec o
eĠ n
im p
Ġo ut
Ġto y
ams ung
b r
re en
et h
eĠ of
a Ġb
/ 2
. 3
Ġp rem
re am
es tĠ
le ather
we igh
3dĠ p
Ġre ar
z oe
s s
ea v
men 'sĠ
Ġf low
cm x
Ġj ewel
am on
c om
re ad
, Ġs
or tĠ
sĠ in
c tion
f i
Ġ ab
eĠ andĠ
atibleĠ with
ph on
o st
ĠwallpaperĠwallĠmural sĠre
3 8
Ġc ap
ol or
ĠwallpaperĠwallĠmuralsĠre movableĠself-adhesiveĠ
b edding
Ġsneak er
Ġs we
5 5
um m
b ook
th er
Ġg if
o ver
ut ton
Ġa ir
c yc
Ġ eng
eĠ ch
3 d
sĠwall paper
Ġw ind
Ġstick er
sĠw ovenĠpaperĠ(needĠglue)
Ġm ulti
le x
5 00
Ġto ol
Â ł
Ġmet ric
in ch
. 1
ur n
2 7
c ap
in t
Ġm an
Ġb ack
Ġi phoneĠ
Ġf it
Ġch ain
y leĠ
Ġh om
Ġl ong
y n
iltĠ coverĠsetĠ
tsĠ for
e at
i es
erĠ -
Ġ [
Ġ |
x -
er Ġp
z hua
Ġser iesĠ
a ut
Ġ19 9
4 7
in al
Ġd o
Ġm on
an s
Ġl arg
it y
um in
it al
Ġh igh
vin tag
ut ter
Ġk itĠ
p lat
- 0
i re
an ti
cmĠ (
old en
tĠp rin
2 8
ur s
Ġst ar
pc sĠ
ing Ġ
am y
t ,Ġ
eĠp ad
Ġg u
ot t
Ġm Ġus
du vetĠ
esĠ b
q tyĠ
y m
Ġp ink
Ġs eal
g u
Ġgal ax
ele c
Ġbo x
ang leĠ
r it
up er
3dĠhom eĠwall
p etĠ
w ater
Ġh ead
w ear
Ġc otton
Ġco ars
Ġm ini
Ġl it
Ġgre en
ĠslipĠrug Ġmat
gre y
Ġg en
e o
r al
Ġsh ort
bedding ĠsetĠ
Ġp aper
Ġp art
Ġst retch
ing Ġw
iltĠcoverĠsetĠ beddingĠsetĠ
oo th
or l
Ġs ign
w ar
ra g
sĠ &
eĠ sh
end antĠ
l am
yĠ -
tr ol
eĠs p
v ol
Ġsh e
3 7
rid g
c an
tĠd ecal
Ġs upp
ro ssĠ
Ġf lo
ou ch
or d
itch en
) ,Ġ
3 00
Ġs id
Ġsh if
americ an
Ġfor Ġh
4 6
or s
Ġt re
Ġs amsung
ing Ġc
Ġb irthda
k it
a z
light weigh
v al
ot a
Ġre p
li f
eĠs c
un isex
c omp
ed g
i eĠ
Ġs elf-adhesiveĠ
Ġsp ring
Ġ14 6
is p
Ġ1 5
Ġwall Ġar
in es
lad iesĠ
1 20
f ul
e h
t s
p u
eĠc on
ag eĠ
Ġd esign
erĠ g
i el
Ġj ack
yĠ n
am b
a h
unn ing
Ġprin tĠdecal
sĠwallpaper Ġmural
er Ġc
2 9
ri m
Ġy ear
ri end
le g
[ #
st ick
r anc
cm )
Ġy ellow
30 4
11 4
Ġs un
Ġfor Ġwomen
d ark
er o
12 3
Ġ earring
yĠ j
xx l
op p
ri gh
u dĠ
Ġb ook
op en
ens or
Ġbo y
Ġf re
or gan
in s
7 5
sĠw omen'sĠ
6 -
4 -
Ġb ar
ation al
l andĠ
il dĠ
ch ain
m ad
yĠg if
Ġb racele
Ġn ecklac
Ġcar d
oo p
re c
sĠfor Ġwomen
eĠ &
cmĠxĠh: Ġ2
ak i
Ġv ol
l ain
w omen'sĠ
jewel ry
yĠ of
Ġ ra
Ġvin yl
Ġh o
Ġp air
a sĠ
p ink
o y
t u
Ġw ork
Ġb oo
ach in
ing Ġg
y ou
eĠ l
ro ck
ri veĠ
w ork
, Ġwhit
Ġk it
et t
ul tic
ath erĠ
ens ion
v i
v an
Ġro undĠ
ru b
Ġf ull
Ġc ut
yĠw heel
t -
ti m
Ġch ristma
Ġk n
Ġshif terĠ
ur eĠ
Ġb rown
b ow
lec tion
ainlessĠ steel
f ic
allo yĠwheel
ul tra
gen u
Ġt ur
sĠself-adhesiveĠvinyl ,Ġxx
sĠwovenĠpaperĠ(needĠglue) ,Ġxx
Ġ5 x
Ġsh ock
Ġs ing
sĠw omen
h and
Ġ app
ĠwallĠmural sĠwallpaperĠmural
em p
ul ar
d eĠ
r or
n atural
Ġco un
4 ''x
duvetĠ cover
4 8
dd ler
allo on
Ġn eck
amon dĠ
or ang
ard en
u c
a Ġ
- d
00 0
Ġt e
eĠb lack
p ol
Ġb ab
Ġb all
Ġs ea
ar i
Ġcol lar
3 3
Ġa ut
( black
d y
Ġg am
es h
y st
t w
Ġwallpaper Ġmural
e ed
s tĠ
re ath
Ġwater proof
er ,Ġ
Ġp o
6 5
l and
w atch
am ic
ab ric
Ġmat t
al king
Ġp ump
out door
Ġph oto
it ar
9 5
an a
lass esĠ
Ġ etĠ
Ġd ecor
ra ph
lu t
b all
,Ġblack ,Ġ
o z
ig inal
Ġb r
ic ro
re ar
e z
Ġprem iumĠ
st on
Ġh air
ama ha
Ġt -shir
Ġh eadĠ
Ġsil icon
Ġs o
Ġt w
a i
en ti
off e
or dĠ
at eĠ
eĠg oldĠ
ol f
ir con
u el
4 4
er n
Ġc lip
ra y
igh tĠ
g er
Ġwind ow
m in
rep lac
f ac
3 1
lo v
g b
sĠ n
,Ġ xl
m w
Ġfil ter
Ġw edding
re g
25 Ġsterling
Ġh ex
cyc leĠ
ock etĠ
20 5
Ġt ri
Ġe u
Ġre d
di o
ear l
Ġ1 1
f it
yĠp art
Ġout door
a Ġc
Ġm atĠ
Ġm ed
Ġ ed
lit tleĠ
v ing
ĠslipĠrugĠmat ,Ġ
Ġb ra
g oldĠ
l amp
Ġst and
Ġf ashion
ph oto
s ol
le an
- 1
oo di
b ag
ild ren
12 x
Ġfron tĠ
cessor iesĠ
ad d
Ġwhit e
Ġ art
las sĠ
bo ardĠ
le sĠ
us tĠ
s id
Ġb andĠ
le s
Ġk ey
ou tĠ
.5 Ġuk
igh t
son al
ar tĠ
agn etic
in a
Ġst amp
7 8
a veĠ
Ġcar dĠ
ch ool
r ill
h eadĠ
Ġblu e
ad justableĠ
Ġn o
p illowcasesĠ
Ġm ax
Ġswe at
ersĠ d
Ġst rip
all ow
yĠd ut
9 9
ar tsĠ
iltĠcoverĠsetĠbeddingĠsetĠ pillowcasesĠ
eav yĠdut
sĠwall ĠprintĠdecal
Ġad ul
19 8
/ 16
al umin
h igh
eĠc ar
Ġro s
m )
Ġre dĠ
ĠwallpaperĠwallĠmuralsĠremovableĠself-adhesiveĠ amy
ion al
ter s
k in
u tĠ
eĠp rin
Ġd ressĠ
r il
Ġ en
" )
Ġsamsung Ġgalax
ec tor
ub ic
a yĠ
Ġl in
Ġb and
mm) Ġx
- Ġblack
y d
ircon ia
eng th
l Ġ3
un ch
eĠb ag
ush ion
Ġp in
Ġ up
Ġcol our
a j
3dĠ duvetĠcover
Ġf ac
ust om
Ġle dĠ
li sh
ast ic
Ġsp ortsĠ
2 50
i er
6 6
ir ror
3dĠ b
sho esĠ
Ġtra vel
al k
Ġsc reen
y Ġch
Ġprotec tor
Ġmen sĠ
l erĠ
y Ġst
in o
v en
ir eĠ
Ġo il
Ġjewel ry
ï ¼
, Ġw
st um
Ġ5 20
an sp
f ess
Ġprin t
g iv
st rac
ort ableĠ
9 -
ligh tĠb
Ġmetric Ġcoars
p o
Ġprotec tiveĠ
c er
lo veĠ
g g
urp leĠ
ri s
Ġan im
t ro
it an
ot tleĠ
, Ġt
ma x
Ġs quar
uk i
er g
Ġw atch
Ġco verĠ
orl dĠ
on eĠsiz
,Ġ 6
b ar
b le
Ġd ecal
xl )
3dĠhomeĠwall paper
8 -
Ġ lu
der n
es sĠ
g if
b al
op per
h n
eĠc over
eĠp ro
li d
Ġ u
Ġfor Ġm
Ġt im
tr ic
urp le
,Ġ 1
Ġsh ap
nav y
8 cmĠx
Ġ el
long ĠsleeveĠ
at ic
a ur
i or
-s lip
at ter
u zz
met al
tĠf ram
Ġsock etĠ
Ġc m
Ġb e
lo s
sil ver
18 0
,Ġxl Ġ20
Ġun isex
Ġfor dĠ
em or
a Ġd
a Ġm
t y
Ġ1 7
ren ch
4 00
ch ristma
yl on
Ġb as
ask et
Ġs ur
i qu
f re
Ġs af
us b
ho us
ultic olor
Ġc lassic
u x
Ġ4 16
ea ut
le ec
il lip
g old
Ġo z
Ġ #
cmĠxĠ2 90
Ġ520 cmĠxĠ290
iz edĠ
12 cmĠxĠ2
114 '')
205 ''x
205''x 114'')
12cmĠxĠ2 19
lam in
Ġan imal
''x 87
''x87 '')
123 ''x87'')
eĠf ram
Ġ4 0
Ġ8 0
Ġb l
3 16
cmĠxĠ2 54
xl Ġ416
xlĠ416 cmĠxĠ254
eĠ v
u gh
Ġf in
r ol
4''x 100
4''x100 '')
16 4''x100'')
Ġz oe
lĠ3 12cmĠxĠ219
ing Ġt
Ġc up
Ġn av
ex t
8cmĠx Ġ146
a Ġp
Ġan ti
xxl Ġ520cmĠxĠ290
,ĠxlĠ20 8cmĠxĠ146
82 ''x
82''x 58
82''x58 '')
r an
sĠ to
Ġb oot
a tĠb
ir on
to on
o b
c c
m al
Ġc lear
Ġ and
Ġstor ag
g e
us ableĠ
ing Ġd
z uki
ĠwallpaperĠmural sĠwallĠprintĠdecal
u ra
Ġp lastic
âĢ ĵ
du c
5 9
Ġs lo
Ġ2 .0
7 -
e) Ġ(
Ġa j
al f
es k
ist or
fess ional
ul der
ir dĠ
Ġre s
b l
e yĠ
lut ch
lamin atedĠ
h ol
: Ġa
non -w
Ġz hua
Ġf ish
,Ġ 10
st ar
eĠp aper
an imal
100 0
ip p
1 12
Ġus b
on d
Ġ im
ir c
Ġe y
a is
ust ral
y al
ivers al
t e
Ġz irconia
t ableĠ
Ġc ableĠ
Ġ6 0
Ġsn ow
ock et
b ik
Ġb el
,Ġ 8
ic oneĠ
er Ġfor
6 3
s of
sĠs etĠ
Ġs ensor
non-w ovenĠp
sĠd rap
erĠ (
non-wovenĠp aper
ters unk
Ġli f
og raph
os eĠ
b el
Ġy ou
ri b
Ġ2 5
for dĠ
id er
" x
laminatedĠ vinyl
laminatedĠvinyl -w:
Ġflo or
edĠ f
b ol
Ġplu g
Ġtoy ota
Ġc am
Ġph on
Ġc rystal
non-wovenĠpaper -w:
20 cmĠxĠh:Ġ2
ing Ġm
/ 0
ow l
ov el
sĠg irl
cmĠ(wxh)( 205''x114'')
xxlĠ520cmĠxĠ290 cmĠ(wxh)(205''x114'')
cmĠ(wxh)( 123''x87'')
Ġm m
Ġw ar
ubic Ġzirconia
/ whit
Ġdo or
w h
eĠ ro
ad ul
ĠwallĠmural ĠwallpaperĠ
eĠ 2
Ġd eco
v e
b e
ul atedĠ
cmĠ(wxh)( 164''x100'')
xlĠ416cmĠxĠ254 cmĠ(wxh)(164''x100'')
,Ġ 5
qu een
lĠ312cmĠxĠ219 cmĠ(wxh)(123''x87'')
Ġp ainting
Ġb ear
m all
s/ ladiesĠ
cm (
y s
Ġself-adhesiveĠ laminatedĠvinyl-w:
ic tur
Ġmo del
cmĠ(wxh)( 82''x58'')
g i
ĠpremiumĠ non-wovenĠpaper-w:
t re
eĠ j
Ġ2 4
,ĠxlĠ208cmĠxĠ146 cmĠ(wxh)(82''x58'')
i per
p lu
Ġgre y
utter fl
Ġ1 3
ch arg
yĠ (
ry lic
eĠsc rew
- on
enti al
tic al
un c
eĠm en
Ġp ower
Ġp et
Ġsh ower
r oll
Ġc an
Ġm edium
un der
,Ġ 7
m i
bo x
,Ġ h
rin k
men sĠ
1 pc
s er
anva sĠwall
edĠp illowcasesĠ
le tĠ
ic h
Ġs e
ĠsetĠ of
ch w
Ġx Ġ3
off ic
6 8
Ġst re
a Ġf
edĠpillowcasesĠ qu
eĠp h
Ġsw itch
l )
Ġcurtain sĠdrap
eĠ non
c ut
(w hit
Ġpiec esĠ
um per
7 2
s or
ow erĠ
Ġf itĠ
Ġcas eĠfor
yĠ andĠ
Ġgen u
Ġb alloon
Ġst yleĠ
il li
old erĠ
o on
eĠd og
re adĠ
6 4
sĠs p
av esĠ
a ug
vel op
Ġapp leĠ
las h
,Ġ 2
Ġco ol
us ines
a a
h ead
y our
al eĠ
m ulti
16 0
us s
Ġst on
7 7
men tĠ
Ġ( black
or iginal
p rin
Ġsu it
Ġb mw
allow een
,Ġ d
b yĠ
cm (wxh)
sĠb yĠ
p ersĠ
esĠ -
giv i
v o
Ġs yst
yĠd ecoration
r at
da y
Ġc loth
Ġp ad
s :
r ack
jack etĠ
b ab
Ġcas ual
reath ableĠ
ron tĠ
Ġf la
Ġw ash
ow el
ing Ġh
e mĠ
anvasĠwall Ġar
Ġshort ĠsleeveĠ
Ġ ach
Ġr ub
e u
rain bow
Ġwhit eĠ
f in
le ep
pro tec
o am
Ġcomp atibleĠwith
h in
em en
k itchen
ar a
form anc
ex p
Ġblu eĠ
co un
eĠc omp
pack Ġof
as aki
ath le
b u
m ak
Ã ©
enc il
Ġd oubleĠ
Ġof fic
men t
per ial
us ic
st or
wall Ġar
Ġwall Ġdeco
yĠb ag
Ġrep lac
- t
b an
el li
v is
am il
/4 "
edĠ m
Ġb lad
b andĠ
Ġmatt eĠpaper
ab el
8 5
v ic
r ank
kitĠ for
Ġqu iltĠcoverĠsetĠbeddingĠsetĠpillowcasesĠ
a er
Ġshe et
Ġs ec
Ġs uper
eĠb yĠ
l yĠ
Ġst ud
m ot
aw asaki
s .
tĠw all
Ġsof t
bo d
es ,
at ur
b ra
Ġz ip
om et
er al
2 .5
ask etĠ
Ġbrak eĠpad
alloyĠwheel Ġmak
e ver
Ġz inc
1 50
m er
f il
Ġp ain
a Ġh
in e
ri ver
/8 "
t -shir
rak eĠc
Ġp etĠ
Ġch ar
ĠcurtainsĠdrap es,Ġ
b i
th eĠb
erc ed
un ic
Ġst andĠ
/ c
h ear
Ġmural ĠwallpaperĠ
r and
ros s
âĢ Ļ
6 7
Ġb ik
Ġw heel
ru ck
6 9
athle tic
er Ġf
n eck
Ġad justableĠ
Ġp attern
ood en
,Ġ 9
er Ġm
ire lessĠ
Ġst at
Ġy amaha
v ent
Ġs lim
Ġb rush
Ġt i
co ol
it ial
34 ;
d or
sĠb lack
ed ition
Ġnon ĠslipĠrugĠmat,Ġ
Ġmotor cycleĠ
esĠ (
/ black
Ġh older
k ĠgoldĠ
au x
di amondĠ
sĠ ch
leĠ c
lit ter
Ġsu zuki
Ġn atural
Ġj o
eĠ /
Ġf lip
Ġt rain
Ġt ap
Ġfl oral
Ġin door
Ġc or
Ġsol idĠ
Ġb utton
on ic
hin est
4 9
ap top
Ġb lock
re f
an tsĠ
v as
Ġd e
d esign
mmĠ x
d c
om an
Ġ ass
z ip
i phoneĠ
Ġvin tag
em per
e ak
d en
,Ġ 3
eĠ th
upp li
Ġan k
ar tĠprin
Ġf ranc
,Ġ k
4 3
&# 34;
Ġm ad
Ġshock proof
a -
d rop
Ġprotec tion
Ġre c
x- large
Ġ ligh
b rak
Ġv al
s iz
onda Ġc
f ashion
Ġri s
er amic
eĠw omen'sĠ
Ġor gan
es p
5 2
Ġg old
iss an
ar row
Ġco in
z inc
ret ro
it i
Ġe lec
Ġb each
l or
yĠ a
Ġtr ansp
t ri
Ġpack Ġof
Ġt ub
f ec
Ġprin tedĠ
ress ion
ess ential
Ġcol lection
Ġh ol
Ġw alle
,Ġm edium
v c
Ġw e
Ġt yp
a ul
Ġ Ġ
n c
Ġl ad
ĠwallĠmural sĠwovenĠpaperĠ(needĠglue),Ġxx
r andĠ
ur g
eĠs il
st rap
Ġun c
ĠwallĠmural sĠself-adhesiveĠvinyl,Ġxx
Ġr ac
Ġs chool
Ġ5x 112
Ġp endantĠ
genu in
le yĠ
8 8
r ang
Ġd isc
g am
5 mm
Ġ- Ġblack
ivers ar
r atch
h el
m ini
7 9
to y
b uck
at ing
at erĠ
res ist
Ġn ot
Ġ- Ġ
Ġr unning
b and
Ġb chw
,Ġ 4
st ainlessĠsteel
Ġs umm
p et
rub ber
Ġy our
for Ġwomen
sĠ j
yĠb lu
Ġx Ġ4
, Ġsmall
la w
Ġg lo
Ġ5x112 ĠetĠ
at in
ra d
20 21
9 25Ġsterling
eĠd isc
ag on
Ġpaper back
w in
Ġk itchen
ak eĠ
ro t
alumin um
ha ustĠ
h er
le y
Ġlit tleĠ
ab in
ti v
tra vel
Ġsp ac
ingĠw heel
r unning
oo s
Ġd in
m ark
tĠ #
n ot
Ġar m
co verĠ
rag on
d r
american ĠshifterĠ
sh ip
5 6
b rown
Ġx Ġ2
givi Ġcas
3 Ġm
eĠd ecor
e or
Ġth er
Ġpro fessional
Ġsweat shir
Ġth ick
Ġim perial
Ġr oll
Ġlo veĠ
1 /
tĠc as
12x 16
ap an
Ġt ank
ig ital
8 .5
Ġp lain
Ġb ig
it s
Ġcom for
Ġlong ĠsleeveĠ
p i
eal th
b ig
8 4
cas ual
Ġ9 0
s i
ap ter
m at
Ġc re
Ġsof tĠ
Ġsho ulder
ro mĠ
Ġ usĠ
7 6
f ish
Ġjack etĠ
t ail
i enc
blu eĠ
d is
Ġfil terĠ
Ġa f
e- a
Ġth eĠb
ĠwallpaperĠwallĠmuralsĠremovableĠself-adhesiveĠ zoe
r l
Ġf ig
Ġh ear
Ġ am
Ġac cessoriesĠ
Ġ op
b a
lu x
lu b
v d
co al
Ġch ildren
s, Ġblack
iel dĠ
o dĠ
5 Ġm
m otor
Ġcar t
replac ementĠ
eĠs etĠ
Ġw h
7 .5
Ġ ear
Ġwomen sĠ
anva sĠ
Ġp ar
s un
Ġk ing
Ġx Ġ5
Â °
- m
is on
i mm
s o
ru g
n am
Ġf riend
w oodĠ
Ġch arg
Ġset Ġscrew
Ġfor Ġd
Ġb lo
eĠc ol
Ġlo ck
eer ingĠwheel
Ġ20 20
if f
Ġ1 /
or th
emb ro
Ġho us
un ction
ou th
Ġth eĠs
g ro
Ġcar petĠ
Ġmen Ġwomen
c l
og a
tĠp ictur
Ġx l
h ex
Ġv i
f ram
4 Ġm
eĠg old
Ġ ultra
Ġp e
Ġs elf
Ġre f
y Ġsh
Ġst y
Ġm in
Ġsock et
/2 "
k g
eĠc o
r eĠ
t ech
sĠs iz
Ġcon trol
re usableĠ
tĠb lack
qu ick
Ġco up
embro ider
n ic
is m
re l
Ġstick ersĠ
ableĠ c
Ġp itch
Ġre ad
y b
Ġf uel
id a
Ġh os
/ s
Ġ low
3 50
6 00
Ġh ook
tr ac
eĠcon trol
Ġaut o
f tĠ
mo del
moun tain
Ġfl ag
all ic
2 x
ut ion
h older
Ġre g
en z
mĠ -
le d
eĠb lu
.5 "
sĠs c
b il
am el
Ġsp ort
Ġpan tsĠ
Ġ7 0
jo hn
Ġf abric
amer a
Ġ20 19
Ġ20 18
an Ġ
er man
w ash
l ineĠ
Ġbol t
n ow
a qu
ed room
ea u
ch ar
bo y
p rem
Ġsp ark
5 7
h am
Ġp op
Ġd ecoration
Ġb ath
Ġau di
x 4
Ġbchw ĠwallĠmuralsĠwallpaperĠmural
eas on
Ġle t
e up
eĠ 1
Ġst udĠ
. .
Ġor ang
5 1
Ġdecor ativeĠ
eĠ k
ro yal
s ch
ĠwallpaperĠ au
Ġboo tsĠ
eĠw omen
,Ġ g
eĠs andal
h e
Ġsing leĠ
Ġman ual
f ull
Ġc lean
Ġm irror
Ġn ail
Ġsh ortsĠ
Ġt on
Ġsaf et
Ġsneak ersĠ
Ġh ang
Ġeng ineĠ
i -
ron g
tĠ andĠ
,Ġ 19
Ġ( 6
Ġth eĠw
Ġsc oo
Ġto ddler
c or
2 pc
Ġl ac
c re
Ġcas e,
Ġb al
5 3
l en
4 1
Ġd ress
mm) ĠmetricĠcoars
du ra
Ġm al
sĠ 20
ul b
Ġm ulticolor
esĠ s
Ġs and
genu ineĠ
v id
og g
Ġst ain
ag ementĠ
t a
sĠp rin
er ,
ĠslipĠrug ĠmatĠ
Ġf e
- inch
12 5
Ġex t
eb ook
x 18
su it
Ġb ott
k a
achin eĠscrew
Ġp i
Ġw in
Ġc offe
oo tsĠ
ĠwallĠdeco Ġaj
Ġstand ardĠ
n ector
3dĠ color
em ent
c raf
st and
Ġc at
ou gh
8 9
ad g
th eĠp
Ġco stum
an o
Ġph illip
col our
Ġd ry
Ġmoun tedĠ
art z
u ch
cmx 2
ab strac
b as
setĠ of
andĠ new
f t
Ġh ard
60 cm
Ġf lat
n es
plat edĠ
am et
tĠ with
yĠg irl
- 6
ul lo
Ġo x
1 Ġ(
t ed
d oubleĠ
" Ġ
d ition
tr oll
t en
eĠ 3
ri z
Ġpro Ġmax
Ġp at
Ġm icro
un iversal
Ġ1 25
Ġsp ec
Ġwall Ġsticker
re ak
ar o
st erĠ
w a
hinest on
c yl
7 3
s (
6 Ġm
Ġc rossĠ
esĠ in
sĠ 2
3dĠhomeĠwall paperĠ
yĠ in
imp leĠ
Ġs al
e i
eĠ re
Ġ( 3
Ġb yĠm
u il
w dĠ
Ġb ro
14 0
ri v
Ġmed iumĠ
st en
ing Ġf
Ġshe etĠ
s '
for d
ov en
esĠ of
Ġi i
Ġ lightĠ
tĠ in
arn es
Ġ20 15
Ġhand le
st r
Ġch arm
lex ibleĠ
ign ition
eĠp adĠ
su itĠ
Ġin ter
Ġc atĠ
o Ġshir
er Ġwith
ing Ġbag
at i
c al
sc ap
Ġsho e,
ĠbyĠ j
Ġmon th
Ġd riveĠ
Ġ20 17
Ġc al
esĠ p
Ġsil iconeĠ
y Ġto
ersĠd ecoration
lu d
Ġall en
/16 "
ell er
th eĠs
Ġbo d
l ink
sĠ +
. 25
c el
water proof
Ġw arm
tra in
eĠfor Ġwomen
i tĠb
ro ugh
esĠ andĠ
yĠs uppli
sh ap
sp ir
Ġf leec
organ ic
erĠ n
Ġd isp
c rossĠ
air Ġris
- 10
e ph
t om
t Ġs
h air
ar y
en tsĠ
ang el
Ġ100 0
tsĠfor Ġwomen
Ġ q
esĠ f
Ġk awasaki
Ġ5 g
Ġc ushion
ĠquiltĠcoverĠsetĠbeddingĠsetĠpillowcasesĠ 3dĠduvetĠcover
Ġplat ed
to ddler
airĠris ersĠdecoration
Ġt owel
a Ġs
id eĠ
u v
Ġn e
on om
photo ĠcarpetĠ
t b
edĠ &
Ġcar bon
c es
Ġb ead
qu al
eĠt re
ik ing
eĠf low
9 8
tĠpictur eĠprin
Ġc lo
tu redĠ
Ġsho es
Ġch rom
et al
kid sĠ
Ġ2 10
Ġ20 14
Ġpol ish
aut o
Ġ20 16
Ġfram edĠ
sm all
Ġd raw
st oneĠ
Ġd ark
all en
eĠ a
Ġsk in
Ġdi amondĠ
Ġw /
Ġl and
s et
s y
Ġc raf
om for
headĠ cap
ea tĠ
Ġw alking
Ġh e
anvasĠwallĠar tĠpictureĠprin
Ġp u
Ġin s
ag ic
ul t
om b
m or
al ph
Ġm l
1 .5
th eĠm
mo dern
id i
Ġ ap
9 4
v edĠ
d e
Ġan n
Ġbear ing
p a
leĠb oot
Ġb edĠpillowcasesĠqu
Ġp ocket
no tĠ
Ġb ottleĠ
100 %
Ġ1 50
c lassic
m ap
k en
em al
Ġ100 %
ish i
o us
moun t
Ġ( w
Ġf oot
ac u
Ġmural Ġvinyl
- 3
20 20
Ġ20 13
lec tiveĠ
Ġphoto ĠmuralĠvinyl
6 2
Ġl amp
oneĠsiz e)
ustral ia
Ġm il
Ġ5 25
0 1
ic yc
airĠrisersĠdecoration ĠphotoĠmuralĠvinyl
elec tric
Ġs elf-adhesiveĠvinyl
th eĠw
Ġp lay
Ġ ag
- g
eh ic
edĠp rin
os aur
a Ġg
Ġin d
Ġre mot
Ġ5 00
sĠg if
Ġcoun tersunk
1 10
c atĠ
sk ech
Ġ20 11
organ iz
bo ard
Ġm agnetic
amb oo
Ġstre et
Ġb umper
Ġh eavyĠdut
j ec
Ġsyst em
Ġ20 21
Ġmo us
,Ġ n
ar f
mov ableĠ
lip Ġon
Ġgirl sĠ
Ġsu itĠ
7 4
y o
leĠ p
Ġal umin
ĠwallpaperĠmuralsĠwallĠprintĠdecal ĠwallĠdecoĠaj
ing ĠandĠ
h c
el astic
ir d
Ġ( 4
sĠc as
,Ġ 12
Ġrub ber
sĠ men'sĠ
ip adĠ
a Ġt
ens il
Ġex p
Ġ20 12
eĠb rakeĠc
sĠb oy
Ġs oc
Ġy ork
eĠ up
3dĠp rin
ac cessoriesĠ
Ġgenu ineĠ
is tĠ
es )
w edding
, ĠsizeĠ
Ġprem ium
op h
ch o
er iesĠ
Ġp la
25 cm
of low
ac rylic
Ġco il
Ġx Ġ8
Ġs lid
Ġs ub
tr ack
9 .5
Ġprin tĠ
Ġ is
Ġsh ell
Ġab sor
le as
w )
Ġper sonal
mo on
p in
th eĠc
it yĠb
eĠnon ĠslipĠrugĠmatĠ
Ġs elec
6 1
ater proof
Ġp illowcas
can vas
eĠp artsĠ
Ġ :
Ġtw o
eaut if
s uper
aer oflow
u le
ĠiphoneĠ 12
Ġg em
y Ġth
7 1
buck le
Ġ2 50
c otton
Ġt itan
/ 3
tĠ &
ou sĠ
Ġd el
Ġ lightweigh
eĠ/ Ġsize:
ak eĠt
Ġtur bo
eĠ le
Ġwid e
/ p
la z
uck leĠ
8 1
co stum
- a
Ġsk ir
its ub
es el
Ġst airĠrisersĠdecorationĠphotoĠmuralĠvinyl
Ġsu ed
for Ġh
ar ch
-d own
ers ey
itsub ishi
Ġkid sĠ
m ed
,Ġ 11
emb ly
let ter
Ġ20 10
s a
x 19
jack et
Ġpc sĠ
Ġac cessor
al o
yĠb irthda
Ġh eel
8 mm
Ġh oodi
, Ġblu
Ġw rap
Ġbirthda yĠpart
ust ri
m il
Ġst ra
Ġab strac
blu e)
t ex
sĠt -shir
e in
ru itĠ
Ġcar b
tĠfram eĠ/Ġsize:
eĠw hit
Ġ- Ġm
edĠ& ĠmountedĠ
- 12
Ġn issan
Ġ id
f lat
Ġg o
Ġp ortableĠ
8 6
&#39; sĠ
Ġ200 7
ic ha
st ru
y )
Ġwomen s/ladiesĠ
on dĠ
Ġs up
. 00
w ell
Ġ200 8
Ġhand leĠ
Ġs leep
ar yĠ
Ġ200 9
ï¼ Į
Ġplat edĠ
um a
iv al
edĠ&ĠmountedĠ canvas
Ġstretch edĠ&ĠmountedĠcanvas
ung sten
littleĠ kid
w ay
h ar
6 .5
Ġth eĠm
Ġl ink
Ġglo ssĠ
200 6
d om
Ġb atter
p r
Ġfram e-a
Ġbo dy
ag en
sĠ a
Ġcolor :
eng er
95 cm
Ġst u
y ,
ag g
Ġw s-
e edĠ
Ġuk )
Ġt ab
Ġcas eĠ
Ġin t
icha el
Ġinch esĠ
Ġ30 4
Ġmo dern
g 304
Ġg las
Ġ ut
at a
c a
i et
kn it
r yĠgif
ot eĠbag
tĠp ro
ster ling
Ġ( 10
h x
orl d
ir s
ot ograph
om atic
] Ġcoin
eĠnonĠslipĠrugĠmatĠ photoĠcarpetĠ
riz om
Ġc lutch
it eĠ
ru is
y Ġfor
c d
Ġ525 cmĠxĠh:Ġ2
Ġ525cmĠxĠh:Ġ2 95cm
Ġn ut
Ġe as
red )
eĠt op
di p
y amaha
Ġf unn
Ġ3 00
c -
e am
jewel ryĠ
righ tĠ
Ġm 10
Ġsh ad
,Ġ andĠ
ol i
7 00
Ġ4 20cmĠxĠh:Ġ2
Ġ420cmĠxĠh:Ġ2 60cm
Ġc eramic
Ġ146 cm
Ġ open
eautif ul
Ġsw im
p art
cmĠxĠh: Ġ146cm
Ġ210 cmĠxĠh:Ġ146cm
at ed
ro us
ra yĠ
y ear
Ġth eĠp
Ġ3 20cmĠxĠh:Ġ2
Ġ320cmĠxĠh:Ġ2 25cm
b ro
re li
di a
ar p
c ard
ress ur
Ġ( 5
av or
er ry
g ear
buckle -down
Ġw orldĠ
Ġri gh
lo go
Ġfor Ġtoyota
t v
ĠmatteĠpaper Ġprint
Ġv an
no b
Ġw oodĠ
ian o
i let
to ol
at e
ou ble
ersĠ for
com for
ak ing
er Ġt
20 00
lo t
b ur
Ġth eĠd
erĠ &
Ġle atherĠ
i le
Ġin k
sĠ 3
s ea
edĠb rak
Ġg arden
Ġ[ au
2 Ġpack
Ġ light
umb ia
and leĠ
Ġmoun tain
k k
le af
c lear
Ġphon eĠcas
ingĠg lassesĠ
f itĠ
/ m
ersĠd ecal
rid al
lo af
os s
e .
,Ġ l
Ġs eason
of ĠtheĠ
ic a
Ġ3 .0
et ooth
Ġswe ater
p iec
ac tiveĠ
ĠsamsungĠgalax yĠs
app ing
ri endĠ
dd lerĠ
in der
Ġof f
et ing
Ġsp ir
et ail
- 2
ro adĠ
9 6
Ġ at
lu sh
phon eĠcas
v dĠ
us a
lov esĠ
eĠp lat
h aki
/ 5
Ġ200 6
3dĠ blu
ac cessor
Ġcart ridg
t al
am i
Ġ ec
y Ġcar
Ġl en
eĠb ox
st ring
Ġslip per
9 7
Ġres ist
eĠro tor
Ġro ck
iss ion
Ġw inter
8 3
Ġshower Ġcurtain
Ġdecal ĠwallpaperĠau
c at
st andĠ
col umbia
Ġt ableĠ
Ġ2 .5
lu s
Ġd ual
tsĠ (
Ġt een
p ainting
Ġg ear
d in
del co
Ġp en
h i
sh ort
,Ġ dark
200 7
20 3
p op
p ar
we at
Ġp l
Ġle g
Ġm ug
Ġbra id
fl oral
f lex
Ġflow erĠ
Ġro adĠ
m :
Ġg s
Ġw irelessĠ
mm) ĠxĠ1
Ġsupp li
di an
Ġg aug
b k
sĠd esign
end er
ag e
Ġlo af
Ġfor ĠfordĠ
eĠs k
2 mm
key chain
Ġwall Ġpaper
Ġd is
Ġn ovel
t ,
ac delco
Ġw ir
c u
200 8
Ġch ev
3 ''
Ġh olderĠ
Ġslip Ġon
necklac eĠ
ingĠb el
Ġflow er
sĠ men
o und
Ġcon c
is edĠ
sĠ 1
2 )
en ter
an y
li qu
ch arm
Ġcom b
Ġth eĠc
erc ing
n ut
sof t
eĠsiz e:
Ġt emper
ĠstudĠ earring
Ġgam eĠnonĠslipĠrugĠmatĠphotoĠcarpetĠ
k e
eĠ 4
200 5
Ġ20 00
o -
car toon
g a
3dĠduvetĠcover Ġpillowcas
iltĠcoverĠsetĠbeddingĠsetĠ 3dĠduvetĠcoverĠpillowcas
eĠw ash
,Ġb rown
r ick
Ġ( 8
y est
ron z
pack ĠsizeĠ
eĠpro tec
d erĠ
Ġb usines
e veĠ
iper Ġblad
,Ġ v
sĠ on
2 Ġm
ul k
f ron
tr ans
Ġinch )
Ġ[au ]
3 60
eĠ 10
: ĠtheĠ
ri dĠ
x 20
8 00
Ġc ook
Ġth eĠf
k sw
Ġcomp ut
Ġw a
Ġlad iesĠ
irthda yĠpart
Ġro om
n h
Ġh andĠ
f lo
Ġ(w xh)
'') Ġ(wxh)
gra d
dura bleĠ
j i
Ġreplac ementĠ
s aw
,Ġ 20
Ġ 3dĠ
200 9
is eĠ
ex tra
Ġsp or
tĠc ar
l ength
non -slip
eĠh igh
bon ama
bonama ison
Ġo ak
p k
âĢ Ŀ
vol um
un it
, black
mo us
Ġgu id
Ġn ylon
Ġm emor
r f
Ġt ruck
u fac
Ġ1 .6
Ġp ocketĠ
(black )
esĠfor Ġwomen
1 )
Ġsiz e
ru bb
as tĠ
ist on
Ġw ood
Ġs li
Ġadul tsĠ
Ġqu al
7 50
tĠb ox
Ġbol tĠ
ĠlittleĠ kid
ur ban
Ġh er
ustral ian
all er
Ġw c
Ġl aptop
j os
a Ġ-
du ction
anc eĠ
Ġa 4
eĠs et
o ster
Ġjack et
ti p
Ġp ant
sh ock
as on
amon d
g olden
erĠ andĠ
3dĠ whit
r .
Ġh el
lo om
ph ic
sk in
sĠself-adhesiveĠvinyl ,ĠxlĠ208cmĠxĠ146cmĠ(wxh)(82''x58'')
l oral
o tĠ
Ġf ur
Ġvol um
Ġstick ersĠdecal
Ġp uzz
ableĠ for
Ġsterling Ġsilver
Ġg rip
Ġp earl
9 2
Ġpan el
id asĠ
Ġm esh
Ġa v
ind ow
ond on
ass el
Ġwall Ġart
genuin eĠh
Ġ ic
Ġbe ig
s al
sĠs il
Ġc irc
h app
if i
e on
Ġg olf
Ġa 2
Ġn a
Ġst eeringĠwheel
Ġon eĠsiz
p an
Ġbl ank
sĠwovenĠpaperĠ(needĠglue) ,ĠxlĠ208cmĠxĠ146cmĠ(wxh)(82''x58'')
Ġqu ick
Ġscoo ter
x 10
b ell
lux ur
v it
eĠp ol
tern ational
p lastic
Ġsp ortĠ
om i
w) (
cmĠ( hx
cmĠ(hx w)(
as ic
o ard
m c
it or
um an
Ġbag Ġwith
f an
comp atibleĠwith
Ġm p
Ġac rylic
ick el
eĠs w
eĠm ask
tĠb ag
Ġ9 25Ġsterling
Ġmo on
ric h
Ġp upp
6Ġm 8
Ġs im
th eĠf
ul ation
Ġre tro
Ġb ush
ad idasĠ
Ġm agn
am ing
Ġf oodĠ
tĠp ink
eĠg if
da v
Ġ1 20
Ġ as
gre y,Ġ
e eĠ-
,Ġp ink
4 50
ech an
Ġor iginal
ing Ġfor
f all
t in
Ġri b
edĠ w
iltĠcoverĠsetĠbeddingĠsetĠ3dĠduvetĠcoverĠpillowcas es
Ġh d
eĠ di
Ġp ow
Ġst oneĠ
Ġb ow
Ġin Ġ1
n a
oop Ġearring
Ġo ver
Ġshir t
Ġc ustom
Ġfloor ĠwallpaperĠmuralsĠwallĠprintĠdecal
Ġcomp atibleĠ
.5 mm
n ec
an ch
Ġt ail
Ġfron tĠb
h ow
Ġ4 5
yĠb yĠ
ĠstairĠrisersĠdecorationĠphotoĠmuralĠvinyl ĠdecalĠwallpaperĠau
0 2
,Ġ no
Ġtransp ar
ri mĠ
o ak
23 .6
Ġlo go
tĠ of
c i
Ġc los
ug g
ev en
Ġle ash
eĠs lip
ro b
c t
, Ġsilver
o h
e ff
Ġsp oon
edĠ aluminum
Ġb on
Ġm ix
Ġt ex
al og
ff iti
Ġann iversar
ro und
j a
. 50
ĠwallĠar tĠ#
ph illip
Ġmak ing
Ġst ring
Ġelec tric
Ġsec ur
ent al
s e
d f
cm *
eĠh ex
l ank
en er
y -
esĠ with
g n
g lo
Ġorgan iz
flow erĠ
v anc
r h
Ġstreet Ġsign
Ġback pack
as o
c ardĠ
j u
y un
omet ric
sh af
unic orn
Ġd own
l ap
Ġper formanc
j ean
eĠt ra
Ġb or
Ġp ot
Ġc d
lay er
ar ti
.7 5
ĠwallpaperĠmuralsĠwallĠprintĠdecalĠwallĠdecoĠaj Ġwallpaper
tĠfor Ġwomen
ĠiphoneĠ 13
Ġslee v
3dĠp ink
man ufac
Ġm anc
- 5
Ġprin t,Ġ
az da
Ġsign al
h at
edĠg las
9 3
Ġsil k
kn itĠ
oneĠsiz e
qu o
Ġ *
Ġ imp
sĠs et
n al
is ion
Ġ- Ġb
rep air
Ġs ew
h andĠ
Ġsh opp
icyc leĠ
-c yl
vintag eĠpartsĠ
eĠp art
in ation
us p
Ġ( 12
edĠaluminum ĠstreetĠsign
Ġgu itar
Ġs on
ac c
6 50
iv or
sc reen
Ġd rop
Ġmo du
lu g
b or
ĠforĠh olden
Ġun der
Ġp lan
Ġp atch
etĠ p
Ġsc al
er ic
re al
)Ġ( oneĠsize)
ig an
f rontĠ
Ġm ark
Ġjewel ryĠ
Ġun iversal
eĠmen 'sĠ
,Ġ large
mmĠ -
ul ator
du al
Ġw oman
r c
eĠ 20
an sm
with Ġm
flow er
oo tĠ
Ġc able
sp ec
le vel
Ġf lu
rac tic
Ġ allo
n ylon
Ġp urpleĠ
tĠw omen'sĠ
Ġplu sh
bo dy
Ġh old
Ġslip persĠ
sĠc ar
Ġth readĠ
la yĠ
Ġsc ratch
edĠaluminumĠstreetĠsign Ġmanc
Ġf i
g rip
- in
re st
th erĠ
es c
it a
k i
Ġsk ull
ĠwallĠar tĠ-
ab il
da i
uil ding
rill Ġb
Ġremot eĠcontrol
Ġ200 5
Ġtr ack
Ġl ength
- 18
am esĠ
l b
Ġg 304
Ġ lip
Ġ 00
en tr
9 00
Ġch o
3Ġm 4Ġm
3dĠ green
Ġc amp
tĠfram edĠ
26 4
th eĠh
le atherĠ
r unn
1 30
ri verĠ
wall ĠmuralĠwallpaperĠ
Ġwomen'sĠ s
ch ildĠ
Ġc lub
ad o
j ector
p ower
Ġtr ans
Ġd r
per sonal
ew eller
mo ur
sĠ 4
Ġle ad
Ġt ech
ersĠ -
le ss
af et
Ġm or
Ġf an
Ġth eĠh
gre yĠ
y a
au gh
Ġbr andĠnew
eĠ 5
Ġpet rol
ing er
tĠ 12x16
col lar
Ġyear s)
sĠc omp
Ġfron t
Ġle avesĠ
in tĠ
tĠd isc
Ġ7 50
ar c
yĠp rin
ri ef
ros eĠgoldĠ
Ġro tor
edĠ h
Ġex haustĠ
h p
w ood
- 19
Ġf old
eĠbrakeĠc ableĠc
Ġre movableĠself-adhesiveĠ
2 Ġ(
Ġb en
Ġst ep
ha us
ignition Ġcoil
Ġmar ineĠ
Ġed ition
Ġp ick
os ch
Ġnav y
Ġspec ial
o ch
olog y
ĠsetĠ for
c am
sm etic
d ressĠ
Ġch ild
Ġfor Ġmen
m agnetic
rot tleĠ
blu e
sĠ th
eĠ 8
z a
Ġv 8
da yĠ
cl ark
/ 10
Ġfit sĠ
ullo ver
Ġbrak eĠrotor
ed al
Ġm f
Ġp ouch
ersĠ b
Ġ6 00
eau Ġd
ater ial
tĠb ik
9 1
am m
e ableĠ
Ġe le
Ġex tra
Ġscreen Ġprotector
Ġt er
sĠ |
app leĠ
Ġj ean
200 4
b en
um ph
eb all
t c
el la
Ġc it
-s mall
Ġw ais
Ġsocket Ġscrew
g etĠ
Ġp ost
m erc
Ġau Ġzoe
b utton
in itial
ĠfloorĠwallpaperĠmuralsĠwallĠprintĠdecal ĠauĠzoe
Ġst raw
ev il
t emp
ehic leĠ
Ġl ay
Ġm ask
mmĠ (
eĠm ug
Ġimperial Ġcoars
ing ,
Ġs ed
it ting
ab etĠ
k ar
Ġ em
dav idĠ
ar io
,Ġwhit eĠfram
l ab
ear ch
-p iec
Ġlet ter
Ġc amera
low er
Ġrep air
it sĠ
ra z
Ġmad eĠin
Ġ200 4
t mĠ
illi am
Ġ dĠ
Ġc z
eĠ qu
l ag
ĠsamsungĠgalax yĠa
Ġro p
res p
ĠappleĠ watch
3dĠhom eĠcar
ĠmatteĠpaper Ġprint,Ġ
ia omi
n ik
Ġm 12
yc ling
Ġt ea
925Ġsterling Ġsilver
Ġfre sh
Ġw ooden
Ġstick erĠ
st ainlessĠ
Ġun f
anva sĠprin
n u
genuineĠh onda
em on
i redĠ
du ation
Ġ8 .5
op ardĠ
Ġth eĠg
ub lic
eĠp er
- large
inn er
d ecor
Ġh ar
ov al
yĠbag ,
925Ġsterling ĠsilverĠ
Ġ16 v
ĠoneĠsiz e
ĠwallpaperĠwallĠmural ĠremovableĠself-adhesiveĠ
edĠ for
inc lud
min imal
vintag eĠ
2 .0
g al
w heel
urn it
x r
let terĠ
tern al
e ac
eĠ zhua
Ġin c
ch ildren
Ġd esk
onom ic
p ost
il lu
ass ag
ksw agen
th Ġbirthda
Ġh istor
Ġx Ġ100
yĠ v
gre atĠ
leĠ for
c ur
m el
Ġbo ardĠ
alle tĠf
Ġchar coal
col at
Ġb utterfl
Ġch rist
oc ean
st yleĠ
dĠ b
val ent
Ġ1 .8
Ġt rous
n ail
dis ne
Ġth read
Ġcolor ful
sĠp art
p ain
Ġw ireĠ
/ f
ch ang
ex haustĠ
Ġmulti Ġ-
Ġsh or
ot ic
yĠ &
Ġcon nector
Ġcover Ġfor
Ġsneaker ,Ġ
Ġs ch
- 4
eĠd o
our nal
Ġel astic
lit terĠ
lo op
ox fordĠ
yĠf oam
Ġdi esel
di ator
st rip
um ber
att a
tĠ( black
ed Ġs
g ing
vi ew
Ġp end
Ġh onda
Ġwomen &#39;
t s,
eĠd esign
p urple
ersĠ (
c ro
apan es
vers ion
e, Ġblack
Ġp urs
in door
er a
ĠkitĠ for
l c
y th
Ġ3 2
Ġt ensil
j etĠ
b y
Ġc yl
Ġte am
Ġde gre
k o
neak er
Ġshoulder Ġbag
tr onic
an i
p uma
ish ing
ub bleĠ
Ġh i
an th
Ġsumm er
Ġtra il
Ġc ream
Ġch air
ar tĠd
e ig
sĠ 5
pc s
qu in
n ap
Ġn urs
14 k
Ġhom eĠ
eĠh older
ass embly
eĠst ainlessĠsteel
Ġg e
acu um
b racele
leĠ s
Ġgenu in
gu id
Ġsn ap
at ure
headĠcap Ġscrew
Ġc ubicĠzirconia
/ 6
Ġfor Ġbmw
Ġd en
Ġmotor bik
Ġm usic
Ġp urple
esĠ c
3dĠ black
al con
d raw
Ġsyst emĠ
d on
yun dai
" Ġx
Ġ- Ġ1
f ant
Ġfil m
c ruis
tur n
Ġd igital
Ġt or
f ir
Ġcoun t
sk i
Ġh app
g arden
dip stick
ag u
th eĠg
Ġ7 5
tĠt pu
Ġm ov
aw n
x 7
,Ġ 18
Ġm om
Ġp os
Ġeng in
ad apter
Ġto ur
eĠto ol
Ġad apter
Ġflo p
ma idĠ
iel d
Ġsea tĠ
Ġch oos
b orn
green )
s ec
a .
ann iversar
h z
Ġd ura
qu ip
sĠc loth
Ġc ross
Ġt a
ad vent
Ġw edg
ra id
Ġar ch
ann er
Ġstre etĠ
reg atta
m as
] Ġfranc
whit eĠ
/ d
tĠb 12x
ros eĠgold
, Ġmetal
yĠm ar
,Ġ 50
Ġsterling ĠsilverĠ
end erĠ
h al
p air
Ġa x
umb ler
al iper
ing Ġin
abin etĠ
Ġt enn
Ġth in
Ġpro p
Ġshir tĠ
w o
bu ildĠ
ast er
g roundĠ
0 6
le avesĠ
ri k
Ġ ver
aqu a
tr ansp
m edium
200 3
Ġkey chain
ass ort
lu m
Ġp al
aw a
p lan
- 16
Ġsc ienc
f er
am in
Ġcas eĠwith
ic eĠ
e eĠ
Ġ4 00
di sh
Ġ10 4''x
cm(wxh) Ġ104''x
Ġmet allic
e et
Ġh ardĠ
Ġblu e,Ġ
val veĠ
flow ersĠ
Ġr ack
stru ction
g at
Ġsiz esĠ
th eĠd
ĠgameĠnonĠslipĠrugĠmatĠphotoĠcarpetĠ zoe
v es
Ġm ac
ve lessĠ
,Ġk m:
d b
edĠ andĠ
Ġ80 ''x
cm(wxh) Ġ80''x
lu ck
yĠw edding
ar u
6 Ġ(6
3dĠ c
eĠh and
ac tion
oard )
eĠd ecoration
Ġt apping
Ġwall ĠprintĠdecal
Ġr c
n it
Ġ1 .5
eĠ( withĠm
m etĠ
n igh
yĠd og
eĠ(withĠm atĠb
eĠ(withĠmatĠb oard)
Ġsm ooth
erĠd ecal
3dĠ redĠ
yn amic
eĠ necklac
Ġc rew
Ġd ay
ot iveĠ
Ġrib bon
y oga
Ġ9 4
nav y,Ġ
Ġsh ow
Ġg ar
ed uc
ud d
cas eĠfor
Ġh ood
lo g
r hineston
c loth
ligh tsĠ
Ġstu dio
/ 12
40 -
d riveĠ
v il
rem ium
ty r
manufac turedĠ
aso sĠdesign
ing Ġtool
Ġsing le
Ġs eat
ĠsetĠ -
eĠc ap
n essĠ
sĠw hit
sh ell
Ġ( c
rop ical
sĠ k
ing ,Ġ
it iveĠ
black )
b rush
sĠt re
Ġshopp ingĠbag
Ġre li
eĠb racele
ad ap
d isp
p or
12 .9
f r
eĠc ut
et ern
ansm ission
Ġmulticolor ĠdecorativeĠ
Ġc ent
eco Ġfriend
re etĠ
Ġf oil
Ġgal van
ra s
rem ot
ol our
ac t
m x
esĠ h
Ġm x
rac tical
eĠcol our
endantĠ necklac
Ġen velop
eĠcover Ġfor
Ġf rom
f la
Ġsh in
Ġb owl
ov erĠ
Ġshock Ġabsor
Ġc le
Ġc l
Ġh dĠ
ĠforĠm erced
Ġar tĠ
re movableĠ
on a
ber ry
Ġp ressur
af f
Ġper fec
ist ic
3dĠhomeĠcar petĠ
jewel ryĠgif
Ġs qu
Ġv is
um n
Ġst ack
z o
ro g
y r
Ġlarg e
americ a
er s,
at o
f unction
Ġst rong
Ġre al
Ġo c
d river
ann el
edĠ to
tĠ /
qu iltĠ
/ 1
Ġ âĢĵ
t ouch
20 19
h d
yn th
eĠl ineĠ
Ġus a
Ġflow ersĠ
ï¼ Ī
Ġco atĠ
eb i
Ġp ort
Ġal ph
quo is
Ġbrak eĠdisc
u a
tw o
i ou
- 8
a tĠp
eĠc olor
0 7
200 2
Ġsupp or
mo k
per formanc
p earl
Ġext ension
tĠc on
Ġp illow
eng in
,Ġf old
et work
b lo
t an
tĠ12x16 Ġinch
Ġp re
x- larg
ii i
eĠg irl
ar mour
Ġm erced
Ġm ic
Ġbol tsĠ
umb erĠ
8 Ġ(8
20 18
Ġfor Ġaudi
ĠiphoneĠ 11
Ġcomp let
w ard
Ġw ool
l abel
et ch
anvasĠwallĠartĠpictureĠprin t
h en
moun tĠ
Ġ4 cyl
Ġsp eak
t .
0 8
fi el
ge ox
eĠwall Ġar
Ġmak eup
tĠb yĠ
,Ġwhit e,Ġ
or a
Ġ3 5
le ,Ġ
coun tersunk
edĠ t
sĠ v
yĠj an
Ġh ondaĠc
stick erĠ
3 Ġ(
eĠb ead
Ġwid th
r uss
lo p
ma ster
Ġsed an
gro cer
cover Ġbook
Ġt urn
lear n
Ġw rist
sĠf unn
Ġb ank
Ġpitch ĠmetricĠcoars
ĠcurtainsĠdrapes,Ġ 264
Ġm i
rubb erĠ
ol o
g 316
protec tor
ro dĠ
m k
Ġwhit eĠgoldĠ
x 2
ing leĠ
tĠb lu
il la
ĠshifterĠ (
ĠxĠ5 9
Ġdi amet
lightweigh tĠ
eĠ i
,Ġ reusableĠ
queen Ġking
is su
skech ersĠ
urg und
e 'sĠ
Ġm achineĠscrew
duc tsĠ
ĠcurtainsĠdrapes,Ġ 203
l aptop
Ġsc arf
Ġank leĠboot
b erĠ
Ġ ital
Ġs atin
Ġk ick
Ġd a
Ġr en
ul a
eĠ 6
toy ota
eĠ on
Ġgem ston
Ġcar toon
Ġsp rock
eĠ lin
short ĠsleeveĠ
t ang
d ecoration
.5 ĠmĠus
m emor
/ b
ĠstainlessĠ g304
und erĠ
co up
1 Ġ-
eĠph on
Ġm us
Ġm sw
agg io
eĠtre kk
Ġl abel
ĠpendantĠ necklac
- r
on der
le ad
sp ring
Ġg erman
eĠ sho
au dio
eĠg u
sĠ 6
ra ssĠ
Ġh arnes
Ġoffic ial
eĠs of
att oo
Ġa w
le f
eng ineĠ
sĠb lu
Ġs a
Ġros eĠgoldĠ
et ti
> on
Ġx Ġ6
alletĠf lat
Ġr m
rop ean
packĠof Ġ2
able ,Ġ
Ġch ang
eĠm ar
al i
protec tiveĠ
igh tsĠ
Ġbrak ingĠp
esĠb enz
Ġh eat
Ġp ull
ĠroundĠ non
- st
kitĠ dipstick
pro ĠbrakingĠp
ext ension
i mĠ
alloyĠwheel Ġmsw
- z
d ream
sĠ sh
el in
Ġd c
tĠw hit
ocketĠ headĠcapĠscrew
ang u
Ġd angleĠ
Ġfor Ġvol
p l
eĠc up
o em
p attern
om otiveĠ
rib bon
Ġd eep
0 3
Ġb yĠs
Ġex c
at ureĠ
Ġp ip
Ġ2 2
Ġ0 8
lo os
(whit e)
Ġjo hn
un ior
Ġlo op
tĠf it
spir ational
ĠframedĠ artĠprin
co atĠ
n ight
k idĠ
tĠframedĠ 12x16
sĠst ainlessĠsteel
er ation
-p lat
tĠf unn
p lay
Ġ7 .5
Ġw al
h ook
Ġ endĠ
Ġs impleĠ
Ġcas e,Ġ
ti fi
e ather
vis ion
usp ension
- 13
Ġc uff
Ġp ur
char coal
ib r
Ġp encil
m b
amp ion
m esh
0 5
erc is
eĠm an
a 4
Ġstick erĠdecal
z en
ab y
Ġ3 6
3dĠ yellow
Ġv 6
Ġs ung
yp o
2 pcsĠ
ra deĠ
un iqu
Ġf amil
la x
w rap
Ġx iaomi
res in
eĠst or
le ash
3Ġm4Ġm 5Ġm
Ġp adĠ
eĠ 9
ry s
Ġ12 v
2 Ġ-
es tĠf
Ġ emb
ru c
c rystal
0 4
ro ber
ĠshoesĠ for
Ġkn if
Ġm id
Ġ200 3
sĠc on
ear ing
k ick
eng lish
resist antĠ
g r
em i
Ġsp eed
f a
eĠfram edĠ
Ġlu x
a ero
eĠch ain
sĠ 10
Ġh eav
ep t
Ġf emal
Ġpack )
Ġm el
8 .8
g asket
Ġb reathableĠ
Ġg un
Ġle af
ol iv
Ġst ock
)Ġ( s)
Ġbr ack
ï¼ ī
is mĠ
e etĠ
ir tĠbik
ott om
Ġp ush
ap ph
eer ing
3 20
Ġ0 9
Ġh ing
Ġe ver
t ap
gen ic
eĠw edding
Ġpu Ġleather
k eep
Ġ1 /4
Ġd iff
s aa
sc rew
Ġtim ingĠbel
an im
lightĠb lu
Ġdura bleĠ
Ġbal anc
tĠ top
Ġ ir
Ġcon ver
kn if
Ġw aterĠ
sĠ and
pink )
eg et
m icro
st itch
agementĠ ring
ind erĠ
Ġst r
Ġbath room
Ġm ag
f rom
Ġle vel
Ġhand mad
om a
Ġf lexibleĠ
ac tiv
Ġb irdĠ
Ġc r
ins er
sĠs of
Ġth em
l .
3 .5
jos )
w inter
d ragon
iv el
Ġd om
h em
Ġbott om
st ra
Ġ1 10
Ġf ir
Ġre leas
Ġt ip
Ġgif t
lock ing
e/ black
da ugh
p erĠ
Ġ& Ġmanual
Ġl ineĠ
Ġwhit e,Ġ
1 200
Ġp ark
Ġblo us
Ġsp eedĠ
qu il
Ġrac ing
ĠwallpaperĠwallĠmuralĠremovableĠself-adhesiveĠ stickerĠ
Ġb yĠp
w arm
zip per
id e
Ġfish ing
l il
Ġad ap
Ġbrak eĠc
, ĠstainlessĠsteel
.. .
t-shir tĠ(
e e
Ġe p
o vers
y :
ecoĠfriend ly
aller genic
Ġf aux
Ġm er
eĠcomp atibleĠwith
con troll
Ġnot ebook
Ġp owerĠ
emen tĠb
Ġsm ar
f riend
Ġtur key
Ġst ation
ĠwallpaperĠwallĠmuralĠremovableĠself-adhesiveĠstickerĠ zoe
Ġanim eĠwall
ustri al
Ġboy sĠgirl
Ġli d
Ġn am
c up
ain t
Ġeu )
ach ineĠ
aming o
mm -
en tĠp
Ġ6 50
ĠandĠ women
Ġchristma sĠ
d eep
t x
if ic
car bon
,Ġ red
la v
0 9
ar mĠ
Ġo b
6 5-
sol idĠ
Ġqu artz
, Ġfor
ele ph
ypo allergenic
Ġcomp ression
Ġunc ĠimperialĠcoars
eĠph oto
Ġt ig
tĠh andĠ
Ġval veĠ
eĠ ring
yb ridĠ
d ol
ig saw
ch rist
ĠandĠ girl
y ardĠ
ra bb
ins ulatedĠ
eĠw ork
Ġ(black )
g el
sĠsc reen
sp ortĠ
cover Ġfor
t )
ĠengineĠ mount
a ,Ġ
Ġy ard
Ġh ors
Ġcas e
t oteĠbag
pol o
24 1
2 20
Ġt pu
m is
men tsĠ
n er
eĠst amp
oto crossĠ
Ġc lock
tĠh and
f riendĠ
f rench
Ġm mĠ
tĠw atch
yĠb ar
Ġs ex
eĠb o
b c
ear th
w alking
un ting
Ġ2 6
transp ar
eĠp ost
sĠ+ Ġpad
Ġd l
end ar
Ġsm art
c ak
n ightĠ
- pack
Ġa ustralia
Ġc mĠ-
in tedĠ
ex c
ic tion
soft coverĠbook
l ak
edĠbrak eĠlineĠ
eĠ r
Ġin itial
Ġv ehicleĠ
outĠ photo
o ther
ound ation
new Ġyork
Ġre usableĠ
outĠphoto Ġcurtain
Ġt-shir tĠ(
Ġa fl
,Ġ x-large
,Ġfold able
Ġd vd
f unn
ug ar
pro p
Ġsticker Ġws-
x -small
Ġr hineston
,ĠreusableĠ grocer
li on
Ġg el
)Ġ( m)
t ub
d ry
Ġtransp or
Ġc and
b each
Ġ2 .4
Ġtitan ium
sĠ di
dog Ġcollar
)Ġ( l)
sy ch
eĠst ick
ama z
tĠw omen
ath room
Ġb yĠd
r atedĠ
sil verĠ
Ġins ulatedĠ
Â ®
is k
Ġvi ew
Ġcon tain
Ġt ouch
ecoĠfriendly ,Ġfoldable
plat ed
ĠglossĠ black
Ġbracele tĠ
Ġ embroider
Ġ3 16
ck tail
ti bleĠ
uc ati
Ġ2019 Ġ19
6Ġm8 Ġm10
v et
Ġg ym
ref lectiveĠ
Ġd et
ss om
mo bil
h eavyĠdut
od y
it ic
Ġc er
3dĠ cartoon
eĠt -shir
Ġspark Ġplug
Ġst op
-s c
x ma
it edĠ
al ex
iz on
ch rom
for c
re v
h ang
eĠ shoesĠ
m y
Ġc n
Ġsu v
on ey
lic ens
Ġpro of
Ġy z
eb ra
vol ution
Ġg a
Ġh ealth
Ġstrap Ġfor
amb ridg
Ġtrain ing
eg an
f ebi
Ġro und
Ġch eck
hand mad
Ġ7 00
ĠwallĠmuralsĠwallpaperĠmural sĠself-adhesiveĠvinyl,Ġxx
reg ular
p ortableĠ
Ġ10 6
oĠshir tĠ(
lee veĠ
u h
Ġ ipadĠ
in ish
,Ġc anva
mo dor
Ġac tiveĠ
ans ion
ĠbedĠpillowcasesĠqu iltĠ
silver )
ĠwallĠmuralsĠwallpaperĠmural sĠwovenĠpaperĠ(needĠglue),Ġxx
304 ĠstainlessĠsteel
th re
Ġ- Ġ3
yĠt eeĠ-
Ġon ly
-b l
Ġ athletic
f ruitĠ
114 .3
Ġsur g
ou redĠ
-s il
Ġt ooth
Ġ2 3
eĠp an
Ġp iston
e il
Ġd oll
Ġb edroom
Ġblack /
Ġblack Ġsize:
o le
"Ġ eĠbrakeĠcableĠc
eĠ leather
brak eĠpadĠ
Ġp ag
- 14
t s,Ġ
)Ġ( xl)
- 15
b osch
- top
Ġ american
n i
Ġn u
em o
yĠf avor
ger man
gra y
a 2
10 8
w i
eĠp ink
oo ti
199 9
m usic
we i
ic orn
Ġsh af
x19 Ġ5x112ĠetĠ
Ġ edg
Ġh yd
Ġpol ar
-w hit
umm er
Ġc rop
sĠf ashion
- h
k enn
- shap
. Ġb
mo ck
ill ar
p la
af l
Ġs l
edĠ color
eĠb ol
open Ġto
in eĠg
eĠw atch
ing Ġwith
tĠw heel
cre ativeĠ
b um
to ur
gra deĠ
Ġt an
f oodĠ
Ġ2018 Ġ18
ving Ġroom
ot ion
Ġorgan ic
in imal
las p
i erĠ
ĠwallĠar tĠ(
114.3 ĠetĠ
v ari
Ġ rainbow
oot ball
es :
Ġof ĠtheĠ
ad just
Ġco smetic
larg eĠdog
fl ag
" Ġneck
Ġon e
Ġfig ur
Ġwalle tĠcas
Ġfram e
en tĠc
a )
eĠp iec
Ġfram edĠprin
lo u
Ġtw in
ew ear
Ġp res
Ġ rain
c anva
Ġp ul
3d Ġsun
Ġ1 200
Ġro t
Ġnon ĠslipĠrugĠmat
g las
di amet
en velop
y gen
vol .
i ercing
Ġt ungsten
Ġ2 1
Ġun icorn
urp os
Ġ1 /2
resp as
charg eableĠ
Ġaut omatic
y an
eĠ& ĠstainlessĠ
sĠb o
vic tor
Ġm nh
di st
- up
st at
Ġt ot
Ġ5x 114.3ĠetĠ
20 15
ra v
o- ring
f uel
tĠprin tĠframedĠ12x16
Ġ+ Ġsid
t ig
t respas
- 11
Ġc dĠ
ug eo
Ġd ig
all yĠ
Ġb u
4 .1
c lip
Ġ2 8
lo udĠ
Ġsur f
Ġst itch
on e
ri g
ĠwallĠpaper ĠwallĠprintĠdecal
ele g
er s,Ġ
Ġ2 9
Ġzip per
ol in
kĠgoldĠ platedĠ
Ġg p
m p
Ġmp fi
sp or
Ġ100% Ġcotton
m ill
Ġ end
sĠwomen s/ladiesĠ
nav yĠ
2- 70
Ġ1 80
edĠc anvasĠ
akeĠt opper
Ġ4 g
Ġh ow
Ġc el
sĠre ar
h istor
h oodi
5 .5
sil icon
achin eĠwash
Ġt pi
eĠdo or
Ġ- Ġpaperback
adul tĠ
Ġser vic
t ru
yĠc raf
sh ad
eĠnon ĠslipĠrugĠmat,Ġ
yĠp h
g em
ret t
Ġro yal
ĠxĠ4 2
t enn
Ġt ag
v est
h alloween
Ġt emp
am o
- th
ic eĠc
Ġac tion
g ar
Ġk tmĠ
iz ed
women sĠ
l on
c op
asket ball
Ġf lash
Ġnon -
Ġ( 2
Ġh alloween
w iperĠblad
plu g
eĠb ack
x18 Ġ5x112ĠetĠ
f air
Ġs s
Ġv el
lassĠ 8.8
Ġbra ssĠ
- 32
Ġmin imal
lec loth
f old
Ġp artsĠ
5 Ġ(5
Ġfor Ġsuzuki
wallĠar tĠframeĠ/Ġsize:
ic o
p lac
Ġi ii
Ġp ool
Ġw ovenĠpaperĠ(needĠglue)
Ġair Ġfilter
w ir
s elf
ĠforĠh onda
our ne
1 /4
artĠd ecoration
199 7
book Ġof
illu str
Ġy oga
ad vanc
Ġ( whit
eĠm otor
leg ging
- 7
you th
Ġ3 .5
ox ford
Ġy ver
Ġw olf
ine 'sĠ
Ġ2.0 l
Ġach ĠwallĠmuralsĠself-adhesiveĠvinyl,Ġxx
Ġpol o
Ġ- Ġ4
Ġt v
n or
Ġfor Ġyamaha
123 tĠfunn
Ġ925Ġsterling Ġsilver
123tĠfunn yĠteeĠ-
ut ral
it o
g litter
Ġp add
sĠsetĠ for
Ġpi aggio
Ġgirl s
m ix
Ġc ordĠ
- 24
tĠ va
Ġyellow ĠgoldĠ
h ard
eĠ 19
m 3
Ġsk i
n orth
r un
os ableĠ
ol io
ma h
ulti mat
p re
ph in
. Ġf
s n
c tĠ
rem bo
Ġmo bil
Ġwa ist
d isc
rak eĠdisc
Ġach ĠwallĠmuralsĠwovenĠpaperĠ(needĠglue),Ġxx
10 1
199 8
Ġgra d
4 pc
ĠwallĠsticker Ġself-adhesiveĠvinyl
tra il
,Ġm ulti
Ġc ro
anvasĠwallĠartĠpictureĠprin tĠva
orn am
or izon
eor g
n dĠ
Ġch ildĠ
t ac
eĠb ook
b f
Ġbas ic
Ġk nob
Ġ19 8
d ress
m 10
Ġm idĠ
Ġmo d
weat shir
j essĠ
Ġsof tĠtpu
rap p
sho es
yĠbag, ĠshoppingĠbag
mmĠ zinc
tĠ +
,Ġcanva sĠcloth
Ġh op
,ĠreusableĠgrocer yĠbag,ĠshoppingĠbag
,ĠcanvasĠcloth ĠbagĠwith
sĠt-shir tĠ
ĠprintedĠ toteĠbag
manufacturedĠ in
Ġ200 2
6 mm
jessĠ artĠdecoration
2 Ġx
ĠbchwĠwallĠmuralsĠwallpaperĠmural sĠwovenĠpaperĠ(needĠglue),Ġxx
Ġslip -on
Ġb ell
ar eĠ
Ġdesign edĠandĠ
li k
Ġ- Ġs
eĠc ardĠ
6 )
ĠbchwĠwallĠmuralsĠwallpaperĠmural sĠself-adhesiveĠvinyl,Ġxx
h os
Ġ0 7
mo s
sĠ unisex
s ensor
ĠdesignedĠandĠ manufacturedĠin
os eph
ĠdesignedĠandĠmanufacturedĠin Ġturkey
ĠcmĠ- ĠdesignedĠandĠmanufacturedĠinĠturkey
ecoĠfriendly,Ġfoldable ,ĠcanvasĠclothĠbagĠwith
Ġinch es
Ġi watch
ul d
sho ulder
ad a
Ġm k
- neck
d own
eĠn ail
Ġph oneĠ
eg g
Ġshir tsĠ
and a
hom eĠdecor
/ 20
sh in
eg inn
k haki
ĠmatteĠpaperĠprint ,ĠwhiteĠfram
ic ator
al a
em aleĠ
Ġb y
go ssĠ
ens /
ast el
ril ia
x s
oo g
and er
- 9
Ġf rench
Ġc anva
ol a
t m
Ġf romĠ
Ġcom modor
/ 32
fre sh
5 )
an Ġp
Ġbank not
bl k
ĠgenuineĠ 9
fic ial
k at
tĠwall Ġar
Ġb amboo
Ġd ragon
Ġreg ular
Ġb uck
bo urn
gold )
Ġbol tĠm
9 25
3dĠ gra
,Ġ 100
lightĠ oak
3 )
Ġt ru
ess enger
Ġb yĠb
prem ium
wall Ġmural
10 2
m ag
ĠpremiumĠnon-wovenĠpaper-w: Ġ525cmĠxĠh:Ġ295cm
vinyl (
l unch
ĠmatteĠpaperĠprint ,Ġblack
esĠ &
eĠp ack
les s-
200 1
ĠheavyĠdut yĠ
Ġs ist
Ġu v
ol iveĠ
it z
r p
1 /4"
ĠmatteĠpaperĠprint,Ġ lightĠoak
ynth etic
Ġgra deĠ
k awasaki
Ġself Ġtapping
2-70 Ġg304
Ġanim eĠb
Ġlet terĠ
Ġsc ot
Ġal tern
Ġself-adhesiveĠlaminatedĠvinyl-w: Ġ320cmĠxĠh:Ġ225cm
Ġsid eĠ
alumin umĠ
esĠb yĠ
Ġm ap
Ġ adhesiveĠ
Ġt in
eĠp attern
ing Ġa
Ġb m
Ġin st
ĠwallĠdeco Ġindoor
Ġself-adhesiveĠlaminatedĠvinyl-w: Ġ525cmĠxĠh:Ġ295cm
adul tsĠ
ĠpremiumĠnon-wovenĠpaper-w: Ġ420cmĠxĠh:Ġ260cm
mo d
th eĠt
f ig
lic ation
rip leĠ
sĠscreen Ġprotector
u z
Ġv w
Ġg ro
Ġ angleĠ
f alcon
Ġsurg ical
mĠ (
larg eĠ
Ġself-adhesiveĠlaminatedĠvinyl-w: Ġ420cmĠxĠh:Ġ260cm
Ġo val
Ġpain tĠ
j ump
siz e:
l ondon
Ġcomp an
er 'sĠ
Ġself-adhesiveĠlaminatedĠvinyl-w: Ġ210cmĠxĠh:Ġ146cm
,black ,
ros eĠ
Ġb sw
sĠf rontĠ
d w
Ġli dĠ
ĠxĠ8 4.1
1 /2
ĠpremiumĠnon-wovenĠpaper-w: Ġ210cmĠxĠh:Ġ146cm
color ful
can ton
Ġ0 6
olog atedĠ
dor man
Ġ '
sp ortsĠ
st ein
u ro
Ġ2017 Ġ17
Ġw alk
Ġad vent
tĠg if
ric an
n olog
Ġco ur
itan ium
edĠcanvasĠ /
Ġsho e,Ġ
dd l
ĠheadĠ bol
Ġsc en
b et
c offe
3dĠprin ting
40- 45
.4 ĠxĠ84.1
Ġcon dition
eĠp etĠ
ĠpremiumĠnon-wovenĠpaper-w: Ġ320cmĠxĠh:Ġ225cm
- ray
atĠ for
sĠw edding
Ġfl y
Ġ2016 Ġ16
1Ġ( 59
.4ĠxĠ84.1 cm)
1Ġ(59 .4ĠxĠ84.1cm)
le m
iz ation
e) Ġ-
less- steel
ĠbedĠpillowcasesĠquiltĠ duvetĠ
el sea
ril ling
Ġo vers
Ġh oop
Ġfron tĠdisc
Ġmo ther
Ġd rill
n ickel
in esĠ
Ġslo t
tĠc ardĠ
ef (
met allic
c ableĠ
anti -slip
up to
/ h
ed ic
Ġt able
on y
Ġ304 ĠstainlessĠsteel
ĠxĠ59 .4
au (
mĠ #
ing ton
r ens/
p antsĠ
d ens
Ġ er
lightĠb ulb
- Ġwhite
s l
ef( 40-45
Ġg asketĠ
Ġfig ure
on ly
Ġe quip
Ġl c
ac o
en erg
Ġsupp ort
ph il
Ġbott le
aĠf r
up Ġto
righ t
eĠ your
Ġcom m
Ġsim ulatedĠ
8 )
Ġli m
- childĠ
Ġhard back
u it
f ranc
i e
yĠn ot
ster n
ĠanimeĠb edĠpillowcasesĠqu
-f re
o undĠ
eĠc ard
] Ġbanknot
Ġ2015 Ġ15
idĠ b
1 .6
70 .7
ĠxĠ100 cm)
,Ġ 16
th rottleĠ
Ġl a
Ġ essential
Ġh alf
a 2-70Ġg304
rec ision
- 00
2Ġ( 42
- black
tĠ- Ġblack
70.7 ĠxĠ100cm)
ĠxĠ59.4 cm)
2Ġ(42 ĠxĠ59.4cm)
1Ġ( 70.7ĠxĠ100cm)
st op
rizom aĠfr
Ġl aw
tĠf itĠ
eĠb rak
rit ish
Ġb adg
igsaw Ġpuzz
en u
id ea
tĠw ash
lin en
al ys
eĠw ater
Ġj ump
17 0
sĠc lassic
yĠb ann
Ġblock outĠphotoĠcurtain
stand ardĠ
5 20
Ġm ĠusĠ
Ġland cruis
f el
ĠsetĠ (
Ġd ish
sĠb irthda
ur tain
amp oo
sĠ 8
p lain
Ġfor estĠ
el leĠ
Ġfe etĠ
Ġsc rap
Ġac c
Ġth re
sh op
Ġg b
eĠtra vel
non Ġslip
x s)
ĠwallĠmural sĠself-adhesiveĠvinyl,ĠxlĠ208cmĠxĠ146cmĠ(wxh)(82''x58'')
eĠ 0
Ġgre yĠ
Ġsol ar
ick en
Ġg asket
29 .7
,Ġblack /
Ġtr ansmission
Ġkn it
Ġ8 mm
p ort
tĠ ch
Ġfoot ball
tĠp oster
ĠjacketĠ (
v iv
Ġp ass
Ġf oam
Ġnon -slip
q v
Ġdo hc
Ġsw imm
Ġtri umph
eĠc rystal
3dĠ water
ĠsetĠ with
ing le
Ġj eweller
bod yĠbag
Ġd ist
- k
ic nic
in dĠ
ĠwallĠmural sĠwovenĠpaperĠ(needĠglue),ĠxlĠ208cmĠxĠ146cmĠ(wxh)(82''x58'')
ro d
raph ic
p ant
arrow Ġhom
sĠcas ual
lu c
id getĠ
sĠp ainting
mar c
nav yĠblu
Ġc ab
en a
Ġaccessor ies
ĠxĠ42 cm)
o th
Ġwhit e/
Ġfor Ġnissan
eĠb ar
Ġf rank
Ġth eĠt
eĠ la
Ġhand bag
Ġligh tsĠ
e es
3Ġ( 29.7
40 mmĠ
3Ġ(29.7 ĠxĠ42cm)
Ġnecklac eĠ
Ġser ies
e ag
ne on
x 5
eĠf ull
t il
it yĠs
erĠ in
Ġdi yĠ
ing Ġ(
dition al
er b
est ival
b irthda
Ġ200 1
ack drop
Ġs r
Ġf ineĠ
n urs
Ġsub aru
sĠ /
hom eĠ
x 6
Ġt each
Ġf air
di amond
- 30
fit sĠ
3dĠ w
Ġc ell
Ġth eor
m ac
Ġb i
Ġqu een
Ġf un
k w
unn el
e- cas
h ardĠ
sĠw ater
Ġm c
ro ad
st art
toddler /
Ġ it
Ġb an
Ġli qu
Ġnew Ġyork
Ġj ersey
ist ur
girl sĠ
v esĠ
Ġcomfor tableĠ
Ġland scap
( car
4 )
Ġl :
ĠappleĠ iphoneĠ
le ftĠ
giviĠcas eĠtrekk
ad ver
Ġ94 ''
o veĠ
i entĠ
or ch
ic e
eĠf il
ugeo tĠ
Ġsh ank
Ġm idi
Ġkid s
Ġro m
''x Ġ106
70 cm(wxh)
''xĠ106 ''
Ġr w
cmx 241
Ġr ang
3 pc
li veĠ
ok erĠ
arg o
urnit ur
ank leĠb
h an
ank leĠboot
Ġhandle s,Ġ
Ġhos eĠ&ĠstainlessĠ
u itĠ
Ġpo ster
12 v
Ġm achin
Ġ2014 Ġ14
lo ud
Ġc anvasĠ
a ver
rillĠb itĠ
Ġc u
ea st
Ġ9 00
how Ġto
cmx2 70cm(wxh)
Ġg lov
motor cycleĠ
Ġst ag
u li
4 Ġ(4
h ors
Ġc lamp
neak ersĠ
sĠs andal
Ġb ed
Ġfloor Ġmural
ro man
Ġlarg eĠ
Ġ6 3''
cmx2 13
gu ardĠ
ing Ġ-
Ġ8 3''
Ġj eep
opp erĠ
3dĠ for
sĠc ut
cmx 160
our c
Ġfram eĠ(withĠmatĠboard)
Ġlux ur
anc e
Ġm agic
er i
hear tĠ
Ġa qu
Ġg litter
Ġfi ber
, Ġwith
7 )
eĠco un
al m
Ġcre ativeĠ
Ġb ridal
Ġ eth
ĠbedĠpillowcasesĠqu iltĠcoverĠsetĠbeddingĠsetĠ3dĠduvetĠcoverĠpillowcases
eĠs mall
com b
yĠb oy
i sĠb
Ġchev ro
Ġc ub
ed Ġsweatshir
lec tor
ru ff
av ail
jewelry ĠforĠwomen
Ġblu etooth
ur ch
g or
ank leĠ
non -
e erĠ
sĠc olor
Ġch ip
ank s
st amp
e op
y ard
Ġf z
Ġc sk
ed )
el ic
skech er
read ingĠglassesĠ
Ġsof tĠp
anti qu
(car bol
(carbol ook
Ġs sĠ
ib le
vers ibleĠ
-sc ratch
ang leĠb
ra mĠ
Ġ6 .5
1 x
eĠh air
leĠ -
Ġ4 x4
- 17
Ġass ort
us qv
eĠh om
-20 15
usqv arn
tĠc omp
di ff
ĠforĠm itsubishi
100 ml
br andĠnew
yĠh and
m id
Ġgra y
ther mal
47 .2
Ġb re
Ġl ab
ut ur
Ġ iron
sĠs k
lass es
eĠh ead
ul tur
Ġtri mĠ
sĠst eeringĠwheel
y Ġwomen'sĠ
yst em
Ġs ens
Ġin ser
le in
,Ġ 0
Ġsp li
all Ġball
ow der
anvasĠwallĠar tĠframeĠ/Ġsize:
20 17
Ġa tĠ
Ġd ri
10 5
b reathableĠ
ullo verĠ
it yĠp
Ġ10 mm
eĠcol lection
st retch
Ġstain less
f lu
yĠd ressĠ
Ġg r
Ġsn ak
b irdĠ
Ġph otograph
sĠ- Ġblack
y u
ario us
erĠ ring
Ġx r
p ump
Ġau dio
Ġ america
Ġclo g
ig o
Ġn eed
h ood
Ġg 316
! Ġvinyl
ov ski
oll ar
ar el
d vd
70 .9
ott le
Ġf lex
Ã ¸
e- up
if oldĠ
2 xl)
eg a
Ġ "
gre eting
Ġ3 8
el lish
en tĠb
k ne
sp ac
e bo
fiel dĠ
yĠsuppli esĠ
Ġrear Ġdisc
Ġn rl
Ġb yĠg
Ġv ari
it iesĠ
Ġin .
i ra
Ġfin ish
lac eĠup
per fec
Ġst em
-20 18
Ġle d
edĠ -
ab sor
or g
Ġl at
qu artz
20 10
x 12
Ġmar bleĠ
Ġac tiv
Ġm ain
,Ġ 14
Ġgra phic
p ortĠ
om m
j ersey
Ġh ub
- 25
t angleĠ
et er
Ġhd mi
underĠ armour
20 14
an iel
ra itĠ
el i
Ġw rit
Ġt rim
tsĠ -
,Ġc ubicĠzirconia
w /
65- 70
Ġbab y
os oph
Ġcut ting
th ersĠ
Ġbracele t
saa sĠsteeringĠwheel
b ec
Ġh atĠ
Ġw ing
erĠn Â°
ath ersĠ
sĠ pro
m att
Ġ2 Ġpack
, Ġch
c cas
ĠsocketĠ headĠcap
a ustralian
Ġ oldĠ
eĠs eriesĠ
Ġ1 /2"
w id
ad ida
ord ic
elli erĠnÂ°
sĠn rl
eĠb ab
anti -
edĠbrakeĠlineĠ (carbolook
ra il
earring sĠ
re ativeĠ
im on
eĠc otton
ep per
Ġp ig
edĠaluminumĠstreetĠsignĠmanc av
Ġc ak
ac qu
Ġfor k
eĠsil ver
aut omatic
Ġl as
yd ne
a ustralia
wallĠar tĠ
shir t
ul ic
Ġwid eĠ
i sĠd
est ern
sĠs lip
sĠp lastic
ĠmarineĠ stainlessĠ
tang ular
ĠdressĠ -
gg ing
p od
Ġpol yest
Ġb uckleĠ
,Ġ green
tsĠ &
p en
Ġhear tĠ
j an
oll y
Ġc ow
Ġlit r
ch er
w rist
Ġalumin ium
Ġfor Ġf
Ġhang ing
b reak
form ation
Ġs x
Ġmil itar
Ġb il
ess er
3dĠprinting Ġcurtain
Ġco at
oo tĠp
Ġvintag eĠ
ĠbedĠpillowcasesĠquiltĠduvetĠ coverĠsetĠ
Ġwin terĠ
it ation
Ġd vdĠ
90 cmĠ(
um ini
ele br
Ġs uspension
es er
e,Ġ 10
Ġb edding
sĠs w
eĠst rip
Ġt all
echan ical
Ġs ink
lo us
,Ġ oneĠsize
eĠd y
aj ama
c ast
Ġsuit ableĠfor
eĠst yleĠ
eĠ |
lus iveĠ
Ġx Ġ7
rem iumĠ
Ġyou th
le opardĠ
Ġslee velessĠ
eĠf lat
di ac
20 12
Ġph il
Ġsh ortĠ
sĠfor Ġmen
tĠ v
christma sĠ
temp or
qual ityĠ
an ish
ho d
g asketĠ
/ big
Ġself-adhesiveĠ removableĠ
ĠwallĠsticker Ġws-
s v
t ext
Ġb ann
vi sĠt
esĠ aero
eĠm ini
m ic
Ġb reak
Ġm art
ak er
whit e
it air
t /
jacketĠ (
ĠbedĠpillowcasesĠquiltĠduvetĠcoverĠsetĠ queenĠking
w al
in um
Ġpiec eĠ
Ġsk inn
rac ing
umini umĠ
or i
unc (
m ass
Ġd ia
k nob
Ġ0 .
erĠg if
b itĠ
t p
t dĠ
Ġsh rink
n w
ra ulic
eĠ 7
w orldĠ
Ġ( 16
Ġs ant
40 mm
,Ġ 13
ccas in
(whit e)Ġ(
Ġgirl s,
Ġsh elf
irs tĠw
x iet
c ustom
2 10
Ġ199 9
m 12
sĠh air
Ġd on
Ġ- Ġp
3dĠ bedding
Ġsoc ial
x 16
20 13
Ġl any
Ġ itĠ
Ġsty lish
ad eĠ
df Ġpainting
ri o
Ġblu eĠ-
s lip
g k
low erĠ
yĠd ecor
Ġr unn
p leĠ
lin dĠ
2Ġm 2.5
ab b
Ġ sĠ
20 11
eĠf ac
Ġfit ting
be ig
9 )
e ek
ac ter
erĠd og
d esk
yĠm on
-20 10
Ġtemper edĠglas
sĠh igh
lo ok
un ion
Ġle arn
Ġfl ang
arm or
ym p
,Ġv f
p urpleĠ
w ind
ru gg
Ġfuel Ġpump
3dĠ mountain
Ġ oneĠ
hand le
- >on
alumin ium
ac tĠ
edĠaluminumĠstreetĠsignĠmancav e)
oseĠ ring
in ĠtheĠ
d ar
p at
Ġc ycling
2 40
wiperĠblad esĠaero
earring sĠforĠwomen
Ġh eal
Ġco sp
Ġcar go
eĠp ump
Ġsp ong
tĠpro tec
Ġyear s
Ġcol dĠ
alph abetĠ
l h
f un
Ġp vc
Ġfor Ġkawasaki
id eo
Ġp aperĠ
1 .8
3 /4
Ġs an
Ġser ieĠ
sp ark
( m)
il ux
gg ag
50 ml
ou red
r ation
Ġscrew sĠ
sĠto y
Ġ9 .5
ĠsetĠof Ġ2
Ġox ford
columbia Ġmen'sĠ
Ġ0 4
Ġbo atĠ
tĠb ack
/ 7
sĠp ack
aw k
sĠcomp atibleĠwith
e, Ġmedium
eĠt ub
Ġ4 -cyl
to ddlerĠ
Ġ0 5
sĠd og
eĠd raw
t f
d )
i Ġwomen'sĠ
edĠg lassĠ
Ġ ip
j .
op ren
u Ġleather
eĠw heel
b ead
eĠb rown
Ġther mo
ad em
Ġref lectiveĠ
x 3
Ġbo ard
ab eth
Ġb ulb
Ġ( b
Ġcap su
Ġle f
sh ieldĠ
m us
gal ax
Ġstor ageĠ
Ġwid eĠ-
Ġzinc Ġplated
ul dĠ
yĠb o
ric tion
1 ĠsetĠ
eĠt yp
ix el
1 Ġpair
,Ġ larg
Ġstud ent
Ġd ef
Ġs ong
Ġn in
e- b
eĠm ulti
ĠexhaustĠ hom
4 mm
tĠp ainting
et ric
Ġbo ssĠ
di yĠ
Ġx Ġ10
Ġ5 5
c z
er Ġblack
s amsung
sĠ 0
Ġther mal
,ĠcubicĠzirconia ,
tĠh ead
3dĠp urpleĠ
(black )Ġ(
eleg antĠ
. 24
erĠ v
Ġ2013 Ġ13
yl or
- v
eĠ kit
p s
et sĠ
ĠbedĠpillowcasesĠquiltĠduvetĠcoverĠsetĠqueenĠking Ġzoe
p edĠ
, Ġco
g pr
visĠt rimĠ
Ġlin en
l tr
Ġauto Ġ&Ġmanual
f lip
Ġ- Ġ2
all eng
ol ar
Ġadul tĠ
ent ur
Ġstand ard
p ool
eĠ z
eĠsp ring
- 100
Ġt assel
,Ġ ef(40-45
Ġsp ray
Ġwalle tĠ
k eyĠ
Ġmax i
toddler/ littleĠkid
quick Ġdry
eĠwall ĠmuralĠwallpaperĠ
19 0
op al
20 16
3 Ġpack
Ġm 3
15 .7
eĠm etal
tĠ 9
Ġ4 2
eĠm on
d igital
Ġpiec es)
t ure
raf tĠ
ol idĠ
is ed
e- c
str um
Ġsup erĠ
300 0
tĠf ron
hinest oneĠ
av an
Ġsp rayĠ
et c
sĠb edroom
Ġgif tĠ
,Ġ7 .5
Ġstar ter
e verĠ
Ġb eaut
Ġb ling
Ġb yĠt
ot ter
Ġr r
lim b
pro flow
Ġstr ength
Ġw el
rak eĠpad
Ġres in
11 5
,Ġm achineĠwash
eĠh os
Ġsw ivel
an el
e lessĠ
al s
h onda
x 40
c irc
y mĠ
th ink
f us
,Ġ au(
n etĠ
eĠs ocketĠheadĠcapĠscrew
Ġ ash
lo vel
ĠanimeĠbedĠpillowcasesĠqu iltĠcoverĠsetĠbeddingĠsetĠ3dĠduvetĠcoverĠpillowcases
3 xl)
eĠf ashion
Ġth rough
Ġden im
ber g
c leĠ
ital ian
ean i
Ġg rand
land scap
ultic ol
s,Ġ andĠ
sterling ĠsilverĠ
prem iumĠ
k y
gra phic
& n
t g
di um
lo o
Ġpart yĠdecoration
Ġhigh Ġtensil
Ġus )
ĠroundĠnon ĠslipĠrugĠmat,Ġ
hel dĠ
qu iltĠcoverĠsetĠbeddingĠsetĠpillowcasesĠ
Ġsp ra
th read
w alle
ern etĠ
Ġeng lish
l ant
yĠh air
yĠst reetĠ
eĠp lastic
ar ovski
a us
softcoverĠbook )
v iron
glo bal
es tĠb
ĠheadĠ phillip
y ster
Ġi phon
or m
Ã ¶
Ġf ood
Ġrug ĠnonĠslipĠrugĠmat,Ġ
ma z
1 /2"
Ġor nam
199 6
ag ing
Ġfor Ġscooter
w rit
Ġd etail
Ġpro jec
eral dĠ
Ġlay er
Ġscoo terĠ
w ooden
sĠm ar
ic tor
.0 l
Ġb uilding
bel la
y per
Ġ1 /4"
ex haus
ank Ġyou
19 7
Ġro d
Ġl aur
x 24
st ation
es om
sĠ mensĠ
Ġs at
in ternational
eu ropean
da il
knit tedĠ
Ġsho es,Ġ
ent ic
ri bb
t all
Ġdog Ġcollar
t le
emen tĠp
Ġd u
Ġalumin um
il i
Ġsur fac
Ġbo at
ag o
ele dĠ
5 50
Ġ& Ġj
grey )
eĠf loral
Ġt-shir t
Ġc c
00 1
er y
iz er
ĠbandĠ ring
comp ression
ĠandĠ theĠ
yĠ green
Ġ199 8
Ġgemston e,
h atĠ
fruitĠ ofĠtheĠ
sĠ 12
flo or
eĠ( black
Ġle adĠ
sĠd ecoration
ĠsteeringĠwheel ĠcoverĠ
3dĠb usines
ik u
,Ġ8 .5
co ach
e ur
tĠt re
Ġzinc ĠplatedĠ
offic ial
Ġsw anĠ
Ġ8 00
a o
navy /
fruitĠofĠtheĠ loom
li s
ua wei
lu sĠ
Ġblu e/
fi ber
rid es
Ġ3 60
Ġb er
Ġc nc
Ġp s
c ell
bas ic
packĠofĠ2 )Ġ(
. s.
h olden
, 5
Ġed uc
ri ed
metal gear
ad or
yĠg u
i ĠloveĠ
iz abeth
n ovel
Ġra il
- l
xxl )
um bo
Ġstain less-steel
yĠprin tedĠ
op ard
Ġs f
tĠw ork
lu re
Ġ- Ġd
ilet t
abstrac tĠ
3dĠ golden
lo or
- proof
eĠsil iconeĠ
Ġr h
n in
Ġdel ux
Ġsty le
,Ġ a
anch or
Ġ- ĠmultiĠ-
Ġp or
ach ableĠ
m r
replacementĠ for
ĠprotectiveĠ cas
Ġtre at
Ġsprock etĠ
reli ef
Ġton er
c rew
n os
f abric
lo c
Ġa 3
it yĠc
Ġbod yĠ
t yp
wh atĠ
ĠangleĠ sensor
shock proof
ing ĠtheĠ
eĠd oubleĠ
Ġ4 8
Ġcard Ġslo
Ġinter ior
Ġg lassĠ
enc eĠ
Ġaj ĠwallĠpaper
Ġsm artĠ
st y
w c
s up
not ebook
elec tronic
Ġc lasp
Ġlit reĠ
i ef
g ian
Ġro b
f unk
th ick
Ġ2011 Ġ11
Ġplat form
ly n
yĠw atch
Ġfor Ġb
h old
Ġsho eĠ
w is
an tĠc
Ġa ustralian
Ġw ear
Ġcar ry
key boardĠ
g m
2 30
b &
Ġn os
f lash
v alle
2 25
sĠw ork
2 Ġpc
ygen Ġsensor
throttleĠ controll
en ing
Ġqu ot
Ġsupp ortĠ
sĠ r
st ock
com merc
at iv
t able
Ġt rac
estĠ of
vel vetĠ
da is
running ĠshoesĠ
Ġm g
Ġpiec es
di x
it ical
Ġd ucati
Ġwe ather
Ġtab lecloth
s and
/ 11
ik ingĠb
Ġh olden
Ġ1 .2
sĠm ini
e, Ġsmall
j apan
Ġqu il
tĠp ack
emb oss
ti esĠ
Ġstra ightĠ
w ardĠ
Ġ2 7
-20 12
jessĠartĠdecoration Ġ3dĠ
Ġblu eĠ(
c essĠ
n ov
g un
Ġo unc
en amel
i at
ele d
sĠb ab
l l
edĠbrakeĠlineĠ(carbolook ĠhoseĠ&ĠstainlessĠ
-20 17
Ġcon nec
vin c
ir t
on esĠ
yĠ ring
Ġkn itĠ
h ug
3 mm
a zz
ĠsamsungĠgalaxyĠs 21
do c
c ushion
,Ġm s(
cm* 180
Ġb at
th Ġgen
mo ver
da vid
Ġc t
riveĠ throttleĠcontroll
Ġgif tsĠ
-20 14
Ġsuzuki Ġgs
Ġabstrac tĠ
el ac
s am
eĠc ableĠ
"ĠeĠbrakeĠcableĠc lamp
ut eĠ
Ġin ternational
Ġster eo
Ġ ig
m e
el t
Ġw r
Ġsh ieldĠ
Ġn p
au th
Ġh iking
Ġra diator
Ġd ream
Ġsquar eĠ
.3 ''
-20 13
Ġd av
edĠc otton
ĠwallpaperĠ zoe
ef ul
100% Ġcotton
z il
eĠf ron
Ġpat rol
Ġg rub
s ak
Ġprin ting
199 4
edĠaluminumĠstreetĠsignĠmanc aveĠ
ev ic
d ynamic
Ġf ix
t Ġshap
Ġcon troll
replac ement
ust ain
angu ag
Ġsmall Ġdog
sterling Ġsilver
aw g
Ġc rown
s ia
e enĠp
oc al
o da
read ing
Ġl b
un i
s af
yĠ k
pro fessional
brak eĠpad
Ġtranspar ent
,Ġm ulticolor
eas ur
aw di
,Ġ 30
Ġ0 1
eĠprotec tiveĠ
u in
ĠiphoneĠ12 ĠproĠmax
199 5
j ar
n ar
m 2
Ġanim eĠnonĠslipĠrugĠmat,Ġ
Ġc orn
ersĠ andĠ
6Ġm8Ġm10 Ġm12
j ournal
Ġfor Ġkid
ĠstainlessĠ a2-70Ġg304
ment al
atibleĠ for
function al
sĠ kid
Ġlo os
oil Ġpainting
Ġh at
Ġx -
Ġsm ith
ear tĠ
Ġto ddlerĠ
Ġsmall ĠmediumĠ
ne ed
25 4
Ġm azda
,ĠmachineĠwash able,Ġ
ib erĠ
Ġpower flex
Ġ6 mm
eĠb utton
od or
Ġsp ar
Ġle gging
m ust
a id
Ġcart il
Ġ100 ml
- 35
Ġpe ugeotĠ
c r
Ġco ast
s, Ġb
racele tĠ
Ġw ho
pain tedĠ
cmĠx Ġl:
Ġ2020 Ġ20
Ġd ust
eĠslip persĠ
train ing
Ġsof a
fl ak
ĠxĠ1 18
Ġjewelry Ġmaking
Ġsurgical Ġsteel
35 .4
h dĠ
Ġfranc s,Ġ
Ġn ight
Ġle ath
Ġach x
Ġs elf-
Ġsc ar
man n
c amp
ĠforĠwomen Ġmen
oc ial
Ġdin osaur
]Ġfranc e,
ri an
Ġsol id
Ġpart y
s now
Ġk e
Ġw aveĠ
erĠh and
Ġfor ĠmenĠwomen
11 00
Ġox fordĠ
3dĠbedding ĠsheetĠ
Ġmoun tĠ
Ġj oseph
Ã Ĺ
lo ung
Ġm 16
eĠb all
Ġth e
Ġar ti
d m
Ġmodu leĠfor
Ġk eep
yĠp ink
Ġs g
c ross
Ġ2012 Ġ12
edĠ with
kenn eth
ad el
Ġd amm
s ur
co d
tr ical
tĠd og
ig g
3dĠ f
Ġ1 .4
blu etooth
Ġb rief
ĠfrontĠ +
10 )
ri x
rap hit
c ors
ĠsetĠof Ġ4
/ 9
ul p
th readĠ
Ġb ubbleĠ
at esĠ
Ġstamp Ġyver
sĠt op
Ġshir tĠ(
ra vedĠ
or der
,ĠreusableĠgroceryĠbag,ĠshoppingĠbag ,ĠmachineĠwashable,Ġ
,ĠreusableĠgroceryĠbag,ĠshoppingĠbag,ĠmachineĠwashable,Ġ ecoĠfriendly,Ġfoldable,ĠcanvasĠclothĠbagĠwith
ion Ġ4
ch eck
unch ang
Ġsticker sĠself-adhesiveĠvinyl
el le
ing Ġto
Ġdi amond
Ġaltern ator
sĠof ĠtheĠ
s r
j unchang
Ġ emp
id den
Ġm os
ul le
ĠshowerĠcurtain Ġonly
Ġcoup leĠ
-s eriesĠ
Ġn c
l g
eĠp arf
ry Ġpot
bonamaison Ġ100%Ġcotton
ig in
lit er
Ġpain t
Ġpow der
iss or
Ġbracele tsĠ
] Ġ[
bonamaisonĠ100%Ġcotton ĠprintedĠtoteĠbag
sĠfrontĠ l
sĠf rom
rakeĠc aliper
s quar
i ev
daugh ter
Ġgam ing
Ġ0 2
,Ġk mĠ#
m art
sĠm etal
yĠp ack
- 40
Ġv ideo
Ġr ich
,Ġxx -large
Ġgalax yĠs
ch ines
orang e
w ayĠ
sp ort
decor ativeĠ
ot an
eas yĠstreetĠ
gn ac
istor yĠof
lo b
Ġtenn isĠ
trac tableĠ
Ġ3 /4
comp ut
ĠbyĠ k
ra diator
Ġh atch
navy )Ġ(
ap kin
Ġv en
eĠb ottleĠ
Ġ14 k
und ry
olog ical
ist er
/ g
sĠs mall
bra ssĠ
Ġri m
Ġl g
ev c
Ġm ill
star Ġwar
ther ap
di vid
â Ħ
13 5
Ġw Ġus
fram edĠ
l ens
11 1
din osaur
eĠc overĠ
bo ssĠ
sĠwomen sĠ
Ġf our
Ġbag ,
mak ing
b ust
Ġa 6
Ġex haus
b est
af ter
apph ir
Ġse am
Ġdig it
or o
Ġst uff
0 Ġ(
eĠs er
Ġfla tĠ
Ġscrap book
un a
ent a
Ġp iano
Ġs outh
s inter
Ġw at
trac tor
ĠwideĠ- ĠfitsĠ
ru st
eauĠd eĠto
ac tical
Ġcap ac
-plat ed
Ġcho colat
ho dium
Ġshad ow
ri er
qu is
Ġank leĠb
au c
mon th
z j
ull dog
c lutch
Ġhex agon
Ġ1 :
la u
eĠs ea
Ġb yĠc
Ġjewel ryĠgif
Ġsh ampoo
as c
Ġg ri
Ġw agon
eĠcomp let
Ġsung lassesĠ
-20 16
exp ansion
eauĠdeĠto ilett
55 .1
w alk
accessor ies
eĠ 12
g rin
Ġb it
f um
sĠh and
model :
v r
Ġl il
Ġc utter
ag ement
b ed
Ġcard igan
Ġ199 7
d ec
Ġc ast
m ask
Ġm atch
st ep
Ġ4 50
o Ġwomen'sĠ
orizon tal
ri or
Ġstra igh
Ġflip Ġflop
,Ġ9 .5
cyc ledĠ
Ġin sid
eĠd esk
rel la
blu e,Ġ
20 4
b at
co ur
,Ġc opper
ĠforĠm azda
sĠwallpaper ĠwallĠmural
start ech
6 Ġuk
ru it
end o
Ġh all
Ġbo ho
sĠw aterproof
y on
Ġblo ssom
cmx 200
Ġc ord
educ ation
Ġsh arp
Ġro dĠ
con c
/big Ġkid
Ġso ap
Ġkey boardĠ
,Ġvf (
val u
,Ġwhit e
Ġbox Ġof
78 .8
rin king
ref ill
duction Ġto
cer amic
Ġs d
Ġl ic
ar in
Ġs ling
es tĠp
ar is
cmĠ( 55.1
cmx200 cmĠ(55.1
140 cmx200cmĠ(55.1
ing leĠc
Ġclip Ġcollar
t pu
5 5-
p upp
w el
sc an
40 cmĠ(
Ġ( a
rat eg
t- in
Ġcam o
h ealth
ain tĠ
Ġblack Ġmirror
Ġhom eĠdecor
120 cmx
Ġlaur en
180 cmĠ(
Ġm old
Ġli vingĠroom
180cmĠ( 47.2
4 16
120cmx 180cmĠ(47.2
199 3
Ġf ing
Ġ6 5
]Ġbanknot e,Ġ
ĠwallĠar tĠprintĠframedĠ12x16
te in
Ġ amp
phoneĠcas eĠfor
eĠf re
Ġref ill
w ing
Ġv acuum
g ion
Ġl an
ĠremoteĠcontrol Ġfor
m int
Ġcal endar
Ġx Ġ12
c ip
d irtĠbik
Ġself-adhesiveĠvinyl ,Ġxx
Ġ es
Ġh oseĠ
Ġ3 /8"
f antĠ
31 .4
n ess
Ġ2 .2
tĠc ard
Ġdisp lay
od g
er yĠ
ar to
.9 cm)
Ġalph abetĠ
n utĠ
utterfl yĠ
ush room
ol k
y .
th rough
s ey
eĠh ous
Ġf riction
erĠ 2
Ġsw arovski
94 .5
Ġ25 mm
47 .24
Ġco cktail
Ġf all
Ġsol itair
Ġsh ark
n ordic
84 .1
160 cmx2
Ġch unk
e-b 1Ġ(70.7ĠxĠ100cm)
40cmĠ( 63
160cmx2 40cmĠ(63
loaf er
Ġt ough
âĢĻ sĠ
" Ġ(
Ġbrack etĠ
clark sĠwomen'sĠ
ĠxĠ118 .9cm)
ĠwovenĠpaperĠ(needĠglue) ,Ġxx
84.1 ĠxĠ118.9cm)
0Ġ( 84.1ĠxĠ118.9cm)
lat ex
Ġk ne
120 cmĠ(
eĠp ip
im ag
Ġgif tĠbox
pc s)
ch or
sĠ+Ġpad sĠfor
Ġsp inn
Ġc law
ch em
exp and
mm Ġthick
ak eup
80 cmx
ingĠb rush
Ġguid eĠto
Ġass embly
Ġdraw string
ol ish
80cmx 120cmĠ(
80cmx120cmĠ( 31.4
ĠforĠmerced esĠbenz
lightweigh t
ett eĠ
Ġe vc
Ġeu ro
er ryĠ
Ġ idĠ
ĠseatĠ cover
Ġc abin
eauĠd eĠparf
ang ing
Ġid riveĠthrottleĠcontroll
russ ell
et s
w indow
organiz er
day co
60 cmx
edĠbrak eĠpad
yĠs of
b rembo
esĠ to
el tĠ
sĠf ron
resist ant
-20 20
Ġc lass
40 cm
Ġn utĠ
quar ium
ar ian
allow eenĠp
Ġsc aleĠ
eas yĠto
tro us
60 cmĠ(
Ġmen Ġ-
60cmx 90cmĠ(
60cmx90cmĠ( 23.6
eff ec
Ġb yĠch
m g
Ġp f
t z
-20 11
is er
ey ondĠ
40 cmx
Ġ- Ġ10
an tĠb
i es,Ġ
.4 2mm
wash er
Ġyear sĠ
au di
( p
tsĠ of
out fit
x 17
Ġc rank
Ġco atedĠ
3d Ġsea
exp lor
el ash
eĠ green
eas y
Ġl andĠ
ĠworldĠ map
am per
eĠc lear
at v
60cmĠ( 15.7
Ġmural sĠwallĠprintĠdecal
ang le
eĠsil icon
Ġm itsubishi
Ġ6 .1
.42mm Ġbm
m yĠ
Ġ925Ġsterling ĠsilverĠ
u ed
Ġther ap
tĠf il
eĠt ap
roll er
Ġw oven
alle l
40cmx 60cmĠ(15.7
, 10
un ivers
Ġslot tedĠ
( b
g et
eĠc lassic
ĠforĠh ondaĠc
Ġwindow Ġbumper
eĠb yĠm
ĠsocketĠ cap
f ox
h olderĠ
ath em
Ġfabric Ġwindow
yĠblu e
- to
Ġs mok
n ational
ap pro
Ġb ridg
coun t
qu e
, ĠpackĠof
g in
Ġl p
ro st
ĠforĠvol kswagen
iphoneĠ 12
com m
50 -
erĠ re
Ġ24 v
Ġa .
Ġp om
Ġgre atĠ
Ġaut omotiveĠ
65-70 )
al dĠ
Ġwe ek
Ġt-shir tĠ
iv il
sĠd ressĠ
eĠsh ort
ack pack
cyc ling
lay ing
Ġle x
Ġb a
evc ĠidriveĠthrottleĠcontroll
ch air
ele ton
Ġinc lud
eĠst ar
Ġc abinetĠ
eĠw aterproof
eĠm iku
th umb
Ġn etwork
yĠn ovel
Ġg low
p eĠ
tĠ to
Ġd iv
Ġ9 9
eĠg las
Ġg olden
en ch
Ġt di
eĠ air
sun eĠmiku
Ġ19 90
eĠ ri
co Ġcar
ig i
-20 00
Ġm aterial
in Ġblack
l p
mar vel
Ġgu ardĠ
yellow )
fl y
b re
f eed
kitĠdipstick ĠforĠd
t each
h ero
Ġb b
rib ut
Ġstorag eĠbox
Ġcar atĠ
e va
Ġd ec
Ġ2010 Ġ10
Ġ2 pc
Ġ18 k
um eric
t ot
anks giv
Ġx Ġ20
Ġst encil
comfor tableĠ
new born
it ec
gu ard
ar th
ov o
in st
h eat
sĠ shoesĠ
sĠb yĠm
Ġf a
umb rella
Ġorang e
enc e
m agn
Ġf ast
bleĠ c
Ġh ilux
: 1
we ather
Ġg od
Ġhead phon
aut umn
as p
ĠwallĠpaperĠwallĠprintĠdecal ĠwallĠdecoĠindoor
eĠp ainting
d leĠ
mass i
1 16
Ġkick standĠ
col lection
emb ellish
Ġprin ces
3 m
"Ġneck Ġ-
coĠcar massi
earring s
,Ġ 15
Ġpi ercing
f etti
Ġd b
Ï Ĩ
ĠiphoneĠ x
christ ian
Ġpersonal izedĠ
sĠm ulti
ass emb
d ef
m iz
Ġdiff er
le mon
,Ġc lear
Ġin ĠtheĠ
acu umĠ
ok emon
eĠh oseĠ
j apanes
sĠfor Ġkid
ol id
att ack
Ġ5 .5
Ġf r
maz da
canva sĠpainting
g ym
,Ġt an
m s
Ġle mon
ach el
on s
f leec
Ġ- Ġ6
Ġplain Ġblack
illustr ation
ivor y
ĠwallpaperĠwallĠmural Ġself-adhesiveĠ
Ġw orld
Ġmulti -
Ġd augh
Ġ3 .2
tĠh igh
500 0
intedĠ to
arti ficial
,Ġ unc(
e, Ġm
5 /
3 .0
Ġc ling
guid eĠto
w irelessĠ
oil ĠfilterĠ
w il
ip Ġhop
Ġp ractic
c lean
sĠsetĠ of
Ġcoffe eĠmug
ult ural
th Ġanniversar
w d
Ġgra ffiti
Ġshoe, Ġblack
Ġtranspor tĠwall
Ġbig Ġkid
us k
tĠc olor
alph a
Ġ4 wdĠ
eĠd ressĠ
b oo
p ur
4 x
end ant
Ġfl amingo
Ġre chargeableĠ
eng agementĠring
ex per
Ġw rench
Ġg lovesĠ
rit ain
for atedĠ
ĠbirthdayĠpart yĠ
Ġb icycleĠ
Ġbik ini
is landĠ
Ġtail or
Ġmoun ting
sĠ 7
- Ġ
r )
war z
Ġtex tur
essential Ġoil
Ġlo ung
mar bleĠ
Ġh orn
eĠf itting
h yp
ingĠb ook
tsĠ andĠ
j 45
edĠ d
Ġsiz eĠb
Ġs ym
eĠc lip
,Ġef(40-45 )
omfor tableĠ
alloyĠwheel Ġoz
Ġg mĠ
1 :
akeĠt opp
yĠb lue)
Ġaf ric
remot eĠcontrol
ing Ġ&
sĠ( black
f amil
s we
Ġcom bo
Ġx c
Ġmon itor
Ġle ver
m u
g )
lo ver
y x
-bl endĠ
Ġp ullover
il itar
ed ia
* *
edĠ (
Ġlo ok
Ġk haki
ar oo
os ition
tĠh eadĠ
Ġtur quois
h alf
Ġc mĠ
yĠsh ow
y ĠcardĠ
sĠs lipĠon
on es
u i
Ġan chor
li br
Ġk lein
Ġj .
b urg
o in
ed om
eĠdog Ġcollar
Ġgirl sĠwomen
umm erĠ
for mĠ
Ġal bum
f li
Ġj ar
ityĠ andĠ
3d Ġsnow
bu il
Ġc atch
. 10
oe mĠ
eĠper sonal
-f unction
Ġm oto
3 x
er son
eĠ mo
u dio
cro c
Ġb ird
Ġfac eĠmask
al y
Ġ- Ġcolor:
ge ometric
ep p
Ġt ieĠ
Ġand Ġs
19 90
ub uck
Ġd anc
mon d
eĠb ra
c ra
em a
ey eg
ch etĠ
sĠ max
Ġw iperĠblad
Ġse quin
Ġsandal ,
Ġsing leĠc
Ġchain Ġnecklac
Ġgif tĠfor
gu itar
Ġpla idĠ
ĠwallĠmuralsĠwovenĠpaperĠ(needĠglue),Ġxx xxlĠ520cmĠxĠ290cmĠ(wxh)(205''x114'')
eĠp endantĠ
on n
po ster
20 mm
uff alo
eĠb and
ĠwallĠmuralsĠwovenĠpaperĠ(needĠglue),Ġxx lĠ312cmĠxĠ219cmĠ(wxh)(123''x87'')
erg enc
Ġbra zil
Ġk ia
en im
ĠanimeĠwall Ġmural
c ow
Ġstat ementĠ
ĠwallĠmuralsĠself-adhesiveĠvinyl,Ġxx xlĠ416cmĠxĠ254cmĠ(wxh)(164''x100'')
Ġgif tsĠfor
f aux
le ath
e-cas esĠ
rabb itĠ
hat suneĠmiku
ĠgenuineĠ9 k
man ual
ĠcardĠ holder
it yĠm
Ġh ssĠ
Ġmen ĠandĠwomen
w aterĠ
adap terĠ
americanĠshifterĠ 4
3dĠ flow
Ġd river
yĠc omp
necklac eĠforĠwomen
Ġ( m
ast erĠc
a 5
sĠb yĠj
e ath
girl s,
Ġchar mĠ
Ġt ension
c and
Ġ- Ġf
av i
br it
r unch
p aw
c rank
ĠtableĠ cover
Ġm t
gam e
en o
f ur
esĠ d
tĠd ressĠ
Ġs .
g l
Ġli ber
gro und
eĠb al
eu ro
ĠshockĠabsor ber
Ġpo in
Ġpart yĠ
Ġli veĠ
Ġh ero
5Ġ(5 mm)Ġx
Ġc utĠ
Ġwater Ġpump
Ġ2009 Ġ09
b ug
-t yp
eĠ x
ar ant
Ġoc ean
qtyĠ 10
Ġlic ens
eĠch ristma
ress o
- Ġred
ex ercis
Ġfor Ġchildren
Ġre movableĠ
Ġreli ef
Ġa 5
Ġbusines sĠwallpaperĠwallĠmural
ĠbusinessĠwallpaperĠwallĠmural Ġself-adhesiveĠ
ĠbusinessĠwallpaperĠwallĠmuralĠself-adhesiveĠ commerc
,Ġ6 .5
-0 1
tĠ9 x7
overs izedĠ
int endo
sĠf ull
d g
men sĠblack
eĠt rimĠ
Ġre buildĠ
o un
mov al
Ġb yĠw
: Ġan
/whit e,Ġ
Ġdesk top
ĠfabricĠwindow Ġzoe
in osaur
p ad
r v
li ving
Ġsk etch
l yĠp
ra sch
Ġh am
Ġn ightĠ
42 mmĠ
Ġeu rop
Ġwind proof
s 2
n .
Ġconc ep
st ud
p al
Ġ angel
Ġth ong
Ġiwatch ĠseriesĠ
ĠwallĠmuralsĠself-adhesiveĠvinyl,Ġxx lĠ312cmĠxĠ219cmĠ(wxh)(123''x87'')
Ġ0 3
s an
y Ġwith
ĠsystemĠ exhaustĠ
t ank
blu -ray
h ou
Ġl unch
yĠ 2
Ġfor Ġcar
Ġb eadĠ
at om
Ġz ipp
Ġj apan
ĠbrakeĠc aliper
le go
Ġh oopĠearring
erg onomic
Ġj apanes
15 00
Ġlit er
jo y
Ġm as
3 /8"
d ri
liqu idĠ
Ġfac tor
led g
,Ġ kid
Ġunf Ġimperial
Ġstorag eĠbag
ĠshoesĠ -
ind ustrial
wall Ġart
om iti
a Ġna
Ġstack ableĠ
Ġwhit eĠ-
Ġturn Ġsignal
blu e/
ĠwallĠmuralsĠwovenĠpaperĠ(needĠglue),Ġxx xlĠ416cmĠxĠ254cmĠ(wxh)(164''x100'')
Ġloaf er
/ l
Ġtri angleĠ
e- tech
Ã ¼
y arn
-s id
5 Ġuk
eĠb yĠj
Ġs i
eac ock
3 30
m agic
m inal
eĠf it
aj Ġwallpaper
omiti Ġdl
ul leyĠ
c le
ĠwallĠmuralsĠself-adhesiveĠvinyl,Ġxx xxlĠ520cmĠxĠ290cmĠ(wxh)(205''x114'')
]Ġcoin ,Ġ
Ġanti -
Ġy o
is sĠ
s andal
iz z
d .
Ġst abil
ra di
Ġspir al
s lim
Ġd rilling
yĠb ab
Ġin dian
add leĠ
50 mm
el izabeth
Ġw eb
lif eĠ
Ġb ump
Ġshort s
r yĠh
Ġd ryĠ
Ġfor Ġp
ib il
irstĠw alk
umeric _
Ġspir itĠ
Ġbab yĠ
d ouble
4 Ġpack
er sonal
ĠusĠ /
motor bik
,Ġb eig
stor ag
eĠcas eĠfor
Ġfor Ġmotorbik
ĠbusinessĠwallpaperĠwallĠmuralĠself-adhesiveĠcommerc eĠ
n tĠ+
protec tion
t emper
under wear
Ġboo tĠ
as eĠ
sĠ co
rasch off
isĠd raschoff
Ġj unior
ro ut
sĠ( black)
Ġoak le
Ġsli mĠ
d nc
ac yĠ
Ġth row
ure tor
enu ineĠ
Ġw ay
1 "
mad den
kenneth Ġcol
Ġso und
oil Ġfilter
Ġ- Ġ12
sĠh ead
Ġplain Ġscrew
Ġhead bandĠ
Ġpe ac
is edĠb
eĠd isp
qtyĠ 100
2Ġm2.5 Ġm
tr k
Ġ& Ġb
,Ġf ranc
absor b
artĠ of
g rain
ch est
n rl
Ġbas eball
,Ġ re
y 'sĠ
eĠw c
ĠbrakeĠdisc Ġrotor
15 6
all yĠprintedĠ
Ġmen sĠh
yĠw ork
y /
ele gan
yo ung
Ġn or
sĠc ol
rim p
Ġch rys
,Ġ j
s ex
ur ledĠ
cel ain
eĠb rush
Ġm aleĠ
shir tĠ
hand leĠ
h ill
Ġch ina
am ber
ĠĠ ĠĠ
Ġen erg
Ġdigit allyĠprintedĠ
Ġch ew
ed Ġstat
/whit e/
bonamaison ĠdigitallyĠprintedĠ
Ġadap terĠ
Ġ( s
11 8
x18 Ġ5x114.3ĠetĠ
Ġ3 4
ol ution
ok e
sĠsp ortsĠ
Ġgen eral
rack etĠ
Ġc opper
,Ġ6 Ġuk
u di
ap rilia
yellow ĠgoldĠ
th in
d em
est h
ep ar
Ġl h
18 k
n ia
r um
Ġx p
t ab
Ġpol y
x20 Ġ5x112ĠetĠ
eĠflow erĠ
gre enĠp
Ġ14 g
v Ġneck
Ġsuppli es
c ubicĠzirconia
) )
Ġearring sĠforĠwomen
grey /
sp eed
s om
Ġank leĠ
Ġafl Ġselec
Ġd ail
mm) Ġmetric
ik i
Ġk eyĠ
as eball
eĠbrakeĠc ableĠ
th e
erĠ k
eĠh el
Ġ18 kĠgoldĠ
Ġf dc
Ġc enter
ext end
sĠwall ĠmuralĠwallpaperĠ
d et
10 4
ys ic
b lock
ĠshoesĠ (
Ġback Ġcover
Ġ om
Ġ ea
Ġ12 6
h l
âĢ ¦
kitĠfor Ġd
Ġt umbler
ĠandĠ whit
ulticol oured
nw t
h eav
advent ure
-20 19
ol ic
i eĠc
2 Ġpair
Ġe ff
Ġsol o
tri mĠ
44 mm
Ġ- Ġ8
Ġso undĠ
tĠandĠ t
l antĠ
Ġs andĠ
air Ġfilter
itedĠ edition
cho colat
id th
,Ġblu e,Ġ
Ġblu e)
ear drop
sĠg u
loo king
eh oldĠ
Ġscrew driver
eĠcas ual
Ġs aw
en tĠf
qtyĠ 50
Ġ199 6
ĠphoneĠcas eĠfor
ress edĠ
Ġbirthda yĠgif
c ambridg
Ġt il
ch ild
p res
arn essĠ
af Ġfrank
Ġcon struction
Ġf emaleĠ
Ġcarb id
Ġf ox
im ano
sĠf it
olog yĠof
yĠb ox
sĠg oldĠ
Ġmen sĠfunn
sĠst ick
Ġcon st
f ren
blu eĠprin
if am
5 xl
Ġ- Ġ5
m 6
Ġ ram
sĠsil ver
im a
n ak
b it
Ġf c
out back
Ġt al
25 mm
diamet erĠ
am eĠ
Ġb ur
k &n
198 8
f c
ingĠg lass
]Ġfranc e,Ġ
Ġw onder
ĠwallĠartĠ- ĠstretchedĠ&ĠmountedĠcanvas
p illar
,Ġno Ġgemstone,
Ġtranspar entĠ
sĠ zhua
bra id
b& c
sh i
Ġhead ĠsocketĠ
iesĠ of
bow l
Ġf ry
Ġh p
Ġgra duation
Ġread ingĠglassesĠ
Ġst ru
on lineĠ
p rim
Ġe gg
rid eĠ
Ġm ichael
Ġt rip
sĠw heel
Ġ3 50
Ġsc issor
gre at
Ġsc ener
Ġgirl sĠ(
inc lu
Ġx Ġ18
Ġm ason
Ġ6 5mm
eĠw alle
Ġw ill
Ġg randĠ
Ġelec tronic
pa Ġfre
giviĠcas eĠv
qtyĠ 2
tĠb reathableĠ
m irror
,Ġp urple
ol low
ĠframedĠartĠprin tĠb12x
sĠb ig
in fin
eĠ- Ġblack
rich ardĠ
law n
tre as
esp resso
ipp ing
rens/ kid
tĠprin t
ang o
ak ra
Ġ2 40
ang er
engineĠ mount
orang eĠ
racele tsĠ
ch ic
ell ing
a up
,Ġ yellow
ress or
ut u
Ġe vo
eĠf inish
l ang
yĠs w
Ġd rink
6Ġ(6 mm)Ġx
Ġho le
sĠ x
um ann
an tĠp
ebo k
Ġl ondon
david son
Ġmodu leĠ
Ġh uman
flat ableĠ
im perial
edĠc anvasĠprin
v isĠ
Ġboy s,
Ġred mi
ann a
z e
th ing
skecher sĠwomen'sĠ
Ġqu iltĠ
-20 21
Ġb irth
ger edĠ
Ġstu di
vis ibleĠ
Ġren aul
Ġfron tĠp
unn yĠ
lo ssĠ
Ġwatch Ġwith
Ġshir tĠ-
Ġte eth
asterĠc yl
Ġo emĠ
eng uin
ĠvehicleĠ wallĠmural
ev entĠ
it ual
Ġm ir
ather ap
Ġpro m
uch sia
Ġfriction Ġcompan
ost erĠ
Ġa st
rop Ġtop
int ro
ast ing
uil t-in
. Ġ
und leĠ
app lication
th under
vin Ġklein
p ick
Ġsoc iet
ecor ativeĠ
Ġx Ġ16
Ġb ak
sĠp ink
ĠandĠ b
r r
ou stic
Ġc lar
Ġst eer
l ation
Ġresist ant
sĠ kitĠ
vid eo
Ġ- ĠstretchedĠ&ĠmountedĠcanvas
di esel
ok o
Ġ own
ĠsteeringĠwheel Ġcover
Ġon ward
it yĠt
eĠslip per
pro petĠ
i ro
Ġv es
original Ġequip
ut rik
h yd
p ip
ch ampion
qtyĠ 5
/4 /3
oli ver
ors ch
z hu
eĠt ri
,ĠreusableĠgroceryĠbag,ĠshoppingĠbag,ĠmachineĠwashable,ĠecoĠfriendly,Ġfoldable,ĠcanvasĠclothĠbagĠwith Ġhandles,Ġ
t k
res earch
ower Ġcurtain
3dĠprin ter
Ġ50 ml
Ġf ob
yĠd esign
11 .5
Ġbl endĠ
Ġkn ow
v or
wear Ġ(
s en
n ex
Ġtab let
c y
um id
Ġr uss
ĠbyĠ john
costum e
10 6
c ook
8 Ġuk
fl yĠ
ĠfitĠ for
eĠcon tain
tĠb irthda
purple )
,Ġ 24
y Ġblack
Ġn ickel
po in
Ġp ressĠ
tr yĠ
re ebok
Ġb et
sh ow
Ġv Ġneck
mm Ġmetric
Ġ4 6
ain tyĠ
att ach
Ġmonth s
Ġpro ductsĠ
ĠshowerĠcurtain -
Ġfor Ġdog
om atherap
s b
Ġback groundĠ
tĠc otton
g olf
qu ot
Ġ vers
ĠblockoutĠphotoĠcurtain ĠfabricĠwindowĠzoe
un o
Ġ20 22
Ġch em
ma id
Ġm .
ro k
Ġm a
Ġun iqu
we en
os tĠ
Ġblu sh
4Ġ(4 mm)Ġx
ri stĠ
Ġchrist ian
Ġen amel
ven tion
Ġw illiam
Ġcol leg
las tĠ
ers e
3 15
randĠ new
ier ra
- ring
ĠcompatibleĠ for
3dĠb eautiful
Ġsh op
Ġx Ġ30
qtyĠ 20
& eĠtool
Ġex ercis
19 87
qtyĠ 1
iv ic
rag ranc
2- pack
t een
Ġm ule
at io
g rand
Ġs b
er )
x 36
1 .4
Ġsk yĠ
1 .0
e (
lo tu
7 Ġuk
dens o
Ġy ardĠ
eĠc ool
10 k
h ondaĠc
Ġd rain
Ġsof tĠf
,Ġ5 Ġuk
re di
m yĠh
ad am
in ding
if lo
Ġ3 9
re ction
Ġde velop
v acuum
ers eyĠ
Ġd er
Ġm assag
and el
Ġcirc leĠ
sĠp ol
ubic -z
Ġb c
r dĠ
Ġs ail
ag h
u ardĠ
Ġsh ak
em ber
app arel
su zuki
Ġ1 500
id o
Ġ( 20
ml )
ther n
sĠ roundĠ
ed d
n anc
ol la
sĠh om
s utton
ĠtimingĠbel tĠp
ew ar
esĠ on
f ar
Ġoil Ġfilter
Ġt f
Ġd y
,Ġ 25
el it
ubic-z irconia
199 2
Ġw estern
ik ini
Ġindoor Ġoutdoor
Ġcomput er
Ġb ulk
ĠselfĠtapping Ġscrew
eĠl amp
Ġmo istur
Ġn umber
valent inesĠ
63 )
la ur
sinter edĠbrakeĠpad
Ġgalvan isedĠ
con u
dr .
Ġd res
198 9
sĠre plac
mon dĠ
ap or
Ġsk at
easyĠstreetĠ women'sĠ
sĠh ous
ro en
Ġslid eĠsandal
tĠd esign
Ġad vanc
.3 '')Ġ(wxh)
ĠsizesĠ s-
m atĠ
30 mm
Ġin fin
b lad
ax leĠ
eĠh olderĠ
co at
11 7
s leep
10 7
ch ron
ever y
z r
Ġall anĠp
Ġd oc
Ġn arrow
eĠn atural
-0 6
gif tĠ
Ġ( 80
Ġtr unk
Ġo ur
co in
Ġliqu idĠ
ing Ġring
awa ii
cover Ġset
omitiĠdl m
3 80
Ġlightweigh tĠ
sĠc ap
i etĠ
Ġplu s
cm ĠshowerĠcurtainĠonly
4 20
m om
hem ian
Ġth rottleĠ
Ġearring sĠ
erĠh eadĠ
l Ġ4
) ,
.Ġf ried
Ġb ut
anc ientĠ
Ġw ire
we stern
eĠt ex
ran ch
os it
ĠgmĠ originalĠequip
z i
e, ĠsizeĠ
2 r
Ġmerced esĠ
eauĠdeĠparf um
Ġdisp ens
Ġf arm
Ġcloth ing
, 8
al tern
Ġad just
ver tical
ult ure
tĠb ab
ir stĠ
ph er
comp let
Ġcloth esĠ
ĠwallpaperĠmuralsĠwallĠprintĠdecalĠwallĠdecoĠaj ĠwallpaperĠzoe
sĠ& Ġpad
ĠheadĠbol tĠ
y j
-f riend
Ġalumin umĠ
Ġw if
Ġ9 5
Ġt om
lip stick
op er
eĠs un
gat esĠ
mil itar
n astic
sĠs now
Ġ1 60
Ġself-adhesiveĠremovableĠ amy
d oll
Ġ2 x
eĠt ableĠ
in terĠ
ingĠd isc
Ġp rim
gra mm
turn Ġsignal
Ġcontrol Ġarm
u eĠ
Ġp ri
etĠ -
- n
Ġdraw ing
Ġadul ts
Ġcover Ġwith
3dĠbusines sĠwallpaper
eleph antĠ
ea veĠ
14 4
ĠtheĠw orldĠ
yĠf ac
st em
Ġplu sĠ
ing al
ro verĠ
Ġqu adĠ
Ġm u
Ġ- Ġlarg
prin tedĠ
s f
Ġ( p
ation Ġof
ell y
elli g
el k
Ġros eĠgold
t ropical
- larg
zo diac
.Ġfried land
leĠb rakeĠdisc
urgund y
Ġw ax
ac tĠm
k u
10 .5
90 cm
Ġth ing
ub b
' s
Ġr un
ĠallanĠp .Ġfriedland
al e
Ġs ynthetic
ril ledĠ
ath an
b us
tĠcas ual
y Ġstar
Ġro of
nam eĠnecklac
c utĠ
/4/3 /2
th em
Ġt -
Ġsc oop
sĠwall Ġmural
Ġ9 8
v io
eĠcoun tersunk
Ġb nwt
Ġ6 "
ph otograph
kn ow
Ġpend ant
19 6
Ġt y
ĠandĠ p
di al
f oc
ĠsmallĠmediumĠ largeĠdog
s) ,Ġxx
Ġcut eĠ
Ġ3 /8
eĠ +
Ġx Ġh
Ġsuppli esĠ
eĠw ind
Ġst yl
enn a
v ival
Ġ6 4
ĠiphoneĠ13 ĠproĠmax
1 Ġpc
ur d
tĠc anvasĠprin
sĠ sho
Ġt est
Ġanti qu
eĠcar toon
s g
Ġt ele
re x
Ġfor c
ther mo
we st
shaf tĠ
ingĠt ap
ne opren
k yo
20 1
arm in
et Ġs
ne utral
e !
v ed
Ġt oneĠ
new Ġgenuin
c orn
Ġb ib
inter ior
Ġt aper
ĠtableĠcover Ġcloth
5 /16"
cal vinĠklein
Ġf oundation
uzz leĠ
Ġz o
Ġ2008 Ġ08
add edĠ
Ġqual ityĠ
Ġmac book
n aut
car ol
l x
tifi edĠ
Ġg lassesĠ
Ġ iv
le sĠfor
20 22
you '
Ġind ustrial
sp iredĠ
s, Ġbrown
.7 Ġinch
ul ated
mak eup
ĠprotectiveĠ cover
sĠfor dĠ
a Ġwomen'sĠ
m ateĠ
pro ductsĠ
sĠtoy ota
17 5
4 Ġuk
sĠh alloween
s impleĠ
Ġvis or
Ġsp f
3dĠb edĠpillowcasesĠqu
neak er,Ġ
Ġ4 4
10 pc
ĠshortĠsleeveĠ t-shirtĠ(
es -b
Ġaw esom
il k
Ġt ropical
Ġsc or
eb row
wallĠar tĠprin
Ġsk ate
0 .5
f id
orang e,Ġ
hous eĠ
Ġeng agementĠring
ĠframeĠ(withĠmatĠboard) -a
Ġc anvasĠwallĠartĠframeĠ/Ġsize:
w oven
Ġf ill
Ġx Ġ50
l yĠs
p adĠ
d eck
, 6
Ġwais tĠ
ig ar
he atherĠ
Ġtre k
ext rem
Ġth ink
kn own
al p
eĠc an
ar on
Ġsecur ity
r ut
Ġopen Ġto
rel l
g Ġ-
da yĠgif
ater n
av a
yĠb ook
an alog
Ġsk oda
t ea
eĠst rap
Ġd eck
hex agon
Ġpro duc
lain Ġblack
duc ati
-top Ġsneaker
Ġval ent
w aveĠ
res tĠ
Ġ4 1
eĠqu iltĠcoverĠsetĠbeddingĠsetĠpillowcasesĠ
sĠs elf
12 8
est yleĠ
tw in
eĠc ream
kick standĠ
10 3
setĠof Ġ2
ber ryĠ
ec onomic
Ġcountersunk Ġphillip
so ul
Ġk or
yĠt -shir
il o
eĠflow er
craf tĠ
Ġgre eting
bab yĠ
d n
th ic
li dĠ
in ator
eĠprotec tor
Ġst ressĠ
55- 58
educ ational
Ġar mĠ
Ġsu ction
le sĠ-
Ġqual ity
Ġind icator
on eĠpiec
Ġd ouble
qual ity
Ġcompression Ġspring
an xiet
ri ger
unic ation
text ar
yĠsuppli es
no .
af lor
qu adĠ
- 26
ĠanimeĠwall ĠstickersĠself-adhesiveĠvinyl
Ġhex ĠboltĠm
Ġg row
Ġp aw
ĠtableĠcoverĠcloth ĠbirthdayĠpartyĠ
el lo
d anc
) Ġ19
ityĠ of
Ġst randĠ
k no
andĠ b
sĠsiz eĠ
14 6
eĠc om
Ġ1 40
rides maidĠ
ul tr
Ġwash ableĠ
genuineĠ toyota
, 000
amp agn
Ġ12 .9
Ġele ph
s ibleĠ
d un
re ation
rillĠb it
olly woodĠ
Ġnovel t
ev o
eĠ and
yĠ re
eĠg arden
Ġo h
lu ff
1 .2
erĠh ead
ter ior
10 9
oo per
aĠna umann
em ston
ou tĠb
eĠb irthda
att an
ĠwallĠmural Ġwallpaper
ĠtheĠd ark
Ġle opardĠ
qtyĠ 30
, Ġblue
kit ten
avail able
Ġstain edĠglassĠ
Ġreg ulator
2 80
Ġmet aflor
Ġf ak
Ġmemor yĠfoam
Ġslo tĠm
t ar
eth er
eĠf itĠ
eĠm old
Ġmoun t
st eveĠ
la st
sĠw alking
ĠdoubleĠ sid
Ġj ournal
d l
Ġch ic
and re
s ong
u res
14 "
Ġ3 7
Ġv eget
Ġsk y
os p
-1 /2"
Ġcon sol
ĠmediumĠ us
en ix
Ġin jector
ac erb
con nec
Ġe st
z ebra
p tion
Ġgalax yĠa
, Ġwomen
Ġt u
acerb isĠ
reg ulator
irc leĠ
yĠb alloon
du ck
erĠb ackdrop
Ġfit nes
Ġp ictur
Ġsoft Ġsilicon
'' ĠxĠ3
eĠc ov
eĠcap ac
Ġ( softcoverĠbook)
-c atĠ
p vc
tĠm ar
ro zen
,Ġ ex
l yĠb
Ġunder wear
air ĠfilterĠ
up grad
otan ical
ad ril
Ġst art
sc op
i Ġ-
ou flag
ĠfrontĠb rakeĠcaliper
00 2
Ġ7 6
f m
har ryĠpot
del ux
Ġorganiz er
j ogg
al ax
Ġaj ĠwallpaperĠau
fl or
head lightĠbulb
6 "
Ġcarb ideĠ
etern ityĠ
tĠh older
Ġear th
shaf t
f oil
sĠ l
Ġvol kswagen
Ġwhit eĠc
ootĠp eg
Ġ1 30
lif ting
vil leĠ
met ric
Ġmar coĠcarmassi
le sĠb
eĠs quar
Ġc ity
Ġwhit eĠstamp
Ġmal eĠto
0 .
Ġvel vetĠ
: Ġm
eĠbrak eĠtrimĠ
ocket ĠsetĠscrew
Ġtra ditional
Ġovers izedĠ
h uman
eĠsh ock
te am
d eg
,Ġblack )
Ġsh ip
Ġ1 "
j ourne
Ġto yĠ
Ġf ruitĠ
ru ch
sĠf il
con trol
n Ġ+
eled Ġsandal
/ t
Ġsp ool
Ġv iv
ĠandĠ men
Ġfor m
Ġ rap
x 8
Ġhoodi eĠ(
max i
tim ber
tĠw ater
80 p
Ġso ul
.7 ''
Ġb yĠst
Ġw g
bro ok
eĠ us
Ġ5 .0
allen ĠboltsĠ
gif t
Ġmo ccasin
new Ġbalanc
with Ġpocket
Ġ199 5
p ed
lee velessĠ
199 1
Ġrigh tĠ
Ġvol .
sĠre ad
/ red
tsĠ b
fl amingo
Ġfoot wear
la idĠ
Ġ10 g
in spirational
og ger
tĠc ushion
Ġc oral
w edg
id eal
t un
Ġ14 1
- Ġblue
dynamic ĠfrictionĠcompan
ĠmatteĠpaperĠprint,Ġ no
Ġall Ġball
Ġbag Ġfor
y Ġchristma
Ġsho elac
Ġx s
Ġx Ġ19
Ġjewelry ĠforĠwomen
Ġsho eĠ(
h anc
,Ġdark Ġoak
arc tic
Ġ9 7
ad eĠin
12 6
Ġlandcruis erĠ
-whit e
Ġv ictor
Ġa er
z ipp
ad ow
d ash
Ġg oodĠ
le s,
iesĠ b
38 mmĠ
replac emen
aut omotiveĠ
Ġap pro
15 5
Ġtri mm
/ a
Ġfilm Ġprint
eĠf rom
16 x16
vintageĠpartsĠ 6
Ġsticker Ġcling
ho tĠ
ag esĠ
ĠstickerĠcling ĠstainedĠglassĠ
ĠfilmĠprint ĠstickerĠclingĠstainedĠglassĠ
198 5
es-b enz
n umberĠ
eĠs upp
le adĠ
ol ymp
eĠin ser
Ġs yn
tĠb andĠ
Ġchrist mas
16 3
Ġlany ardĠ
ankleĠ strap
utter fli
Ġseam lessĠ
Ġperfec tĠfor
os cop
Ġf as
aw ai
sĠp lu
Ġpc s
zz leĠ
Ġaf ter
lightĠb locking
er fec
ol phin
ĠforĠh yundai
siz eĠ
Ġs imp
g s
Ġset ,Ġ
ĠtableĠcoverĠclothĠbirthdayĠpartyĠ eventĠ
eĠt ag
Ġlac eĠup
Ġw w
w ildĠ
fram edĠm
Ġframe-a 1Ġ(59.4ĠxĠ84.1cm)
Ġbor isĠdraschoff
Ġresist antĠ
n augh
co atedĠ
Ġaqu a
f ix
for Ġtoyota
Ġframe-a 0Ġ(84.1ĠxĠ118.9cm)
eĠc am
ig ur
Ġs ept
le ,
Ġcomput erĠ
ligh ting
ung leĠ
ang aroo
Ġtool sĠ
Ġk idĠ
12 7
co ast
ia tĠ
Ġfram e-b1Ġ(70.7ĠxĠ100cm)
art is
d -
Ġh ug
Ġ12 mm
esth etic
ĠunfĠimperial Ġfin
Ġdr um
sĠbo ssĠ
th row
sid eĠcolour
ou g
it on
Ġcoun ter
eĠbrakeĠcableĠ trimĠ
w ireĠ
ĠkitĠ -
tĠtop sideĠcolour
t l
Ġeff ec
]Ġcoin ,Ġfranc
stor m
m essenger
eĠ redĠ
Ġ3 Ġ2
Ġroll er
Ġp r
Ġs en
esp adril
n ud
ut o
f oam
di y
11 3
Ġ9 6
eĠof ĠtheĠ
f ab
co u
Ġ7 2
framedĠm dfĠpainting
ĠprintedĠ wallĠartĠframeĠ/Ġsize:
ot el
Ġgre y,Ġ
45 cm
war eĠ
au d
sĠw atch
ep adĠ
eĠc urtain
Ġp ic
Ġframe-a 2Ġ(42ĠxĠ59.4cm)
Ġ200 3-
10 mm
n iqu
Ġch elsea
Ġdi y
i ver
ec co
Ġp ress
Ġt oteĠbag
Ġh ybridĠ
Ġanimal ĠwallpaperĠmural
m 8Ġ(8
tur quois
ick ey
k een
Ġsquar eĠframedĠ
Ġn etĠ
Ġshap edĠ
Ġo ven
Ġpo int
12 4
ut il
Ġcomb ination
eĠs ign
Ġe ag
Ġt eal
qtyĠ 200
lot tedĠ
d am
Ġut il
tĠ 18
t ooth
Ġs em
t eĠ
Ġplastic ĠclipĠcollar
prem ier
00 3
it yĠw
allo yĠ
Ġsp ik
5 m
x 30
eauĠdeĠtoilett eĠsp
ultic olour
Ġb yĠf
la tĠ
Ġ+Ġsid e-casesĠ
th eor
en viron
Ġb righ
Ġ4 .0
Ġd eg
eĠb oy
giviĠcas eĠ
Ġe fi
Ġ8 x18Ġ5x112ĠetĠ
eĠm agn
it yĠf
edĠ in
v ir
cas eĠ
new Ġrm
ro idĠ
ingĠc loth
rac e-tech
sil iconeĠ
aa sĠbossĠ
e: Ġa
Ġb eautiful
Ġston esĠ
columbia Ġwomen'sĠ
Ġso hc
Ġd odg
orang e)
ele v
anti -scratch
ag ain
Ġ amy
eph en
Ġfig ureĠ
eĠch arm
Ġe ach
Ġlat ex
-1 50
c ream
Ġle ftĠ
gen dĠ
eg o
Ġh uawei
Ġ10 .5
Ġl anc
mi rag
okerĠ necklac
p ocketĠ
gre ss
yĠb ack
wh er
Ġw ell
lu ggag
eĠs neaker
e atherĠ
ribut or
touch Ġup
(m) Ġus
cm( 39
sĠb ook
b oot
e)Ġ( oneĠsize)
ran co
Ġband ana
-0 8
Ġr gb
Ġx Ġw
13 00
sĠfor ĠmenĠwomen
brown )
eng ravedĠ
sĠch ildren
icon ic
Ġboo ti
c alf
p aul
s, Ġm
Ġseat bel
ti an
w ool
m n
Ġf us
Ġch ines
f lexibleĠ
a un
ash mer
eĠc lean
ĠcrossĠ bod
8 "
Ġcur l
Ġt p
newĠrm -seriesĠ
Ġbeach Ġtowel
ust ic
res ul
Ġd ash
esc entĠ
. Ġh
Ġhex ĠsetĠscrew
charg ing
31 .5
it y,Ġ
awai ian
Ġ( 1
2 .4
ana Ġwomen'sĠ
aj usa
b ird
5 x
h r
m ack
ing Ġof
3dĠ blueĠ
Ġg l
Ġcom ic
am eth
30 ml
Ġcommodor eĠv
co s
tĠandĠt ellierĠnÂ°
Ġs v
19 80
Ġto ken
Ġm 20
Ġframe-a 3Ġ(29.7ĠxĠ42cm)
yl ar
wh en
Ġdis ne
Ġsh eep
eĠg radeĠ
a Ġ2
ac tu
Ġin tro
notĠ ratedĠ
2- inch
b p
sĠf re
Ġsleev esĠ
Ġb alletĠflat
Ġb urn
ol omitiĠdlm
i en
Ġf eed
Ġdi yĠcraf
b ud
Ġad r
Ġpe op
Ġval u
Ġslim ĠfitĠ
reath ableĠs
Ġ( blue)
um i
)Ġ- Ġrw
Ġ5x 120
Ġro man
Ġfit bitĠ
i ation
w ho
g -
co hol
tĠwall Ġart
Ġf ire
ra per
k il
marc Ġjoseph
Ġ9 25
terĠ -
gra duation
ĠstickersĠdecal s
den im
Ġext end
Ġhe ather
w w
erĠd ecoration
mo ther
de velop
li st
h ell
b ear
Ġfold ableĠ
Ġe j
alloyĠwheelĠmak Ġk
Ġpol ic
Ġp ath
erĠ 3
entr al
j am
d al
Ġb ronz
ank le
qu etĠ
,Ġ8 Ġuk
lot usĠ
ĠmĠusĠ littleĠkid
: Ġ
sĠc otton
x 14
Ġ7 7
le atedĠ
Ġf urnitur
3dĠ nordic
ĠmulticolorĠdecorativeĠ canvasĠpainting
Ġser ving
tĠp aper
s lipĠon
in -1
leĠb ar
dura ble
includ esĠ
Ġsneaker ,Ġblack
w oman
e,Ġ andĠ
erĠb each
marcĠjoseph ĠnewĠyork
wash ableĠ
Ġclo udĠ
sc ot
Ġink Ġcartridg
c it
eĠp lug
Ġw ildĠ
Ġs eas
ĠwireĠ dia
Ġjo in
/whit e
v eget
Ġt iesĠ
Ġte eĠ-
Ġh eatĠ
Ġmed al
eĠb lank
le ver
j us
lan yardĠ
eĠc lassĠ8.8
Ġs z
co old
m10 Ġ(10
da dĠ
ot iv
Ġstudent s,
n etwork
s imp
Ġtoner Ġcartridg
ou ven
em plat
Ġcas eĠcover
Ġf og
Ġcour ier
Ġst rain
- car
t n
pol oĠshirtĠ(
Ġpos tĠ
Ġmous eĠpadĠ
Ġself Ġdrilling
eĠstor ag
Ġp lac
Ġc b
ĠtemperedĠglas sĠscreenĠprotector
m ichael
- ton
Ġco z
t est
on i
sĠgirl sĠ
j ud
ed ,Ġ
Ġ& Ġd
,Ġp aris
yĠt ab
proĠbrakingĠp bf
6 pc
Ġsun setĠ
in eĠb
b eaut
Ġfleec eĠ
.3 l
ant as
x10 Ġphoto
Ġra bb
Ġsafet yĠ
Ġwomen Ġmen
Ġcamp ing
3dĠ d
ox ygenĠsensor
: Ġvolum
l anc
emor yĠfoam
funk o
Ġge ometric
-0 9
ar yĠof
c b
res er
em in
d j
adidasĠ men'sĠ
c uff
whit e/
lo y
yĠp iercing
/ 50
lo adĠ
red ,
Ġwheel Ġbearing
Ġx Ġ40
Ġh on
g ild
o unc
Ġv ita
x c
a Ġl
Ġan si
p f
yĠb ear
c ad
we ez
Ġcurtain ĠcurtainsĠdrapes,Ġ203
Ġp ast
r ant
Ġm r
r yĠg
Ġc ultur
it ag
Ġsweatshir tĠ(
Ġs ugar
m 3Ġm4Ġm5Ġm
Ġd dr
ed iumĠ
eĠm ax
Ġcar ri
eĠg ra
Ġsneaker ,Ġblack,Ġ
notĠratedĠ women'sĠ
oun tain
eĠc omfor
con tain
: Ġth
Ġh our
m organ
af rican
Ġgu arant
)Ġ( xs)
5 pc
Ġne utral
4 .5
Ġres earch
eĠh ood
g oodĠ
sm art
c la
c all
cut eĠ
c rown
Ġboy sĠ
ack leĠ
Ġ ignition
-f itĠ
Ġp ractical
tr end
Ġd at
Ġ2000 -
vinyl Ġ(
Ġn oc
ir at
Ġst eering
li v
Ġv it
ac ific
-sil ver
i '
lin e
m atch
ouven ir
'sĠ b
s,Ġ girls,
ung lassesĠ
la va
Ġbatter yĠ
Ġ1 5-
win terĠ
sof tĠ
buil ding
Ġ os
Ġcut back
le opard
le s,Ġ
ir i
r m
3dĠ tre
Ġteen Ġgirl
Ġfull ĠsystemĠexhaustĠ
Ġf olio
el ux
fir stĠ
Ġg ram
ent s
to is
eĠmotor cycleĠ
sol ar
Ġsafet y
eĠflow ersĠ
Ġsp lash
t ak
hand bag
/ n
h oopĠearring
ru z
Ġflow erĠp
6 /5
Ġsh er
Ġext rem
Ġcurtain ĠcurtainsĠdrapes,Ġ264
s x
b ac
Ġbab yĠgirl
Ġ2 .8
tĠf rontĠ
Ġsp in
or ding
bl ank
Ġn orth
sĠc at
Ġ .42mmĠbm
Ġp sych
v estĠ
ec re
,Ġ 40
Ġ199 4
b urn
Ġat v
ump kin
rugg edĠ
Ġpol oĠshir
Ġ65mm Ġcutback
enger Ġsid
Ġig c-
Ġco ach
Ġanim eĠquiltĠcoverĠsetĠbeddingĠsetĠpillowcasesĠ
Ġper son
Ġtop Ġ-
co z
,Ġ50 cmĠx
f our
,Ġ4 Ġuk
Ġsp e
ri mm
de ath
Ġknit tedĠ
iceĠc ream
Ġg oog
ne o
q i
Ġnin ja
Ġr f
-p ink
ti fic
et erĠ
3dĠ hatsuneĠmiku
eĠt rain
Ġs av
lo ad
Ġcor olla
19 .7''
Ġsprock et
2 60
Ġinst all
ann erĠ
Ġun i
fish ing
Ġearring s
Ġyz f
aasĠbossĠ kitĠfor
iff on
4- 70
ch ef
Ġcount ry
Ġcolour :
cm( 19.7''
un ter
Ġmetaflor ica
Ġan alog
eĠp op
sw itch
p ark
Ġwedding Ġband
eĠc atĠ
tĠf ashion
est ion
Ġcrew Ġneck
Ġ5x120 ĠetĠ
ing ĠbyĠ
eĠ all
Ġw il
m hz
Ġre st
tĠwallĠar tĠ#
Ġ& Ġt
Ġt-shir t,Ġ
v p
k im
cmĠ -
,Ġ x-small
Ġrec tangular
coold ek
Ġcent ur
Ġc af
offe eĠmug
3Ġm 4
Ġro ad
ar ah
, b
tyr eĠs
yĠc otton
tor x
e ometric
go d
Ġyo ung
Ġxiaomi Ġredmi
for nia
Ġtr k
Ġ141 ''xĠ106''
Ġsw ing
p ap
tempor ar
Ġafric a
hal id
eĠc ook
Ġta ylor
leĠp ixel
er sĠwith
,Ġ notĠ
Ġp enn
kitĠ -
Ġfriend ship
Ġl ap
Ġtig erĠ
Ġblank etĠ
cm(wxh)Ġ104''x Ġ94''
2 19
Ġs ifam
itz er
Ġey eg
,Ġwhit e/
Ġlen sĠ
washer Ġsaf
re et
eĠ vintag
316 l
Ġw etĠ
adhes iv
n atur
lus ion
fl ar
18 kĠgoldĠ
Ġ3 Ġpack
Ġbrown Ġsize:
un itĠ
black /
7 "
Ġ750 ml
ol ida
Ġ8 5
5- 6
n om
âĦ ¢
tĠb rush
cmx270cm(wxh) Ġ141''xĠ106''
360 cmx270cm(wxh)Ġ141''xĠ106''
eĠtyp e:
Ġun ion
Ġdress -
agu ar
140cmx200cmĠ(55.1 "x
cmx241 cm(wxh)Ġ104''xĠ94''
78.8 ")
140cmx200cmĠ(55.1"x 78.8")
Ġtr end
cm(wxh)Ġ80''x Ġ94''
Ġs /
Ġt n
cm(wxh)Ġ104''x Ġ83''
cmx213 cm(wxh)Ġ104''xĠ83''
f o
known ,
ad v
Ġwash er
Ġ eco
r 4
13 8
Ġeu ropean
naugh t
20 2
4 pcsĠ
ĠsilverĠ halid
ĠsilverĠhalid eĠphoto
u sĠb
Ġri bb
Ġs lat
yĠbann erĠbackdrop
co il
is co
s ign
ind icator
Ġstretch edĠcanvasĠ/
d es
tĠb uckleĠ
Ġs ix
tĠw aterproof
Ġsk eleton
rec tangleĠ
Ġed p
i allyĠ
Ġboy sĠandĠ
cmx241 cm(wxh)Ġ80''xĠ94''
ch unk
sĠc ard
upto Ġ5
Ġp on
Ġmetric Ġfin
Ġtitan iumĠ
Ġsp ider
est ry
16 5
cm(wxh)Ġ80''x Ġ63''
h all
eĠst ainlessĠ
eĠp ar
cmx160 cm(wxh)Ġ80''xĠ63''
e ut
Ġtablecloth ĠtableĠcoverĠclothĠbirthdayĠpartyĠeventĠ
ic ur
f u
und am
ĠheavyĠdutyĠ vinyl(
ĠfloorĠmural ĠheavyĠdutyĠvinyl(
uptoĠ5 year
ĠfloorĠmuralĠheavyĠdutyĠvinyl( uptoĠ5year
Ġy arn
Ġpop !Ġvinyl
ant om
a 0
fin ish
Ġfoil Ġballoon
eĠdraw ing
upto Ġ3
eĠs lim
y og
Ġanti -slip
Ġcas eĠcoverĠfor
it er
Ġ126 ''xĠ106''
h oodĠ
Ġ19 87
t apping
Ġsumm erĠ
Ġf ridg
ok er
itch ell
ĠprintĠ /
g row
eĠph otograph
Ġm int
Ġmen sĠt-shirtĠ
Ġst eam
Ġth umb
Ġinch Ġwide
b eck
ĠsilverĠhalideĠphoto Ġprint
6 .5Ġuk
kitĠ (
transpar entĠ
Ġconver ter
ĠfloorĠmural ĠstandardĠ
uptoĠ3 month
vinylĠ( uptoĠ3month
ĠfloorĠmuralĠstandardĠ vinylĠ(uptoĠ3month
Ġbel tĠ
iseĠ ring
Ġh or
alex and
eĠg am
Ġpo dĠ
Ġlif e
r ar
-s ingle
ib a
s 4
Ġ3 Ġ4
"x 47.24
sĠsil icon
tĠc ap
gif tĠfor
Ġex per
6- 12
"x47.24 ")
Ġp recision
cmx270cm(wxh) Ġ126''xĠ106''
70.9 ")
320 cmx270cm(wxh)Ġ126''xĠ106''
80cmx120cmĠ(31.4 "x47.24")
.7 l
Ġo '
6 mmĠ
Ġwall ĠstickersĠ
"x 94.5
"x94.5 ")
160cmx240cmĠ(63 "x94.5")
plu sh
m outh
sĠto ddler
Ġcross bodyĠbag
y mm
20 9
cm(wxh)Ġ104''x Ġ63''
eĠn eck
eĠsp ortsĠ
Ġc all
ra sh
Ġp uff
Ġs emi
ind igo
earl yĠ
mk ĠengineĠ
Ġ6 g
ig ator
Ġsh ield
"x 70.9")
120cmx180cmĠ(47.2 "x70.9")
5 cmĠx
ork el
j j
Ġw rang
x36 Ġcm
sh or
Ġ2007 Ġ07
sh ield
sĠw inter
m 8
tĠt -shir
Ġob kn
w estĠ
Ġtyp eĠ
sĠs neakersĠ
n issan
- 50
t ripleĠ
tĠp en
Ġhead setĠ
ĠmatteĠpaperĠprint,ĠwhiteĠfram eĠ(withĠmatĠboard)
unit edĠstat
ersĠ in
cmx160 cm(wxh)Ġ104''xĠ63''
Ġc andleĠ
Ġvol vo
Ġc ad
Ġdaugh ter
ingĠp adĠ
d rink
brakeĠpadĠ goldĠ
ĠmarineĠ stainlessĠsteel
s ock
"x 35.4
Ġf unction
usqvarn a
: Ġhow
Ġwar mĠ
Ġhead band
sĠ 9
cmx213 cm(wxh)Ġ80''x
cmx213cm(wxh)Ġ80''x Ġ83''
u an
s eal
Ġsize: Ġ29
Ġmon sterĠ
Ġi sĠ
s,Ġgirls, Ġboys,
Ġpolish edĠ
r us
l '
"x35.4 ")
l k
yĠc atĠ
60cmx90cmĠ(23.6 "x35.4")
Ġ1 .9
ityĠ in
m achineĠscrew
198 6
co smetic
Ġd ip
eĠ ey
Ġb ritish
g low
arn ess
/ 40
y ing
w olf
/ 70
bod yĠ
eĠm esh
Ġcas eĠcompatibleĠwith
tom Ġtailor
. 35
Ġwal let
z ero
h t
y sĠ
h or
Ġbag, ĠshoulderĠbag
eĠd riveĠ
gild an
Ġ- Ġg
racele t
leather Ġflip
Ġcle ans
Ġ- Ġn
Ġhold erĠh
Ġ4 9
Ġt c
ar tĠc
tĠ/ Ġt
b ul
eĠf ish
eĠt ray
eĠshort ĠsleeveĠ
i ousĠ
ĠcrossĠbod yĠbag,
ĠforĠchildren ,Ġkid
yĠch rist
Ġin strum
it t
7- 8
Ġb lindĠ
w orld
messenger Ġschool
Ġcourier Ġbag,ĠshoulderĠbag
Ġstudents, ĠcrossĠbodyĠbag,
bonamaisonĠdigitallyĠprintedĠ messengerĠschool
ma sterĠ
Ġst rateg
Ġstudents,ĠcrossĠbodyĠbag, ĠcourierĠbag,ĠshoulderĠbag
Ġsize:Ġ29 x36Ġcm
ral ph
s,Ġgirls,Ġboys, Ġsize:Ġ29x36Ġcm
ĠforĠchildren,Ġkid s,Ġgirls,Ġboys,Ġsize:Ġ29x36Ġcm
Ġstudents,ĠcrossĠbodyĠbag,ĠcourierĠbag,ĠshoulderĠbag ĠforĠchildren,Ġkids,Ġgirls,Ġboys,Ġsize:Ġ29x36Ġcm
sĠf ram
Ġcit roen
brakeĠpadĠgoldĠ fren
Ġ6 -cyl
on ĠtheĠ
eĠc ustom
/ 19
merc ial
Ġsc runch
t ter
eĠ grey
w es
Ġo bl
happ yĠbirthda
Ġshrink Ġtub
Ġmov i
h iflo
yĠs mall
mĠ x
yĠj ean
eĠm oldĠ
30 -35
Ġ4 Ġ3Ġ2
wallĠartĠ 16x16
14 5
jector Ġlamp
et a
"x 23.6
Ġsp ot
c atch
Ġx j
sĠh ex
198 4
p urp
Ġunisex -childĠ
happ yĠ
Ġsho es,
Ġz eal
Ġb eginn
sĠd ress
al ip
/ 15
tĠ iron
sĠc up
ep end
le ur
w ick
Ġc .
eĠsp ac
eĠwall ĠstickerĠws-
Â ²
Ġk x
Ġrub berĠ
p ing
Ġd ial
Ġfla tĠwash
n umber
s,Ġblack Ġ(black
eĠtop az
r ition
lu k
Ġpro tein
p m
yĠs k
m ik
ligh tĠfor
urledĠ thumb
ul derĠ
em an
usb andĠ
Ġcol lec
g ood
Ġor Ġr
treas ure
shock Ġabsor
"x23.6 ")
- j
eĠb andĠ
blu e,
ĠiphoneĠ13 Ġpro
Ġm otion
Ġxiaomi Ġmi
amp ing
lu min
rock er
yĠmon key
sĠs uppli
Ġpupp iesĠ
-0 4
Ġstrip esĠ
tĠp attern
eavyĠdut yĠ
Ġh ill
c nc
ĠfrontĠdisc ĠbrakeĠrotor
t ableĠs
Ġ200 2-
must ang
40cmx60cmĠ(15.7 "x23.6")
cmĠ +
Ġk o
olog raphic
/ 100
g lovesĠ
li ber
Ġwedg eĠsandal
an z
ac y
av our
ell ation
x 1
,Ġ natural
an alys
Ġ16 g
Ġ& Ġwomen
Ġfashion Ġboot
Ġmed ical
ast erĠ
l ind
/ 24
ĠturnĠsignal ĠledĠ
Ġch ef
Ġs or
u o
eĠn ut
sh ineĠ
Ġs am
yĠs lip
c amel
cm*180 cmĠshowerĠcurtainĠonly
a- z
Ġsc rip
Ġc ityĠ
tĠm ini
16 Ġ(16
rear Ġbraid
Ġ0 .5
p owerĠ
Ġ(3 mm)Ġx
p ush
tĠb el
Ġmet hod
m ain
Ġh yper
sĠf low
h on
ĠsamsungĠgalax yĠnot
Ġlead .
Ġeduc ation
roseĠgold )
eĠs ingleĠ
ã Ģ
Ġf avor
qu ant
ring sĠ
Ġsal on
Ġoz Ġ(
81 ''x
cmĠ(hxw)( 81''x
mot ion
Ġw ris
Ġun it
Ã ¤
la ura
Ġf er
,Ġau( 55-58
Ġ4 k
- 21
jewelry Ġmaking
Ġcomp ressor
ateĠ sho
Ġinch Ġ(
50- 53
ge org
au xh
Ġbrack et
Ġpl ant
4-70 Ġg316
/ w
g litterĠ
Ġsew ing
it 'sĠ
Ġ- Ġgreen
Ġdiamet er
Ġn app
ĠroundĠnon ĠslipĠrugĠmat
vit ation
ulti mateĠ
toddler/littleĠkid /bigĠkid
auxh all
organic Ġcotton
eĠs now
Ġston e
Ġrear ĠbrakeĠdisc
13 2
Ġmen sĠp
necklac eĠfor
Ġch est
- 22
Ġw ild
Ġbr andĠ
id eĠto
licens eĠplat
Ġn igh
Ġ16 mm
n at
Ġpadd edĠ
Ġfor Ġsubaru
ankleĠb ootsĠ
Ġon ep
t am
p enn
el bow
Ġpl antĠ
Ġthermo st
s ocketĠheadĠcapĠscrew
esĠf abric
ho tĠwheel
elebr ation
Ġcon cer
30 2
Ġb asketball
it ud
,Ġ grey
lan etĠ
Ġbr ick
Ġsc rub
eĠc u
b )
Ġch ampion
s car
tĠ 3
plat edĠc
sĠt een
ez el
Ġtemper atur
Ġtoy sĠfor
Ġsu cc
Ġl s
Ġ3 3
x40 ĠcmĠ-ĠdesignedĠandĠmanufacturedĠinĠturkey
Ġhair Ġclip
d ean
Ġsh el
Ġgu ard
Ġwater ĠbottleĠ
em stoneĠ
Ġprin ter
Ġdin 9
rug atedĠ
z er
Ġ4 3
qtyĠ 500
Ġsneaker ,
Ġmotor cyc
Ġwatch ĠbandĠ
v -neck
om on
tĠc ol
x24 Ġin
us an
indoor Ġoutdoor
s in
Ġfit nessĠ
Ġ200 1-
res ent
iallyĠ licens
eng agementĠ
000 k
sh er
eĠh ear
Ġsec re
tĠp art
p atch
setĠof Ġ4
advanc esĠin
Ġm 8Ġ(8
lip Ġflop
athem atic
ĠframedĠprin tĠ12x16Ġinch
13 3
Ġever y
n ing
amaz on
Ġpat io
Ġm ess
outback Ġobkn
re lax
ir ish
yellow Ġstamp
c ot
k el
sĠst or
Ġp ra
tĠ x
( blue)
Ġy r
Ġcartil ag
dĠ -
Ġansi Ġb
Ġselec tĠ
Ġmar ineĠg
Ġt attoo
Ġkawasaki Ġz
f ast
eĠmen sĠ
Ġl av
Ġt ro
ĠappleĠwatch ĠbandĠ
b ulk
Ġcharg ing
att ro
man i
nap kin
Ġfor Ġgirl
Ġdiamet erĠ
-in -1
riger ator
16 g
,Ġb irthda
ĠphoneĠ model:
Ġmar in
riv et
resist an
Ġel it
Ġ rid
th or
brit ish
Ġc v
Ġm achineĠ
n et
shir tsĠ
Ġteam coach
Ġm yĠ
yĠh oodi
sĠc ardĠ
sĠ 18
17 8
al d
Ġ5 /16"
Ġw ineĠ
Ġin ternal
,Ġ 80
sĠst retch
lin er
al on
t is
mm)ĠmetricĠcoars eĠscrew
Ġblack )
, Ġmen
Ġcraf tĠ
t owel
doc tor
g304 ĠstainlessĠsteel
Ġop el
Ġt un
Ġac adem
,Ġ navy,Ġ
s, Ġpink
d edĠ
ĠcurtainsĠdrapes,Ġ 360cmx270cm(wxh)Ġ141''xĠ106''
ingĠh ook
Ġlas er
ser iesĠ
w .
Ġwalking ĠshoesĠ
yĠh igh
plu sĠ
dol c
3 xl
ch i
Ġc m)
Ġj am
eĠ theĠ
f romĠ
bo ur
Ġb ulldog
Ġshockproof ĠprotectiveĠ
-f i
erĠh igh
3 Ġ-
erĠb ab
1 19
x i
ou tĠc
em eraldĠ
4 g
in .
-0 7
ĠstainlessĠ g316
Ġ2017Ġ17 Ġ2018Ġ18
u .s.
ĠwallĠar tĠcanvasĠprin
Ġe g
Ġshir t,Ġ
o ul
th atĠ
ans en
d ot
c los
Ġz p
ĠkitĠ with
+ 2
Ġass afĠfrank
5 mmĠ
Ġmobil eĠphon
ersĠ &
Ġfac ial
Ġv acuumĠ
gi ou
12 Ġ(12
Ġn umberĠ
qu eĠ
Ġt unnel
naught yĠmonkey
Ġsw an
Ġcase, ĠphoneĠmodel:
f oot
15 8
adap tor
3dĠwater color
sĠc lear
Ġsh ear
on o
lif e
olog yĠ
n an
Ġ1.6 l
Ġg odĠ
giviĠcas eĠb
10 x
men Ġwomen
oo z
ingal eĠdogĠcollar
Ġal uminiumĠ
Âł âĢĵ
Ġr hinestoneĠ
eĠblu e
eĠd rop
lap sibleĠ
pol ish
Ġr uff
Ġd adĠ
pol ar
Ġsw irl
Ġtap per
ilet to
ruff leĠ
-w ide
Ġs ydne
3dĠ handĠ
Ġp astel
13 7
Ġan th
Ġ8 2
Ġgra ssĠ
andal a
ĠcurtainsĠdrapes,Ġ 320cmx270cm(wxh)Ġ126''xĠ106''
m ug
3 12
rit ical
sĠ or
ĠanimeĠquiltĠcoverĠsetĠbeddingĠsetĠpillowcasesĠ 3dĠduvetĠcover
yd raulic
Ġc amer
ol yest
heavyĠdut yĠ
op tim
Ġflu or
le ak
paper ĠprintĠ/
Ġj ogg
foratedĠ leather
hand bookĠof
, Ġcar
sĠ 19
ĠwallĠmural s
organic ĠbrakeĠpad
in dian
g ram
Ġstor m
Ġscratch Ġrepair
rip tion
actĠm atch
Ġw ord
erĠf lat
le men
Ġtre eĠ
estĠf riend
Ġint ak
is el
sĠgif t
Ġop al
p endantĠ
color Ġn
Ġcable .
Ġin n
Ġchildren 'sĠ
Ġcol ouredĠ
bab y
sĠb ar
c s
Ġrom eo
ingĠw atch
Ġb edĠ
ĠsetĠof Ġ6
ri ding
ĠbrakeĠpad Ġset
bur y
Ġc anc
+ 1
f ing
4 l
Ġs lic
b atter
Ġguarant eeĠ-
Ġmil k
Ġtenn i
yĠf ull
iev al
Ġm erc
yĠ z
ac eĠ
Ġp edal
t ruck
ĠbirthdayĠpart yĠdecoration
x 9
shad ow
mov i
touchĠup ĠpaintĠ
kawasaki Ġz
yĠc ut
w ill
ra ff
ĠfilmĠprintĠstickerĠclingĠstainedĠglassĠ uv
daugh terĠ
sĠre f
Ġut aĠnaumann
Ġlc dĠ
al uminiumĠ
sĠs uper
Ġnon Ġslip
Ġtw ist
23 ĠswanĠ
x 50
gra y,Ġ
tur eĠ
ing ham
sk y
eop leĠ
uk k
im ension
Ġg rit
yĠch ar
Ġn apkin
Ġ3.0 l
Ġpaint ĠscratchĠrepair
Ġne on
g rac
vo ir
colorĠn ĠdriveĠ
x ic
,Ġex actĠmatch
,ĠexactĠmatch ĠguaranteeĠ-
raf t
if ier
touchĠupĠpaintĠ |
yĠh ear
ĠpaintĠscratchĠrepair ,ĠexactĠmatchĠguaranteeĠ-
Ġhapp yĠbirthda
omet ry
3 pcsĠ
Ġtank Ġtop
Ġ Â
eĠm inimal
Ġwindow ĠfilmĠprintĠstickerĠclingĠstainedĠglassĠuv
Ġho tĠ
Ġf wdĠ
Ġv o
diff er
- pro
23.6 '')
sh imano
Ġint eg
7 .5Ġuk
eĠp earl
Ġelec trical
am entĠ
t es
eĠb lock
Ġe ven
ra dio
mm Ġblack
eĠm asterĠcyl
y Ġcard
Ġad ver
ew ter
em at
Ġport raitĠ
learn ing
Ġseal ing
s av
ersĠ of
ut ch
Ġwomen'sĠ b
Ġflat Ġsandal
le sĠof
ett a
(black ,
r hodium
ent edĠ
17 9
s ub
eĠ rac
prin tĠ
auth entic
Ġstag geredĠ
ec ur
Ġplat inum
Ġc limb
Ġli k
Ġblu e)Ġ(
dog Ġleash
s afet
Ġd uck
i phon
le ft
ris ban
" Ġ-
on l
on yĠ
esĠfabric Ġwindow
Ġwomen &#39;sĠ
3- 4
Ġa stra
eĠ new
14 kĠgoldĠ
g own
Ġm outh
ic leĠ
,Ġ10 Ġuk
Ġmen s
al ic
. com
eĠf romĠ
ul s
Ġmar yĠjan
13 4
y i
li z
3dĠgra ffiti
atch el
es cap
t usĠ
Ġg rin
12 1
)Ġ( xxl)
Ġtyp e-c
fil ledĠ
eĠwallĠar tĠ-
,Ġ vol.
layer edĠ
eĠh oodi
w (
eĠs ensor
Ġmed ic
steveĠ madden
70.9 '')
gra ffiti
lac e-up
s outh
a 4-70Ġg316
personal izedĠ
,Ġ redĠ
g p
eal ing
Ġb io
alloweenĠp art
m idi
Ġ19 7
ĠsetĠof Ġ3
Ġsuit sĠ
ele ction
grip Ġknob
Ġro w
len eck
s um
son ic
ml Ġ-
Ġnon ĠslipĠrugĠmatĠ
o int
i .
iqu eĠpol
Ġwhit e)
yĠt re
ĠprintĠ 24
ti er
co .
Ġstor iesĠ
rist ol
eg yp
Ġdet achableĠ
-b as
and rew
alloyĠwheelĠoz Ġracing
Ġ4 7
yĠf loral
sĠb ead
qu er
Ġ5x 108
,Ġ7 Ġuk
ĠprintĠ24 x20
di mm
p ractical
Ġs eed
b ath
.9 25Ġsterling
ain tedĠ
- color
s co
Ġcub an
kn ot
Ġsc ulp
eĠmar bleĠ
eĠ key
-0 2
gam ing
m 5
Ġp unk
Ġhol low
u sĠp
1 cm
Ġt actical
Ġdisp la
Ġn eo
20 6
intendo Ġswitch
Ġconc ret
m echan
3 40
-f lop
ou tĠp
Ġb uilt-in
Ġsil enc
sĠ :
eĠwall Ġart
,Ġ 60
Ġl awn
ch a
Ġm echanical
g sm
eĠprotec tion
ĠforĠfordĠ falcon
m otocrossĠ
Ġnoc atĠ
Ġf ib
mm)ĠxĠ1 .25
li fi
Ġsocket ĠsetĠscrew
t leneck
sĠb ootsĠ
sĠh olden
Ġwomen sĠs
eĠs chool
Ġrunning ĠshoesĠ
3 10
ĠbyĠ davidĠ
men tĠb
z on
er ship
ig re
yĠth read
Ġo dĠ
buck leĠ
Ġflu ff
eĠqu artz
Ġ6 cyl
illi on
Ġt ek
ol tĠ
Ġsk yl
Ġslo gan
il eĠ
ĠshortsĠ -
Ġst ool
13 9
Ġli on
mm ĠstainlessĠsteel
Ġg rain
14 7
pu Ġleather
) Ġ[
erĠ 1
s man
qtyĠ 300
al v
Ġre el
Ġr v
Ġmerced esĠbenz
Ġh ik
xl r
Ġex ternal
Ġpolyest er
vari ou
Ġ2 -
at ti
ru th
e,Ġ 9
Ġpiec e
quick Ġreleas
eĠb each
con nector
Ġcrop Ġtop
Ġn atur
las k
sĠst ar
( 6
/ 30
gra y)
d ust
li mĠ
, Ġwaterproof
Ġ1.8 l
amb erĠ
sĠfor Ġgirl
Ġfor Ġ
tĠp lat
v arious
andĠ theĠ
ĠsolidĠ color
Ġtim ber
ma il
compression Ġspring
estĠf riendĠ
15 2
king dom
Ġ& Ġseal
Ġtre esĠ
ĠandĠ c
12 9
Ġrep ublic
eĠcountersunk ĠsocketĠscrew
Ġm ur
eĠm edium
Ġs om
Ġskir t
ĠmulticolorĠdecorativeĠ framedĠmdfĠpainting
arti st
st rong
le visĠtrimĠ
Ġto ilet
h op
k m:
Ġ200 5-
nav yĠ-
-0 3
deg rad
eĠ no
americanĠshifterĠ 5
gen eral
Ġ5 dĠ
o '
Ġch ass
Ġhead ĠsocketĠscrew
Ġp av
Ġswe etĠ
yĠc loth
Ġaccessor y
lay erĠ
eĠm ark
10 Ġ(10
Ġk g
Ġcas eĠ(
Ġpolar isĠ
grin d
piec eĠwatch
f p
s ant
rest ig
eĠp atch
Ġmagn et
Ġturbo Ġdiesel
eĠc at
enn isĠ
Ġb angleĠ
ban jos)
Ġ5x108 ĠetĠ
/ x
18 00
a it
lo stĠ
rol ling
t own
ec onom
lit z
eĠc loth
ja zz
gif tsĠfor
Ġconver tibleĠ
ĠxĠ3 2
Ġn y
h oop
Ġcre di
Ġfor est
ingĠf an
Ġv r
t itanium
ĠshoeĠ lac
ĠforĠvol vo
11 )
Ġadap tor
Ġg rill
Ġg ho
d ek
Ġan alys
Ġf estival
Ġ iz
yĠs et
rear ĠwiperĠblad
Ġ200 4-
o )
Ġir id
eĠd own
dol phin
, 7
Ġbro ken
Ġax leĠ
Ġ urban
mm)ĠxĠ1 .50
Ġ2.5 l
Ġs epar
eĠp in
ym co
Ġm e
iĠloveĠ you
Ġexp ressĠ
moun ting
z h
( c
( 12
ingĠm achin
mar tĠ
sĠ new
m12 Ġ(12
e quip
Ġreplac ement
Ġwid e-
eĠwind screen
rem ation
le tsĠ
Ġk ar
k or
Ġr g
om bi
ri ving
yĠf ashion
3 Ġx
Ġr .
j er
yĠb utton
30 8
10 pcsĠ
eĠ& Ġg
Ġben ch
ro ok
10 .9
gre yĠ(
Ġfold ing
Ġair pod
ĠandĠ loop
Ġlo ver
Ġ version
d k
d p
,Ġ5 .5
eĠprin tedĠ
gh z
Ġin Ġblack
- x
for Ġmen
xx -large
Ġtur tleĠ
( 2
Ġclean er
Ġrub b
Ġwe igh
yĠgif tsĠfor
po int
Ġmel bourn
g lassesĠ
unisex -childĠ
Ġ200 6-
4 k
p y
jectorĠlamp ĠmoduleĠfor
Ġsp ok
sĠs ensor
phon esĠ
aby Ġshower
oo ter
ĠforĠwomen Ġgirl
y Ġcontrol
Ġk tm
Ġnecklac eĠforĠwomen
ersĠ to
Ġin spirational
Ġc av
laz er
jo in
eĠc or
ol tsĠ
Ġrug Ġ(80
card igan
Ġc i
y stĠ
ev ro
g edĠ
Ġcostum eĠ
tĠwallĠar tĠ-
pet it
Ġdiff us
erĠ kit
ach i
ingleĠc anvasĠwallĠartĠpictureĠprint
yĠmar l
read er
yĠof ĠtheĠ
Ġcle visĠtrimĠ
3dĠcolor ful
Ġg litterĠ
tr unk
yĠc ak
yĠm an
Ġf inger
for estĠ
red /
r gb
Ġre lax
Ġm10 Ġ(10
valent ine'sĠ
Ġcar ĠwindowĠbumper
eĠg aug
Ġoil Ġpan
f igh
304 Ġa2
rec tangular
rag lan
sĠf lat
sp anish
metalgear ĠbrakeĠdiscĠrotor
Ġe v
oy ag
Ġto ddl
Ġmulti pleĠ
d ic
Ġp antĠ
eĠw ir
3dĠb each
Ġchevro le
lin ical
st ed
eĠst y
Ġ Ġ-
Ġco uch
etĠ dog
tur bo
Ġmar vel
Ġch ron
Ġ2 20
van Ġdamm
Ġcarb uretor
l ick
ater nit
Ġre v
otor cycleĠ
Ġprinting ĠcurtainsĠdrap
em ergenc
ig en
Ġlil ac
sĠp air
eĠh eadĠ
Ġgun Ġmet
ard enĠp
raz or
Ġt ong
tyr eĠsetĠ
Ġct tw
leĠb ag
eĠc lamp
ĠprintingĠcurtainsĠdrap esĠfabricĠwindow
sĠsc rew
Ġspark leĠ
Ġc di
Ġgoog leĠpixel
Ġap rilia
Ġ8 g
sĠd oubleĠ
memor yĠfoam
br ick
Ġcas eĠ-
ch en
,ĠnotĠ known,
c p
ingĠ and
ut terĠ
iz ing
sĠ christma
Ġeth ernetĠ
Ġb f
d ecal
, 4
Ġ2014Ġ14 Ġ2015Ġ15
ol itic
Ġc lassĠ
Ġwhit e-
reg ionĠ4
Ġdog Ġharnes
Ġst ream
b utterfl
Ã© cor
as a
esp ear
Ġcom mon
Ġswimm ing
carol ine'sĠ
eĠs aw
it ies
Ġbel t
Ġstudio Ġmetaflorica
ĠgoldĠ platedĠ
Ġr ol
ian a
b usines
15 7
,Ġ gold
andĠ p
eĠpro of
an sĠ
le v
eĠ [
water Ġpump
eĠst retch
ot ec
inn ieĠ
ĠwallĠpaperĠwallĠprintĠdecal Ġwall
eĠ or
yĠf ram
mkĠengineĠ mountĠ
Ġ9 12
Ġ5 6
Ġl ens
tĠb o
p ent
18 "
Ġn ic
ĠforĠh p
Ġsandal sĠ
500 ml
ch rys
caroline'sĠ treasure
( 10
Ġ3 /4"
kitĠ with
eĠh ook
ri son
Ġb omb
am ar
Ġchristma sĠtre
greeting Ġcard
Ġc aveĠ
d ig
p ff
Ġt unic
Ġch annel
count ry
18 5
Ġf ring
r g
sĠm achineĠscrew
Ġ5 4
an jos)
o therĠ
Ġst rand
Ġmen &#39;
tr ansmission
fre eĠpost
h g
eĠsh ap
Ġ8 6
Ġmon o
Ġc raw
Ġcountersunk ĠsocketĠ
ic at
12 2
7 /8
arrowĠhom ologatedĠ
Ġwall ĠstickerĠdecal
Ġrec ordĠ
us ed
ho tĠpink
Ġmpfi Ġ4cyl
tĠc lip
Ġkn urledĠthumb
propetĠ women'sĠ
Ġmed ia
Ġre volution
Ġ lightĠb
30 5
eĠt ail
Ġsiz e-
6/5 /4/3/2
Ġbe ver
Ġphillip ĠmachineĠscrew
' tĠ
Ġf j
Ġ( packĠof
Ġnu tĠm
un t
app yĠbirthda
Ġfor Ġg
Ġsp at
ĠstampĠyver tĠ/Ġt
ch elle
for ĠfordĠ
inter activeĠ
Ġh i-
ut ensil
Ġl ak
b amboo
Ġbulb Ġinsid
sĠs neaker
roman tic
Ġpack Ġ-
30 1
b ulb
Ġ500 ml
s lottedĠ
Ġwith Ġ2
jo int
original ĠbulbĠinsid
eĠcon nector
Ġt ow
s, ĠblueĠ(
Ġp k
Ġde ath
v m
Ġ16 "
esp ri
Ġar tĠprin
Ġgirl s'
Ġbutterfl yĠ
Ġdav idĠ
Ġsk ill
ac leĠ
p ullover
le )
- man
3dĠwater fall
Ġsec ondĠ
10 -
Ġhatch back
ju li
orang e/
Ġ4 .5
tr ump
Ġband sĠ
ring sĠforĠwomen
Ġx ma
blo us
sĠg ra
j ustĠ
ti re
w at
Ġtech nolog
eĠs o
eĠf unn
necklac e
moun tedĠ
Ġ1 /8
x t
Ġ(whit e)
Ġc rim
k m
exc lusiveĠ
e,Ġ 8
Ġclos ur
Ġusb -c
ark bust
, Ġth
Ġp artĠ
adjust ableĠs
achel or
zz i
do ona
sĠc rystal
il fig
l li
e for
cra gh
eĠb yĠs
eĠ replacementĠ
Ġd irtĠbik
eag leĠ
c .
im o
Ġpan ĠheadĠphillip
Ġdi rec
)Ġ( 2xl)
h arnes
Ġ5 2
ĠdĠ us
sĠsp ring
ev olution
ingĠc up
Ġc la
w b
Ġcan on
eĠm atĠ
Ġal ex
ÂłâĢĵ Âł
Ġrec tangleĠ
- Ġnew
eĠh oop
ig ab
ony tail
victor ia
Ġban jos)
Ġ2006 Ġ06
ĠprintĠ24x20 "
,Ġb ronz
Ġsoc cer
up per
Ġbas eĠ
ast ron
eĠst on
sp eedĠ
Ġp aj
4 x4
read ersĠ
,Ġvf( 30-35
sĠc om
b ling
Ġwedding ĠbandĠ
Ġr alph
,Ġ adjustableĠ
oc t
l. a.
tĠd ress
Ġ4 l
b ak
Ġw is
lid eĠsandal
eĠf abric
under stand
j un
a e
tĠw alking
1 m
/ women
gen eration
inn erĠ
Ġw ifi
ĠheavyĠdut y
eĠf riend
yĠt rain
s d
,Ġ10 .5
316 Ġa4
ation ĠandĠ
sĠc olour
ingĠp ool
1 .
9- 10
Ġwater ĠshoesĠ
Ġlex usĠ
Ġtra y
Ġd ic
franc eĠ-
Ġfor es
enn ig
Ġs 2
sec re
fron tĠb
let t
Ġplated Ġsteel
grind stor
38 mm
eĠc ushion
Ġsweat erĠ
ec tion
ox id
tv ĠremoteĠcontrolĠfor
eĠt ea
s upp
et ry
esĠfor Ġmen
Ġwind screen
z yĠd
an yĠ
Ġw itch
eĠc ollar
ĠpantsĠ -
Ġ- Ġt
re buildĠ
hu sh
sĠsp ort
Ġlif eĠ
j ew
Ġair tag
is erĠ
li vingĠroom
hou ett
99 1
Ġ199 3
Ġj u
tĠwall ĠmuralĠwallpaperĠ
bo atĠ
Ġl n
mar in
Ġphil osoph
Ġj azz
edĠprin tĠ12x16Ġinch
Ġmedium Ġdog
crank ĠangleĠsensor
roll erĠ
Ġ316 l
Ġb asketĠ
eĠsw im
t-shir tĠ
ic an
et ton
Ġstra ight
op tion
Ġcarbon Ġsteel
sĠ 25
13 6
Ġl .
Ġallo yĠ
naughtyĠmonkey Ġwomen'sĠ
v ac
Ġbutton ĠheadĠsocketĠ
Ġv est
lac eĠ
ĠwallĠartĠ# 2Ġ-
bon dĠ
Ġ ~
sĠb ag
3 70
sĠin fant
prin ces
Ġf oo
ang ledĠ
Ġ20 mm
Ġmon ster
ann ing
st a
gpr ĠexhaustĠhom
eĠm in
Ġ- Ġa
Ġt umb
id ay
Ġ+Ġsid eĠcas
Ġp as
k ill
oto Ġg
Ġmotor ol
14 8
Ġsize: Ġ6
h orn
Ġp ear
z el
iesĠ -
w ax
Ġstor ies
uz u
we ater
Ã ¨
stru c
ĠaccessoriesĠ for
Ġpick up
n ip
eĠs leeveĠ
Ġ- Ġh
ro up
th ew
eĠt ur
ultr al
Ġblu eĠsize:
tim ingĠbel
Ġan tenn
m ir
( 3
Ġ4Ġ3Ġ2 Ġ1
Ġ3 mm
Ġmnh Ġmf
irthdayĠpart yĠdecoration
Ġback drop
eĠs lipĠon
tra s
qtyĠ 400
.6 l
op ro
Ġro ber
Ġg ran
rober tĠ
eĠp ouch
/ 13
Ġf lut
f iberĠ
/ 22
larg e)
Ġ1 100
tĠb ra
ril eĠ
ĠfrontĠb raid
b ill
eĠs m
dark Ġgrey
eĠwomen s/ladiesĠ
l m
30 cm
plain Ġblack
accessor y
adul t
Ġsmall Ġto
k ustom
Ġ12 g
sĠd isp
s ocial
Ġfre eĠ
tom myĠh
pro jec
umb ersĠ
eĠm agnetic
Ġ( red)
lightĠ up
ort ex
eĠp ower
Ġwin dĠ
3dĠ flowersĠ
Ġeas yĠto
tommyĠh ilfig
Ġch ees
Ġital ian
eĠblu eĠ
sĠf la
eĠt v
Ġcapsu les
/ king
Ġb rid
Ġsteel Ġto
Ġswarovski Ġcrystal
rep ublic
edĠ black
sid eĠ
lad i
Ġp urpos
Ġd em
ag ementĠb
Ġc f
Ġfe et
ĠmadeĠin Ġbrazil
su re
Ġp aul
eĠg ear
,Ġ volum
yĠw illiam
in forc
Ġwomen âĢĻ
Ġmatt ressĠ
Ġ5 9
Ġf irstĠwalk
Ġb ug
Ġsoft shell
yĠs andal
sĠb yĠd
20 7
Ġsym bol
Ġmatt eĠblack
Ġset ,
-sil verĠ
ĠtheĠ usa
ami ya
Ġvari ou
sĠg enuineĠ
Ġchain saw
Ġm ust
Ġexp ansion
k er
post erĠ
spec tiv
tw ist
ĠwallĠar tĠ
en sĠ
3dĠ moon
nav yĠblue)
acqu ardĠ
(whit e/
yĠp aul
eĠm at
om asĠ
eĠhex ĠsetĠscrew
girl 'sĠ
leyĠ davidson
Ġzeal andĠ
- green
mmĠ long
Ġgalvan ised
mak ingĠwatch
sey chelle
Ġ-ĠmultiĠ- ĠoneĠsize
- resistantĠ
t ungsten
Ġmodel s
l t
ĠhomeĠ offic
Ġsens itiveĠ
Ġv ehic
ĠsocketĠcap Ġscrew
Ġconc eal
ik o
42mmĠ 44mm
le yĠf
v f
ble m
eĠw inter
- 23
Ġdisp osableĠ
s. oliver
5 10
ligh tĠp
ingĠc ableĠ
Ġnecklac eĠfor
r yĠd
b ottleĠ
,Ġn umeric_
eĠst and
valle jo
raf tsĠ
Ġbag sĠ
ĠandĠs aasĠbossĠkitĠfor
e ightĠ
tĠw rap
Ġgam e
Ġshap eĠ
ti eĠdy
yĠm ini
Ġsof tĠc
u lum
f oli
irthdayĠpart yĠbannerĠbackdrop
ac ob
eĠh old
is mo
th ous
Ġg tĠ
0 10
eĠs uper
Ġp ulloverĠ
Ġn it
ar yĠb
Ġlarg eĠdog
or eĠ
as onic
Ġwh isk
Ġp g
tĠ9x7 Ġinch
,Ġt aup
2 70
bo b
yĠ di
Ġsw ordĠ
Ġa 7
erc edĠ
dis cover
Ġo verĠ
Ġh en
advent ureĠ
li ver
ka Ġdo
pearl Ġiz
yĠg oldĠ
Ġpro fil
you' reĠ
- ear
om o
qu ad
aluminumĠ allo
Ġd ir
iron Ġon
h alo
t umbler
sĠ- Ġpaperback
b adg
ĠpetĠ dog
edg eĠ
3dĠfor estĠ
ĠwallĠstickersĠ vinyl
p ouch
Ġexc lusiveĠ
Ġ30 ml
Ġ12 "
Ġb k
Ġv arious
. Ġ(
Ġex chang
eĠ ar
Ġrunning Ġshoe,
- 60
eu rop
ha ust
yj ama
ry ing
i eĠb
Ġg or
res c
Ġboot ,Ġblack,Ġ
Ġbush ing
ood leĠ
ĠwallĠartĠ# 1Ġ-
can on
Ġc in
Ġ ignitionĠcoil
h awk
ĠstandĠ for
Ġop tim
Ġw iredĠ
bandĠ for
pack )
proĠbrakingĠp bk
il ling
ĠfrontĠ+ ĠrearĠbrakeĠdisc
Ġfl ar
Ġ- Ġ7
/ 35
inclu ding
14 g
e,Ġ 5
n elli
ira ff
hear t
lightĠb lock
ĠshockĠabsor b
luxur yĠ
yĠch arg
1 Ġx
Ġ- Ġ#
Ġtrous ersĠ
Ġsamsung Ġs
v max
ag eĠof
mil k
Ġpc s)
Ġfl or
knit ting
eĠ oil
Ġre vers
eĠsil verĠ
lee v
ingĠ lure
Ġj es
/ silver
Ġch alleng
el ang
e quin
and o
Ġsp ic
Ġre moval
Ġglo bal
Ġt issu
eĠb yĠd
8 50
ĠhondaĠc b
Ġmother 'sĠ
er formanc
Ġplu sĠcas
ad is
oc rac
r x
eĠb as
esĠ m
/ 80
veĠ b
Ġ1 .0
cou rag
Ġv 2
s chool
Ġclean ing
sĠ ar
iesĠ for
( 4
f ranco
e igh
Ġco bal
re duc
d ock
e ap
for k
ridg eĠ
auto Ġ&Ġmanual
p ion
pol oĠshir
c lub
g lov
ĠanimalĠwallpaperĠmural Ġself-adhesiveĠremovableĠamy
Ġm tb
Ġanti -scratch
h ot
Ġf p
30 7
Ġquick Ġdry
bo ho
Ġseatbel tĠbuckleĠ
sĠ+ ĠbrakeĠpad
eĠ you
ĠwhiteĠstamp edĠaluminumĠstreetĠsignĠmancave)
Ġa z
glo b
if terĠ
Ġto Ġm
ingĠp ad
Ġbatter y
n el
an Ġawesom
yĠg ra
yĠ 4
bon d
Ġap ron
e,Ġ 6
Ġre mover
s :Ġa
ligh tĠpink
back pack
eĠw rap
Ġp each
Ġspeak er
tĠb and
eĠm att
15 9
Ġbro och
w if
ap h
en es
eĠst udĠ
Ġf u
6 60
w n
Ġ ot
eĠgradeĠ 8
eĠcon troll
ben dix
in ea
sĠg lob
giviĠcaseĠtrekk erĠblack
Ġs apphir
f olio
20 )
yellow /
air tag
or igin
eĠc z
kustom ĠkitĠ
ol y
f e
a ustri
eĠc eramic
- am
Ġm aj
Ġrec ei
sĠb yĠs
Ġbl end
t ek
ĠsizesĠs- 5xl
r b
Ġpart yĠfavor
eĠ al
Ġri verĠ
l s
b eyondĠ
Ġboot ,
9 h
yĠf low
17 1
row aveĠ
il og
Ġadul t
p encil
d angleĠ
Ġ- Ġwhite
w g
Ġchoos eĠyour
,Ġ grey,Ġ
yĠboy sĠgirl
ch oos
ĠmarineĠg rad
- Ġmulti
quiltĠ coverĠ
ab ri
tĠf oot
wheel Ġbearing
it e
c v
women s/ladiesĠ
f ood
eĠsp ir
Ġskate boardĠ
pc s/
itan iumĠ
tĠh air
slottedĠ vmax
c lass
amil ton
trans f
int eg
Ġ- Ġpink
Ġn gk
aer os
ara Ġwomen'sĠ
Ġstrap p
o sĠ
th al
Ġpf ennig
er as
ĠmatteĠpaperĠprint,ĠwhiteĠfram e-a
Ġch akra
Ġsnow flak
- metal
ĠdangleĠ earring
eĠs kin
Ġcharg er
c ord
Ġl anguag
j unior
Ġscener yĠ
g ent
aro undĠ
v ia
eas yĠ
divid ual
( 1
ĠsamsungĠgalaxyĠs 20
- 80
u e
hol low
Ġth atĠ
eĠs ystem
id ent
ĠgunĠmet -m
eĠt pu
n. y.
sĠf ac
13 1
Ġstrip edĠ
ad e
ed en
j umper
Ġn oseĠring
Ġt d
loaf ersĠ
20 -25
Ġtyp eĠc
b in
rabb it
leather ĠmadeĠinĠbrazil
Ġ5 1
ĠwallĠpaperĠwallĠprintĠdecalĠwallĠdecoĠindoor ĠajĠwallĠpaper
Ġcool er
eĠst ud
, Ġst
eĠm irror
tĠg oldĠ
men tĠfor
rep ell
essenger Ġbag
8 gb
m yĠf
Ġ18 "
eĠcas eĠtype:
Ġconcep tsĠ
high Ġtensil
Ġhandle bar
mm)ĠmetricĠcoars eĠbol
envelop esĠ
sĠst and
bella Ġvita
col n
eĠj ean
Ġread ing
36 5
Ġv egan
con tin
Ġf astĠ
Ġexp and
Ġhos e
arn etĠ
ist ry
Ġlo vel
ĠbusinessĠwallpaperĠwallĠmuralĠself-adhesiveĠcommerceĠ amy
Ġt own
yĠw ash
Ġb ou
Ġfaux Ġfur
libr ary
Ġa sĠ
Ġra dio
n g
12 mm
Ġsiz es
Ġar tĠd
th isĠ
b ristol
Ġd un
25 00
Ġsn orkel
ook Ġof
t arg
ab outĠ
yĠph oto
- 27
ĠallanĠp.Ġfriedland er
ey ek
ĠtheĠw orld
Ġpal m
8 mmĠ
th ong
iphoneĠ 11
ĠsizeĠ 7
Ġf x
Ġnav yĠblue
Ġddr 4
Ġr ingĠb
Ġblo om
ev eledĠ
,Ġau( 50-53
a idĠ
eĠsw itch
d riverĠ
u sĠc
leg end
ac adem
al let
advent ur
Ġass emb
Ġmo therĠ
ik eĠ
),Ġ 3
Ġj ourne
looking ĠatĠ
lo tion
Ġth ankĠyou
Ġdisc ĠbrakeĠrotor
7.5 ĠmĠus
Ġv esp
als eĠnail
f as
eth ernetĠ
)Ġ( 3xl)
as ia
12 )
yĠt im
blueĠ appleĠ
tr um
iz edĠc
Ġb es
sĠ 16
Ġh ypoallergenic
h ib
"Ġ eĠbrakeĠtrimĠ
Ġe leg
Ġbump erĠ
th orn
app liqu
l akeĠ
weigh tĠ
h ip
2 xl
Ġr u
lim itedĠedition
p ast
eĠ 12.9
Ġ5 7
( m
ef ootĠ
erĠb ar
ĠsetĠ db
erĠb all
sĠw ash
,Ġc ut
ĠwallĠmuralsĠwallpaperĠmural sĠself-adhesiveĠvinyl,ĠxlĠ208cmĠxĠ146cmĠ(wxh)(82''x58'')
eĠtex tur
Ġn ational
d an
Ġm 14
ac p
Ġblank et
Ġ ess
erĠb ead
ed uardĠ
[# 7
Ġhood edĠsweatshir
d h
sw ear
out fitĠ
Ġunc ĠxĠ1
fiel d
Ġfram eĠ
b yĠm
n.y. l.a.
c dĠ
Ġco d
l f
sĠwall paperĠ
p ep
Ġz hu
ĠwallĠmuralsĠwallpaperĠmuralsĠwovenĠpaperĠ(needĠglue),Ġxx xxlĠ520cmĠxĠ290cmĠ(wxh)(205''x114'')
ĠxĠ1 5
diamet er
ry Ġbag
30 6
idgetĠ toy
3Ġm4Ġm 5
,Ġco gnac
andĠ rear
acerbisĠ 00
Ġg i
blu-ray ]
Ġh oodĠ
t 2
Ġxl r
ific ation
Ġm itchell
su ed
lip s
eĠhex Ġbolt
Ġ3 20
Ġh al
inn ov
quiltĠ duvetĠcover
Ġring sĠ
198 3
ing :
plu sĠsiz
3dĠsun setĠ
a 1
d eer
ĠwallĠmuralsĠwallpaperĠmuralsĠself-adhesiveĠvinyl,Ġxx xxlĠ520cmĠxĠ290cmĠ(wxh)(205''x114'')
/ 14
eavyĠdut y
aff leĠ
9.5 ĠmĠus
Ġcosp lay
d etail
Ġt ext
,Ġ 22
Ġt &eĠtool
Ġp ortĠ
m ur
blu eĠb
,Ġau(55-58 )
Ġo em
wallĠar tĠ#
gh ost
e,Ġ 11
Ġcolor edĠ
Ġb (m)Ġus
Ġx xl
Ġjo intĠ
c oldĠ
Ġg ogg
sh ak
rew Ġneck
ĠwallĠmuralsĠwallpaperĠmuralsĠself-adhesiveĠvinyl,Ġxx lĠ312cmĠxĠ219cmĠ(wxh)(123''x87'')
sĠg am
Ġm it
ay a
cas ion
Ġfunn yĠnovel
dark Ġbrown
Ġsock sĠ
erĠh os
co cktail
x 55
16 4
st an
Ġhard war
p okemon
u vetĠ
Ġqu attro
ĠwallĠmuralsĠwallpaperĠmuralsĠwovenĠpaperĠ(needĠglue),Ġxx lĠ312cmĠxĠ219cmĠ(wxh)(123''x87'')
aw ay
p iano
co co
Ġstarter Ġmotor
od yĠ
ru stic
sĠof Ġben
aux Ġfur
ost um
Ġcre atedĠ
Ġstar Ġwar
"Ġ eĠbrakeĠcableĠtrimĠ
Ġ3 d
ey eĠ
hel metĠ
an ion
ĠgmĠoriginalĠequip mentĠ
eĠsocketĠheadĠcapĠscrew Ġallen
er ator
3dĠ abstrac
buckle-down ĠplasticĠclipĠcollar
ĠiphoneĠ xr
Ġ( m)
gif tsĠ
ax leĠbrakeĠdisc
Ġ1/ 10
Ġx -wide
re versibleĠ
Ġsign atur
up erĠ
Ġ19 88
os a
g aug
n n
comp atibleĠfor
al van
lin edĠ
ersĠ byĠ
wallĠartĠ16x16 Ġin
Ġmulticolor ĠrugĠ(80
Ġ199 2
4Ġm 5Ġm
yĠc up
le yĠb
18 8
gress iveĠ
Ġswim suitĠ
e ight
Ġfor Ġhom
- sterling
Ġfram edĠcanvasĠ/
Ġb ul
tĠm ulti
Ġstick ers
bleĠc anvasĠwallĠartĠpictureĠprint
1 /8
tri angleĠ
14" Ġadr
g room
Ġa quarium
adidasĠ original
b alloon
Ġh f
3 25
Ġpump kin
3dĠbedĠpillowcasesĠqu iltĠ
Ġwh atĠ
erĠh air
sĠm on
ikingĠb oot
n gk
grey ,
Ġg lass
2Ġpack )
seychelle sĠwomen'sĠ
Ġstor e
Ġs ax
a Ġw
ew ork
lookingĠatĠ anĠawesom
ĠfeetĠ long
d at
Ġ- Ġc
.7 "
k -
Ġlink Ġchain
Ġx Ġ24
Ġp ajama
,Ġ 36
Ġpol itic
eas ure
[# 5
il ion
sĠwater ĠshoesĠ
ĠwallĠmuralsĠwallpaperĠmural sĠwovenĠpaperĠ(needĠglue),ĠxlĠ208cmĠxĠ146cmĠ(wxh)(82''x58'')
Ġligh ting
Ġp eel
Ġhel metĠ
/32 "
12 "
erĠ jacketĠ
ĠreplacementĠ for
eĠf rontĠ
ipp leĠ
3dĠ m
eĠc able
ath ena
Ġd .
alloyĠwheelĠmsw Ġ7
,Ġ7 .5Ġuk
Ġwash erĠ
Ġgro up
Ġ19 86
mel on
Ġv ent
ĠsizeĠ 6
sĠsof t
ĠmatĠ for
unit edĠcolor
sĠ kit
Ġo ct
Ġsec tion
arrowĠhom ĠnocatĠ
eb c
eĠsiz eĠ
sĠofĠben etton
b ut
Ġsol ution
unitedĠcolor sĠofĠbenetton
Ġhapp ines
rink leĠ
Ġd ata
imon o
outĠ of
ĠiphoneĠ11 ĠproĠmax
Ġkey ring
arch itec
ust in
Ġlicens eĠplat
Ġ19 80
eĠla undry
sĠb each
-th in
out wear
startech .com
intro ductionĠto
draw string
ĠwallĠmuralsĠwallpaperĠmuralsĠself-adhesiveĠvinyl,Ġxx xlĠ416cmĠxĠ254cmĠ(wxh)(164''x100'')
ep tion
Ġpaj ero
Ġmonth s)
all ion
Ġdog Ġleash
Ġ1 .3
Ġlin edĠ
Ġam eth
Ġblu e-
Ġs dĠ
eĠh andĠ
quis it
ft )
. Ġa
8.5 ĠmĠus
Ġf ootĠ
Ġplu sĠsiz
Ġf at
s ]
oo ting
ust radeĠ
sĠp lat
hush ĠpuppiesĠ
Ġven et
- off
/ 18
ch urch
m omet
en to
latex Ġballoon
tĠm icro
m 4
edĠb yĠ
Ġm otocrossĠ
Ġbro ther
Ġver tical
Ġclo ud
Ġre versibleĠ
eĠs amsung
w agon
x 42
Ġta up
Ġheav y
Ġfit ted
Ġemb oss
Ġsp ain
Ġper fum
Ġtra d
tĠd river
-s kidĠ
eternityĠ ring
Ġfir stĠ
isedĠb irthdayĠpartyĠbannerĠbackdrop
198 1
fold ableĠ
Ġm y
Ġ raw
sĠt ruck
Ġ( f
Ġ17 Ġinch
ĠsizeĠ 8
b eautiful
eĠh a
re volution
Ġ8 8
eĠbracele tĠ
Ġsn ack
Ġcomfor tĠ
sh elf
ra is
is ch
ung eon
ation s
Ġ(3 Ġpieces)
cool antĠ
paper Ġmural
rec iou
s umm
atĠb ritain
Ġfront /
Ġstorag eĠb
erĠh older
ir ch
Ġd ot
Ġwomen'sĠ p
Ġsued eĠ
eĠm ak
ĠandĠgirl s
t eal
ĠsizeĠ 5
tĠc olour
Ġt ir
eĠm icro
endĠ cap
hol ster
ag at
Ġsupp ly
ed ral
eĠt e
Ġcover ag
,Ġ6 .5Ġuk
p ractic
Ġf ab
draw ing
wall ĠstickerĠws-
Ġbaby Ġshower
ul leĠ
sĠ [
eĠ ii
Ġ etern
Ġgif ts
Ġ rip
em il
s ingleĠ
] Ġgerman
brak eĠdisc
st raw
degrad ableĠ
Ġ( 2.5
z n
headlightĠbulb sĠglob
"ĠeĠbrakeĠcableĠclamp ĠtrimĠ
4 10
b edĠ
Ġx Ġ60
s weat
mer rell
offic iallyĠlicens
Ġe .
Ġ199 1
illustr atedĠ
9 ĠmĠus
,Ġ 32
Ġg loveĠ
zinc Ġplated
lo f
eyeg lassesĠ
yĠt op
Ġshaf tĠ
in ess
Ġto Ġ-
tr on
Ġg at
headlightĠbulbsĠglob esĠh
Ġ adhesiv
no is
Ġfly Ġscreen
s,Ġ 2
ornam entĠ
ismĠ andĠ
Ġsp a
Ġ1 35
valentinesĠ day
ĠfullĠsystemĠexhaustĠ hom
Ġno .
Ġkn itting
assort edĠ
Ġlo b
u sĠs
Ġp rep
yp s
ingĠw alking
w rench
m it
m eĠ
50 )
quiltĠcoverĠ quiltĠduvetĠcover
ech nolog
umm yĠcontrol
et allic
Ġwrang lerĠ
ĠtransportĠwall paperĠmural
Ġab outĠ
yĠg am
sĠcolor ful
Ġ( pink
Ġyellow Ġstamp
- Ġpink
( s)
Ġf unc
,ĠwhiteĠfram e-a
children 'sĠ
inch )
Ġmonth sĠinfant
# 1
Ġ6 9
h i-
t rim
( 5
Ġ5 Ġ6
ax i
conu tĠtre
and Ġs
m 6Ġ(6
tĠb ar
Ġli ving
ĠwallĠmuralsĠwallpaperĠmuralsĠwovenĠpaperĠ(needĠglue),Ġxx xlĠ416cmĠxĠ254cmĠ(wxh)(164''x100'')
uzz le
Ġeng agementĠ
14k ĠyellowĠgoldĠ
eĠfil ter
bor g
tu red
t Ġset
et ition
le on
ar yĠt
j es
lank et
proĠbrakingĠp br
Ġv estĠ
ret urn
,Ġ 17
app yĠ
15 4
Ġ3 -
Ġp riv
Ġc en
ĠboltĠ allen
eĠs eal
forĠh olden
udd ha
eĠs atin
y z
Ġo -ring
rack et
ros of
ys ical
Ġi mm
ec ut
Ġcon fetti
,Ġf ull
beach Ġtowel
Ġut ensil
Ġpair sĠ
yĠh alloween
asic sĠmen'sĠ
t ension
Ġr 1
nex tĠ
gal van
eĠb oot
Ġwash ersĠ
Ġfa ith
-0 5
ex ternal
sy cho
/16 ")
Ġwith Ġa
tĠ 4
p e
Ġ2010Ġ10 Ġ2011Ġ11
ĠforĠbmw ĠserieĠ
0 39;
f -
n d
Ġchrys lerĠ
Ġpo em
Ġre lation
am scan
vit amin
y t
ĠwallĠmural Ġphoto
3 .6
eĠp lu
imp ac
Ġp icnic
erced esĠ
m df
ingĠb owl
ew ing
anth em
Ġ19 89
Ġ- Ġfor
s ar
ĠstampĠyvertĠ/Ġt ellierĠnÂ°
eĠst er
eam lessĠ
ĠwallĠmuralĠphoto ĠwallĠstickerĠdecal
ĠwallĠmuralĠphotoĠwallĠstickerĠdecal Ġwall
quick -d
Ġback ground
Ġ- Ġj
3 /8
rizom aĠb
st ream
Ġw .
ĠyearsĠ oldĠ
y Ġtoy
ĠiphoneĠ 6
ed ical
ĠautomotiveĠ touchĠupĠpaintĠ|
geox Ġwomen'sĠ
20 8
ro och
Ġd us
Ġarti ficial
Ġp ureĠ
w ich
ing o
ing s
ĠshortsĠ (
m dfĠpainting
ov a
evil Ġey
Ġsof tĠb
Ġall enĠp
Ġm12 Ġ(12
ĠstudĠearring sĠforĠwomen
arto cors
Ġcho ic
Ġsh owerĠ
erĠd olomitiĠdlm
t-shir t
Ġd yn
Ġt t
Ġplat edĠm
c ub
includ ed
christma sĠtre
s el
j aw
Ġx Ġ9
Ġs ierra
Ġm yster
attack Ġon
reli gion
f rank
du ro
kid s
ib b
sc ienc
h oney
10 50
eĠc os
k al
Ġb eani
eĠh oopĠearring
eco -friend
quil tedĠ
Ġbraid edĠ
transpar ent
es ,Ġp
iz za
w ild
h eatĠ
Ġm s
ex ico
Ġboy s'
ĠdressĠ in
j eweller
tĠf low
queen /king
igab itĠ
Ġfor Ġc
rug ĠnonĠslipĠrugĠmat,Ġ
& dĠ
ĠboysĠandĠ girl
al c
Ġbo hemian
sĠst ock
g lassĠ
v ib
eĠst at
eĠbal anc
h Ã¶
6 g
le ans
out er
Ġwomen'sĠ c
Ġun coatedĠ
Ġsamsung Ġa
Ġwork outĠ
/ 00
Ġg room
9 Ġuk
ou tĠg
oc can
al way
in Ġa
esk top
Ġstainless-steel Ġna
Ġf el
ju ic
Ġl ur
lo ss
skechersĠ men'sĠ
ĠmuralsĠwallĠprintĠdecal ĠwallĠdecoĠaj
Ã ¢
Ġ ,
ir st
sĠg arden
key ring
Ġhigh Ġheel
- 90
eĠp lay
/ 90
k on
ch ina
ri a
Ġquick Ġreleas
Ġhistor yĠof
ho bb
Ġ1/ 35
Ġ2012Ġ12 Ġ2013Ġ13
eĠw oodĠ
Ġmicro phon
Ġobl Ġ(a
ingĠc rystal
an ton
Ġ.42mmĠbm tĠtopsideĠcolour
Ġp unch
etc .
sĠ+Ġpad sĠsetĠfor
eĠp et
fil m
ĠsetĠ quiltĠcoverĠquiltĠduvetĠcover
Ġin ĠtheĠdark
4 70
eĠh ors
un terĠ
i fornia
/ pink
sĠs eriesĠ
Ġ arg
ra b
- rayĠ
is o
Ġexp lor
tĠf ull
t rip
Ġmus cleĠ
accessoriesĠ for
p os
Ġshoes (
im ulatedĠ
Ġb t
d x
k ia
driveĠ bel
Ġsid eĠcas
prop Ã©
ĠssĠ 304Ġa2
Ġwater color
mad eĠin
f y
op tical
/ 60
liqu id
navy )
Ġzinc Ġyellow
Ġt app
,Ġ1 10
Ġsk ateĠsho
yĠs un
tra ditional
Ġun ivers
Ġbirthda yĠ
Ġp li
natural izer
p g
Ġv ir
20 mmĠ
Ġadvent ur
Ġspring Ġhing
on c
b Ġ+
Ġlu ggag
is ol
c )
mo da
ingĠp an
Ġep son
Ġ4 .2
Ġr wdĠ
Ġb itĠ
Ġwatch Ġband
replac ementĠb
tĠhandĠ engineĠmount
tĠp in
Ġcel tic
erĠ |
a ist
iz en
Ġmen sĠc
Ġn Ġus
blueĠappleĠ co.
Ġto ĠtheĠ
ĠnonĠslipĠrugĠmat,Ġ 140cmx200cmĠ(55.1"x78.8")
sĠa 2
hard war
Ġsp o
re us
/whit e)Ġ(
f emal
Ġ2017 Ġ2018
Ġcosp la
to ddl
Ġb ooth
eas tĠ
ies )
plainĠblack ĠuncoatedĠ
Ġsp rin
eal ed
lov e
eĠs and
st udio
im i
mm Ġwidth
,ĠxlĠ208cmĠxĠ146 cmĠ(hxw)(
n p
, Ġsize:
av ia
ĠbchwĠwallĠmuralsĠwallpaperĠmuralsĠwovenĠpaperĠ(needĠglue),Ġxx xxlĠ520cmĠxĠ290cmĠ(wxh)(205''x114'')
ens iveĠ
di rec
lif eĠof
3dĠcolor edĠ
Ġ2019Ġ19 Ġ2020Ġ20
eĠshock proof
iv v
it ter
Ġc tĠ
ic s
Ġgar landĠ
Ġmen sĠs
al bum
Ġof Ġa
eĠbrakeĠcableĠc lamp
repair Ġkit
Ġlany ard
6 Ġpack
Ġchrom eĠ
e qu
sĠ long
55 5
is ne
: Ġb
s atin
6.5 ĠmĠus
o .
Ġg ood
eĠ unisex
car ri
phil osoph
Ġwomen sĠc
sted man
00 7
Ġclub Ġusa
Ġspark ling
elegantĠ photoĠcarpetĠ
aly tic
in to
Ġw ip
Ġvan Ġdamm
st udĠ
Ġh arnessĠ
driver ĠclubĠusa
ladi ator
a Ġn
emo ir
con ver
3 "
Ġ( l)
b q
Ġfull Ġbody
15 "
eĠ 18
Ġcraf tsĠ
p p
g ri
Ġar c
ĠbchwĠwallĠmuralsĠwallpaperĠmuralsĠself-adhesiveĠvinyl,Ġxx xxlĠ520cmĠxĠ290cmĠ(wxh)(205''x114'')
Ġis landĠ
eth nic
Ġh orizontal
ĠandĠ m
Ġw et
ill er
ĠsolidĠ goldĠ
,Ġ i
Ġx t
,Ġxx l
Ġwallpaper peĠ
attackĠon Ġtitan
eĠf lag
art il
oop erĠ
car b
u zuki
sĠfor ĠjewelryĠmaking
erĠd ressĠ
Ġsand ingĠdisc
re as
l r
rens/ kidsĠ
Ġre tain
Ġfe ather
14 2
andel ion
Ġs tĠ
ch ip
Ġar tsĠ
ith ium
il leĠ
Ġ( 24
air pod
Ġcho col
16 1
eĠs afet
am ent
sinteredĠbrakeĠpad sĠfrontĠl
Ġpro jector
Ġr b
tr w
Ġc anvasĠwallĠartĠpictureĠprintĠva
1/ 35
l yĠc
ang ling
new *
tro tter
ĠbchwĠwallĠmuralsĠwallpaperĠmuralsĠself-adhesiveĠvinyl,Ġxx xlĠ416cmĠxĠ254cmĠ(wxh)(164''x100'')
3 cm
lit tle
tĠcas eĠfor
3 /4"
ri der
ibr ation
,Ġunc( 65-70)
rubberĠ o-ring
boy sĠgirl
Ġbody con
Ġin Ġa
Ġpar allel
erĠ 4
ĠnonĠslipĠrugĠmat,Ġ 60cmx90cmĠ(23.6"x35.4")
desk top
is land
sec tion
Ġhood edĠ
Ġach ĠwallĠmuralsĠself-adhesiveĠvinyl,ĠxlĠ208cmĠxĠ146cmĠ(wxh)(82''x58'')
est iveĠ
e, Ġs
sĠb racele
flow erĠb
os sil
Ġralph Ġlauren
16 7
Ġ199 9-
y ak
Ġmagn etĠ
sĠw indow
ĠnonĠslipĠrugĠmat,Ġ 120cmx180cmĠ(47.2"x70.9")
,Ġvf(30-35 )
w ais
ĠsamsungĠgalaxyĠs 10
Ġrear ĠbrakeĠcaliper
Ġt ripleĠ
lil ac
Ġsize: Ġ8
Ġbedding ĠquiltĠcoverĠsetĠbeddingĠsetĠpillowcasesĠ3dĠduvetĠcover
Ġcol lector
cors air
ar e
Ġcomp ac
Ġch erry
ug e
al an
ĠbchwĠwallĠmuralsĠwallpaperĠmuralsĠwovenĠpaperĠ(needĠglue),Ġxx lĠ312cmĠxĠ219cmĠ(wxh)(123''x87'')
Ġp il
Ġcross bod
eĠg rip
eĠj igsawĠpuzz
ph i
c argo
Ġsock s
30 3
lc dĠ
.6 "
ĠtheĠs ea
u y
( red)
ĠbchwĠwallĠmuralsĠwallpaperĠmuralsĠwovenĠpaperĠ(needĠglue),Ġxx xlĠ416cmĠxĠ254cmĠ(wxh)(164''x100'')
to kyo
sĠs olidĠ
bonamaisonĠdigitallyĠprintedĠmessengerĠschool ĠbagĠwith
m 5Ġ(5mm)Ġx
is i
key Ġchain
sĠn ail
ĠstrapĠfor Ġstudents,ĠcrossĠbodyĠbag,ĠcourierĠbag,ĠshoulderĠbagĠforĠchildren,Ġkids,Ġgirls,Ġboys,Ġsize:Ġ29x36Ġcm
Ġ200 ml
Ġoz .
p ath
upp yĠ
eĠb oo
Ġ& Ġm
ĠplainĠscrew ĠboltĠ
et ting
Ġsur ger
&# 039;
eĠ light
Ġ-Ġlarg eĠwindscreen
z p
Ġrabb itĠ
opp ersĠ
,ĠxlĠ208cmĠxĠ146cmĠ(hxw)( 82''x58'')
Ġblack Ġleather
Ġinclud esĠ
Ġ- Ġblue
ild rens/kid
sĠs er
Ġmm Ġsize
ro x
ĠachĠwallĠmuralsĠself-adhesiveĠvinyl,Ġxx lĠ312cmĠxĠ219cmĠ(wxh)(123''x87'')
ĠvehicleĠwallĠmural sĠwallpaperĠmural
00 00
r up
anc ial
Ġtr x
ĠbchwĠwallĠmuralsĠwallpaperĠmuralsĠself-adhesiveĠvinyl,Ġxx lĠ312cmĠxĠ219cmĠ(wxh)(123''x87'')
eĠri vetĠ
ag enĠp
Ġch urch
es .
e ign
ĠwallĠmural sĠwall
handle bar
ĠnonĠslipĠrugĠmat,Ġ 40cmx60cmĠ(15.7"x23.6")
iesĠ andĠ
Ġnecklac e
l ordĠ
hang ing
eĠwedding Ġring
in )
cmĠ(hxw)( 205''x114'')
it em
Ġs auc
Ġbirthda y
su Ġno
Ġcom mercial
end on
Ġros eĠ
prin t
iphoneĠ 13
Ġflow erĠb
lot t
kid sĠboy
avail ableĠ
Ġdoor ĠwallĠmuralĠphotoĠwallĠstickerĠdecalĠwall
sĠin ĠtheĠ
ol li
rak hi
ĠnonĠslipĠrugĠmat,Ġ 160cmx240cmĠ(63"x94.5")
-p urpos
c lar
rep artocors
all on
Ġwomen s
Ġv auxhall
, 12
Ġfish Ġtank
br and
Ġbr and
ou thern
Ġlap el
eĠs ocketĠsetĠscrew
aw l
Ġte eĠ
2 11
ing Ġchair
tĠ18 x24Ġin
stop tech
Ġre cover
ers :
Ġtr iton
15 3
eĠf la
sĠreplac ementĠ
ion ic
Ġnav yĠ-
eĠs id
ĠnonĠslipĠrugĠmat,Ġ 80cmx120cmĠ(31.4"x47.24")
ĠiphoneĠ12 Ġpro
erĠd ress
Ġpop !
Ġn ud
Ġra v
Ġb ung
ab et
Ġgar ag
Ġcolour sĠ
-13 6
fan tĠbab
sĠch arm
ĠankleĠ strap
16 8
eĠw h
udi esĠin
ledĠ turnĠsignal
ayĠ &
Ġach ĠwallĠmuralsĠwovenĠpaperĠ(needĠglue),ĠxlĠ208cmĠxĠ146cmĠ(wxh)(82''x58'')
m iss
Ġbmw Ġr
ow erĠb
n ology
,Ġ 180
eĠt rim
ram b
ara ok
Ġs arto
y h
Ġh alo
Ġj oy
eng rav
lĠ312cmĠxĠ219 cmĠ(hxw)(
Ġbod yĠpiercing
f uzz
s,Ġ green
il le
shir tĠ(
Ġ6 6
Ġout land
eĠ newĠyork
Ġpo intĠ
an od
Ġch icken
Ġwe ightĠ
Ġbr anch
Ġl amb
Ġcon tin
Ġ7 5mm
coun ter
ĠbchwĠwallĠmuralsĠwallpaperĠmural sĠself-adhesiveĠvinyl,ĠxlĠ208cmĠxĠ146cmĠ(wxh)(82''x58'')
w orth
eĠ- Ġpaperback
Ġmet erĠ
ĠachĠwallĠmuralsĠwovenĠpaperĠ(needĠglue),Ġxx xxlĠ520cmĠxĠ290cmĠ(wxh)(205''x114'')
erĠ- Ġblack
sw im
al ong
2 ĠpiecesĠ
Ġx v
eĠn urs
s ens
rand om
ĠssĠ 316Ġa4
tĠt e
Ġwomen sĠb
i Ġam
Ġpuzz leĠ
Ġr s
h ub
Ġv alle
Ġtw is
ĠdoubleĠ wall
lo odĠ
Ġpack ag
ĠsiliconeĠ rubber
ĠachĠwallĠmuralsĠself-adhesiveĠvinyl,Ġxx xlĠ416cmĠxĠ254cmĠ(wxh)(164''x100'')
Ġtool s
ex cel
oh em
14 9
Ġ2.4 l
Ġ3 .5mm
ort raitĠ
14 1
Ġchevro letĠ
Ġ8 v
rob in
e ez
tĠh ood
.9 25
Ã ¡
at tleĠ
Ġw i
l anguag
eĠf oodĠ
Ġmart in
ingĠw ork
Ġcyl inder
dolc eĠ&Ġg
you Ġar
ĠxĠ19 .7
Ġ19 85
Ġf oldĠ
en on
puma Ġmen'sĠ
iz edĠb
Ġspac ersĠ
4 mmĠ
Ġalph a
blo odĠ
Ġtim ing
stor yĠof
Ġc g
blu e)Ġ(
,Ġc rystal
he ather
Ġri ding
ru mĠ
alloyĠwheelĠmak Ġwolf
sĠw arm
Ġg eorg
Ġfor ĠktmĠ
,Ġ 38
th Ġedition
3dĠ cut
Ġstud entĠ
s oga
i sĠandĠ
Ġ1 300
Ġy og
ei ra
heatherĠ grey
sĠb mw
Ġ umbrella
le sh
tra d
ib an
16 9
m .
tĠ men
franco Ġsarto
6 x
Ġhall mark
ĠachĠwallĠmuralsĠself-adhesiveĠvinyl,Ġxx xxlĠ520cmĠxĠ290cmĠ(wxh)(205''x114'')
on t
xlĠ416cmĠxĠ254 cmĠ(hxw)(
Ġ- Ġhardback
Ġpowerflex Ġblack
sĠ afl
le sĠm
ber k
oilĠpainting ĠwallĠmuralĠwallpaperĠ
sĠfron tĠdisc
Ġcomp art
Ġholder Ġfor
li ff
st reet
eĠl abel
we etĠ
Ġec onomic
ec ondĠ
Ġfron tĠs
Ġchar acter
con struction
/3 /4
Ġarm or
Ġ1 1-
Ġ1/ 72
,Ġ 42
Ġri vet
yl en
-c las
Ġ illustration
yĠh eather
Ġacc ordĠ
mo verĠ
diff us
re cover
Ġhyd raulic
f eel
ĠwallĠpaperĠwallĠprintĠdecalĠwall ĠajĠwallĠpaper
art in
tĠt ail
sh ortsĠ
Ġh ot
t ele
af ric
tim eĠ
p ass
yĠgif t
or e
Ġh y
Ġd eer
ap ron
ir regular
Ġsize: Ġ10
li deĠ
2 "
2 ĠinĠ1
Ġp ray
Ġim ag
Ġsp i
Ġwide- fitsĠ
Ġintro ductionĠto
sĠp attern
d rap
dish washerĠsaf
disp lay
Ġ- Ġl
eĠw rist
5 Ġx
m f
Ġto Ġ2020
Ġvi olin
p endantĠnecklac
-shap edĠ
ut ureĠ
olog yĠandĠ
Ġstorag eĠcontain
eĠt able
n ation
Ġb reath
achelor ett
comp atibleĠ
ĠflowerĠ zhua
ĠforĠmerced esĠ
.8 l
60 cm(
Ġg asĠ
expand ableĠ
mmĠthick Ġ65mmĠcutback
sĠ cover
eĠc omb
ĠachĠwallĠmuralsĠwovenĠpaperĠ(needĠglue),Ġxx lĠ312cmĠxĠ219cmĠ(wxh)(123''x87'')
tĠp ip
b io
Ġgirl 'sĠ
Ġlow -topĠsneaker
tĠc an
eĠhexĠbolt Ġscrew
elev at
gian nelli
Ġbe am
Ġyear ĠoldĠ
jewelryĠ (
-p rin
sĠ jewelry
Ġpump ,
b ottom
Ġcarbon Ġfiber
a Ġ3
Ġirid ium
v ey
tĠ 8
w onder
ea ux
sĠcol lection
arg ar
eĠp lan
ĠxĠ19.7 '')Ġ(wxh)
Ġ6 8
p artsĠ
Ġj an
lĠ312cmĠxĠ219cmĠ(hxw)( 123''x87'')
if ocal
Ġs ain
Ġpla yĠ
Ġmer ino
s ing
ityĠb ook
ĠpackĠof Ġ2
,Ġ9 Ġuk
Ġfl ap
f iveĠ
Ã© n
40mmĠ 42mmĠ44mm
irth ston
eĠs ur
m ivv
ti ve
h f
littleĠ girl
erĠd esign
y Ġmen'sĠ
coup leĠ
Ġup grad
Ġ40 mm
rock portĠ
st all
,Ġvf( 20-25
ralph Ġlauren
Ġ( silver
mo th
Ġshif tĠ
pol yest
ĠbchwĠwallĠmuralsĠwallpaperĠmural sĠwovenĠpaperĠ(needĠglue),ĠxlĠ208cmĠxĠ146cmĠ(wxh)(82''x58'')
e ater
ingĠb all
Ġspring sĠ
ess ion
c row
eĠb yĠb
n ature
a Ġcon
all op
Ġimp re
ay ak
ĠachĠwallĠmuralsĠwovenĠpaperĠ(needĠglue),Ġxx xlĠ416cmĠxĠ254cmĠ(wxh)(164''x100'')
v ill
tĠ men'sĠ
erĠd isp
ur b
mar co
Ġ- Ġnew
37 5
yth ing
ingĠp lat
Ġd eĠ
d yn
x Ġ2
Ġdi ar
Ġtpi ĠuncĠimperialĠcoars
tsĠfor Ġmen
,Ġ unisex
so le
w p
Ġest ateĠ
ros s-
. Ġk
w u
i sĠm
Ġd ar
sĠf itĠ
eĠw /
,Ġ new
mmĠ n
w ish
and ra
Ġny loc
Ġlo u
Ġ0 .0
s- Ġblack
es -
Ġe b
Ġcard s
g il
eĠf lip
b oneĠ
( k
19 5
ep ad
wall Ġsticker
iv esĠ
sĠs un
Ġsqu eak
Ġan xiet
tĠg u
for Ġnissan
x 15
Ġ- Ġ9
mer maidĠ
Ġlo ve
er in
xlĠ416cmĠxĠ254cmĠ(hxw)( 164''x100'')
,Ġ in
Ġ8 7
cm*180 cmĠ+
utterfli esĠ
Ġt-shir tsĠ&
200 cm(
ĠtimingĠbeltĠp ulleyĠ
spec ial
Ġc yan
Ġwith ĠlidĠ
st ack
av ing
5 Ġpack
enti fic
Ġscrapbook ing
Ġjo int
1 Ġm
ep lat
Ġd ron
d uk
tĠfor Ġmen
Ġlad ies
Ġlu ck
sĠst ud
Ġg t
unitedĠcolorsĠofĠbenetton .
Ġf ieldĠ
sh ark
mous eĠpadĠ
,Ġ (
fit ting
r hinestoneĠ
lat ch
v ation
ĠartĠ aj
Ġt-shirtsĠ& Ġsingle
naut ica
le gendĠ
off ĠroadĠ
Ġ5 mm
emp or
tĠb yĠn
ĠwallĠstickersĠvinyl ĠmuralsĠwallĠprintĠdecal
Ġc ruis
x p
Ġr uch
im pro
ro ma
train er
k c
e,Ġ large
Ġgirl s,Ġ
4 60
ksw agenĠp
Ġ oliv
Ġg lar
Ġmulti functional
Ġlightweigh t
Ġmulti -function
Ġtrain er
d ear
erĠhand bag
c ab
old ableĠ
Ġco co
iesĠ in
ou tĠd
emper edĠglas
eĠm ap
4 Ġx
Ġre tractableĠ
ow d
1 mm
Ġnurs er
x 100
Ġeng landĠ
.25 "
co ck
17 6
]Ġfrance, Ġmedal
d ir
s tĠbirthda
Ġt b
eĠpetĠ productsĠ
elec trical
17 2
Ġplastic Ġmodel
sĠ 50
Ġ13 "
tĠw edding
hel la
forĠwomen Ġmen
op artsĠ
erĠ /
/ 45
75 ml
lo ssom
10 Ġuk
op ia
cyl ind
Ġsupp ortsĠ
Ġle ak
- Ġm
armor ĠbackĠcover
s Âł
Ġmo uld
Ġ2 .3
Ġsol di
Ġl tr
Ġcl ick
k lass
ra vel
j b
tĠf ootĠpeg
bug atti
Ġwall Ġdecal
Ġwater colour
80 mm
19 70
x-larg e)
Ġh em
ss landĠ
ickey Ġmous
Ġessential Ġoil
Ġreg ionĠ4
Ġtooth brush
end an
Ġend uro
i u
Ġyamaha Ġfz
anim eĠnonĠslipĠrugĠmat,Ġ
eĠs weatshir
Ġw ast
ra ma
er Ġwomen'sĠ
eĠin door
Ġsw itzer
yĠw ater
tĠb ush
artĠprin tĠb12x
Ġm ail
anti -f
att le
jec tion
Ġd evic
cm w(
ub lish
cut ting
Ġss dĠ
russ ian
eĠp o
p ot
yĠgif tĠ
Ġmen sĠb
Ġb anner
2.5 Ġ(2.5
Ġhol ida
et on
ti Ġwomen'sĠ
Ġv entĠ
z or
co astĠ
ingĠp art
Ġmus ical
)Ġ- Ġpc
personal isedĠ
Ġs la
ĠprotectiveĠ caseĠfor
e,Ġ 7
Ġmir r
16 2
Ġdog Ġdesign
Ġf s
ĠroundĠ animeĠnonĠslipĠrugĠmat,Ġ
yĠb ackdrop
z u
Ġ( for
sĠ no
Ġdri ving
Ġg lu
eg inner
Ġso le
en hanc
atern ityĠ
eĠh ol
eĠc lutch
sĠs quar
w an
yĠp et
Ġp eg
/0 6
s is
Ġmet er
Ġf uzz
on Ġa
toddlerĠ girl
reg nanc
ep son
ĠbyĠ jo
Ġgem stoneĠ
eĠst oneĠ
- ris
sĠf romĠ
abb ana
erĠ of
mel bourn
ingĠd ecoration
tĠcon trol
illu min
ro c
Ġsleep wear
eĠb irdĠ
awdi sĠj
yĠf re
eĠp endantĠnecklac
cm( 31.5
n.y.l.a. Ġwomen'sĠ
Ġb aking
sch warz
tĠm esh
yĠg rad
p urpos
sĠre usableĠ
25 6
Ġh yundai
fi re
Ġ199 8-
,Ġm ar
is a
4 "
tĠcardĠ holder
Ġso up
Ġup Ġto
Ġp erc
Ġset )
- link
ifoldĠ gasket
pol itical
ard o
sĠ #
50 5
Ġsize: Ġ7
( pink
ch alleng
zinc Ġyellow
sĠ&Ġpad s
Ġcd +
inn ing
yĠb yĠm
lan tern
est ic
j ess
co sp
ĠartĠaj Ġstore
Ġfor ĠpeugeotĠ
ot al
Ġfull Ġzip
design Ġwith
at ible
x- r
v g
Ġclos edĠto
15 1
Ġc a
Ġaf rican
theĠ new
eĠc ostum
sĠ ear
Ġf anc
ac lava
Ġspir itual
tempor aryĠ
fl ang
li tĠ
h il
raw string
eat ur
14 3
h ik
edition )
Ġ8 1
m idĠ
Ġed el
Ġcat 6
sĠ 100
eĠb icycleĠ
g io
Ġ1 18
gi raff
e,Ġ 19
otiv ational
.5 Ġinch
Ġvit amin
re leas
t el
Ġcyl inderĠ
Ġaut umn
ne ver
yellow ĠdogĠdesign
reg ion
low n
non- stick
Ġt ower
reser voir
tĠb rakeĠpad
Ġcool ing
cd ]
ling eri
sk ull
Ġ14 "
qu iltĠcoverĠsetĠ
ymm etric
pre -catĠ
a yĠbar
ĠsportsĠ bra
ol lo
yĠn ail
enn if
Ġsnow ĠbootsĠ
Ġbroken ĠwallĠmural
able ,
yĠp at
l /
f ireĠ
a -p
3 mĠ
Ġti eĠdy
-b rown
sĠc reativeĠ
Ġfuel Ġinjector
ry co
int el
e velop
Ġcartil ageĠ
man ag
Ġ( 0
2x ĠfrontĠ
,Ġ1 50
fre eĠ
c rop
eĠsh ifterĠ
Ġwork book
isĠ of
,Ġp art
trans form
ĠtieĠ rodĠ
Ġbar bell
Ġst eveĠ
Ġ19 84
sĠ 11
Ġg ian
eĠph oneĠ
swe etĠ
3d ros
y ĠtheĠ
mo stĠ
fa ith
tĠt ri
embroider edĠ
ĠbyĠm ichael
Ġchrom e
b evil
sĠb rown
b yĠj
3dĠprin tĠdecal
b mw
eĠcomp ut
al pin
lim it
sĠd in
Ġ- Ġk
25 3
,Ġ 200
4 30
ĠcableĠ for
tĠh arnes
op tic
Ġf g
greatĠ for
Ġw av
- endĠ
car f
Ġfe atherĠ
m ulticolor
Ġv inc
f ineĠ
m oto
Ġfac eĠ
hat su
, ĠtheĠ
tsĠ in
p ret
2 .
b ay
n k
p ris
Ġkey Ġchain
h ypoallergenic
Ġadvent ure
Ġ1 Ġpc
f ibr
fer enc
el ix
sĠ 24
Ġfuel Ġfilter
littleĠ kidĠ
Ġnew born
tĠt ension
Ġreplac emen
eĠsc reen
eĠw ooden
plat form
m 4Ġ(4mm)Ġx
id dleĠ
Ġbmw ĠserieĠ
Ġtour ing
tĠm inimal
Ġvis ibil
Ġwhit eĠp
Ġy a
tĠc lassic
- Ġpaperback
Ġc akeĠtopper
ed o
d '
eĠn ylon
ĠsingleĠ doubleĠ
,Ġblack Ġleather
arn ing
,Ġ hom
u sĠm
c ul
Ġ50 mm
yĠwedding Ġanniversar
temper edĠglas
Ġn intendoĠswitch
yĠsh owerĠ
artĠprin tĠ
urp ris
Ġmen sĠt
o at
Ġ4 Ġpack
Ġemb le
2 35
ĠautoĠ&Ġmanual Ġrear
sĠb yĠb
Ġd rillĠbitĠ
Ġd ub
Ġc ork
ch erry
n ina
mentĠ of
Ġcur veĠ
b usĠ
Ġsc i
tĠw rapp
Ġco .
d sportĠ
d ad
yĠc akeĠtopper
eĠwhit e
25 5
toddler/littleĠkid/bigĠkid )
Ġgasket ĠsetĠ
ab sol
17 7
aĠd ot
Ġdohc Ġ16v
l ann
ant a
it ech
to yĠ
re chargeableĠ
yb rid
ĠsizeĠ 9
k ish
tĠcomp atibleĠwith
tapping Ġscrew
23 6
Ġ( red
ros e
ma j
e, Ġb
urnit ure
hex ĠsetĠscrew
eĠin s
eĠhand mad
p on
7 20
eil ing
Ġcel lo
d ead
Ġth under
eĠ 2020
ac ia
cur tain
Ġc ivil
extra Ġlarg
Ġusb Ġ3.0
Ġbar rel
yĠm ulti
Ġw ish
Ġconnec tion
iv ing
esĠf rom
Ġbar b
Ġri ver
ey elash
rec ip
Ġfla tĠb
a /
le agu
Ġcolor sĠ
j ay
Ġa wdĠ
Ġsol eĠ
ĠmarineĠstainlessĠ g316
Ġjohn son
tex tur
s ummer
Ġ4 mm
Ġal u
eĠs olidĠ
Ġh ell
sĠforĠwomen Ġmen
Ġcushion Ġcover
l yĠf
irth stoneĠ
yĠc ap
Ġapp lication
ant s
3dĠ marbleĠ
old ing
ac oustic
Ġmotorol aĠm
47 x42
Ġj aguar
sĠ longĠsleeveĠ
Ġc ag
sal omon
fron t
Ġint el
bonamaisonĠ100%ĠcottonĠprintedĠtoteĠbag ,ĠreusableĠgroceryĠbag,ĠshoppingĠbag,ĠmachineĠwashable,ĠecoĠfriendly,Ġfoldable,ĠcanvasĠclothĠbagĠwithĠhandles,Ġ
e 2
47x42 ĠcmĠ-ĠdesignedĠandĠmanufacturedĠinĠturkey
34 x40ĠcmĠ-ĠdesignedĠandĠmanufacturedĠinĠturkey
erĠd oubleĠ
sm ar
ĠvacuumĠ insulatedĠ
bonamaisonĠ100%ĠcottonĠprintedĠtoteĠbag,ĠreusableĠgroceryĠbag,ĠshoppingĠbag,ĠmachineĠwashable,ĠecoĠfriendly,Ġfoldable,ĠcanvasĠclothĠbagĠwithĠhandles,Ġ 47x42ĠcmĠ-ĠdesignedĠandĠmanufacturedĠinĠturkey
a 6
ĠshoesĠ black
Ġcen tim
you Ġchoos
j umbo
22 mm
e odor
Ġbook Ġof
sĠslip persĠ
eĠs ock
n ival
lan yard
dvd )
lunch Ġbag
Ġinter activeĠ
sĠb all
-s lee
th ankĠyou
zip Ġup
char mĠ
Ġsize: Ġ9
Ġor th
Ġ3 pc
gra ssĠ
cmĠx Ġ100
- ounc
t t
Ġoff ĠroadĠ
Ġ18kĠgoldĠ natural
c ordĠ
cd Ġscreen
av en
c en
ud g
l ersĠ
eĠst andĠ
tĠc or
40 1
Ġsnow Ġboot
ĠwallĠartĠ- ĠmatteĠpaperĠprint,ĠlightĠoak
Ġf eel
ĠframedĠ wallĠartĠprin
in eĠp
Ġper foratedĠleather
Ġfre eĠpost
es man
ir k
poin tĠpen
trespas sĠwomens/ladiesĠ
Ġqu ad
h iking
Ġsuction Ġcup
Ġarti st
Ġbl k
eĠw irelessĠ
tĠh ex
auth or
tĠt ouch
Ġsc ub
repair ĠkitĠ
res entĠ
eĠ moun
wa ist
kennethĠcol eĠnewĠyork
z ig
Ġ6.1 Ġinch
h .
polo ĠralphĠlauren
Ġ30 mm
runn er
Ġ3 .1
p ocket
yĠh ansen
Ġt ier
sĠ 14
Ġcolour ful
Ġ5 50
/12 Ġpro
b eh
erĠb ook
rearĠbraid edĠbrakeĠlineĠ(carbolookĠhoseĠ&ĠstainlessĠ
o i
las erĠ
Ġm ist
Ġclip Ġon
Ġ- ĠoneĠsize
mo istur
Ġwhit eĠb
eĠ roundĠ
Ġ20 5cmĠx
packĠofĠ2 )
n ol
% 100
head bandĠ
ne utrik
Ġon yx
-p ur
re atedĠ
yĠc ustom
x18Ġ5x114.3ĠetĠ 40
Ġplat esĠ
3dĠ orang
sĠ âĢĵ
f anc
Ġ sĠ20
ins ec
16 "
ron co
american Ġflag
tĠprotec tor
e iff
es ,Ġb
r da
ather 'sĠ
kitĠdipstick Ġfor
Ġ0 .8
Ġb ean
Ġsp litter
Ġ5 8
Ġ2008 Ġ2009
Ġch ok
Ġblack Ġ|
c eĠ
Ġh ip
pieceĠwatch makingĠwatch
arm ac
assort edĠcolor
d vdĠ
adel aid
eĠha an
yĠp lush
/0 5
purp leĠb
eĠs leep
le yĠm
ik a
lank etĠ
hom e
et i
cmĠx Ġ150
Ġgirl sĠboy
re tractableĠ
ĠxiaomiĠredmi Ġnot
al b
f x
sĠ 15
on ial
Ġp epper
y Ġpro
strap sco
sp eak
ed ĠstainlessĠsteel
tĠt ub
%100 Ġcotton
/ outdoor
-p in
5 "
Ġj igsawĠpuzz
Ġsw ayĠbar
sĠs uit
Ġrec ip
l yĠt
l end
countersunk Ġphillip
Ġcro chetĠ
il lac
bonamaison ĠprintedĠtoteĠbag
eĠst ra
vol kswagen
Ġtot al
rac er
ĠankleĠb ootsĠ
Ġgre yĠ-
foc usĠ
sh owerĠcurtain
eĠch air
ĠiphoneĠ12 Ġmini
crew Ġneck
Ġset ting
tr an
ĠlandĠ roverĠ
e,Ġ 12
Ġ8 9
olymp ic
adventure sĠof
j et
dark Ġgreen
agh etti
erĠ ii
Ġn ubuck
Ġ1 70
ĠxĠ4 3
tĠb each
h ft
Ġb in
ĠandĠgirl sĠ(
Ġm oldĠ
lam b
eĠof Ġlif
ti ac
Ġ19 83
ed eral
p fr
Ġv io
ar dian
Ġquil tedĠ
ĠcarbideĠ ring
5 pcsĠ
- nickel
Ġm ylar
Ġf antas
ac idĠ
Ġbsw ĠimperialĠcoars
val eo
n ib
cardĠ (p
Ġuni form
orang e)Ġ(
Ġey ebrow
p sĠ
Ġre duc
Ġne utrik
Ġm ass
resist anc
Ġgo thic
brak eĠle
Ġcook ing
y ĠwallĠmuralĠwallpaperĠ
anth rac
Ġg armin
26 5
Ġsand paperĠ
b ridg
kn ock
19 82
ri gg
Ġ( pink)
ĠmulticolorĠdecorativeĠ mdfĠpainting
ornam ent
col eĠhaan
18 6
her th
Ġs ash
Ġ2004 Ġ2005
tĠ 2
Ġs ach
Ġwith Ġlid
eĠh o
- 200
li x
erĠb ottle
uck etĠ
cas eĠwith
Ġ8 x19Ġ5x112ĠetĠ
yĠp etĠ
Ġc mĠ(
Ġj ew
vo ic
m aterial
opp ing
Ġcut terĠ
es /
Ġw ig
Ġth anksgiv
Ã©n Ã©
ĠstampĠyver tĠandĠtellierĠnÂ°
25 1
Â ½
Ġtre eĠzhua
pol itic
Ġac oustic
4 .6
d ick
Ġen viron
]Ġcoin,Ġfranc e,Ġ
Ġmon ey
lif est
y Ġwomen
sĠn issan
ar omatherap
Ġ5 Ġ4Ġ3Ġ2Ġ1
Ġeduc ational
Ġstock ing
),Ġ 6Ġuk
35 1
Ġsafet yĠb
ar ia
Ġs q
Ġt en
res cu
rac ott
al endar
Ġt ak
Â ¤
Ġceramic ĠbrakeĠpad
dynamicĠfrictionĠcompan yĠ
Ġ250 ml
19 4
m 20
Ġg etĠ
yĠs ign
Ġsur vival
athersĠ valentinesĠday
Ġch i
Ġ2015 Ġ2016
f g
Ġar oundĠ
dolceĠ&Ġg abbana
ĠstainlessĠsteel Ġ304
po em
Ġsmart phon
Ġpla id
yĠb yĠj
Ġs mock
sĠb ox
ĠgenuineĠ leather
ingĠp aper
Ġc yc
Ġsho ulderĠ
acdelco Ġ18
u f
yĠb all
Ġli br
Ġre cycledĠ
Ġbil stein
Ġbb q
Ġital y
ribb edĠ
erĠb rush
sh if
ĠfrontĠp air
ch ew
- 36
bonamaisonĠprintedĠtoteĠbag ,
erĠc ableĠ
bonamaisonĠprintedĠtoteĠbag, %100Ġcotton
Ġm b
shoulder Ġbag
bonamaisonĠprintedĠtoteĠbag,%100Ġcotton ,ĠreusableĠgroceryĠbag,ĠshoppingĠbag,ĠmachineĠwashable,ĠecoĠfriendly,Ġfoldable,ĠcanvasĠclothĠbagĠwithĠhandles,Ġ
charg er
Ġm ay
3 mmĠ
Ġc rad
xx asĠ
40 6
sil k
iceĠc ub
8 g
"ĠeĠbrakeĠcableĠc levisĠtrimĠ
Ġgym nastic
ong rat
Ġgam esĠ
Ġf ountain
l v
Ġpi erc
Ġb angleĠb
eveledĠ edg
hug o
eĠsetĠ of
Ġmo uldĠ
17 4
[# 8
,Ġau(50-53 )
9- 15
Ġmar oon
eĠin ĠtheĠ
id erĠ
Ġd ep
pillar ĠpodĠ
Ġcolor: Ġblack
Ġwomen /
gre ek
Ġsw ea
ĠbrakeĠc alip
upp erĠ
Ġmag enta
h atch
sĠwall ĠstickerĠws-
Ġcut ler
)Ġ- Ġbc
Ġ icon
re ed
Ġhand heldĠ
ro of
Ġmountain Ġbik
lic ator
med ia
Ġwhit eĠfram
v Ġag
Ġv -neck
Ġc ors
ri esĠ
vol tag
Ġcover ,
Ġe vil
hd mi
Ġ3 30
ĠsingleĠc anvasĠwallĠartĠpictureĠprint
Ġor igin
amaz ing
ch as
Ġinser tĠ
Ġpro gramm
craf t
200 3-
Ġcolor s
Ġf ad
eĠh ang
l -
Ġmax im
forĠh onda
ĠgunĠmet-m irror
yĠd ress
button Ġdown
al u
timber landĠ
Ġb ibleĠ
vĠag ust
is ur
ann i
Ġ2006 Ġ2007
Ġdress esĠ
tĠf ac
Ġd ayĠ
mer ry
s per
g randĠ
necklac esĠ
ĠblockoutĠphotoĠcurtain ĠprintingĠcurtainsĠdrapesĠfabricĠwindow
i Ġe
2 24
w ineĠ
Ġc ul
Ġ( 14
cast leĠ
t ation
s ail
Ġbro th
,Ġ lightĠ
Ġ( 18
Ġd ipp
ro gu
Ġ )
c amera
yn c
Ġl atch
asĠ a
Ġbel tsĠ
Ġav g
a iss
Ġint ellig
ol ia
eĠh eel
edĠ animal
v .
rac eĠ
est ar
jack Ġ&Ġj
sĠ 2021
Ġglo ss
ak opartsĠ
Ġsheet s
Ġsty lu
eĠb ig
Ġair ĠfilterĠ
sak ura
| ĠpaintĠscratchĠrepair,ĠexactĠmatchĠguaranteeĠ-
sĠ redĠ
c opper
sĠ outdoor
Ġe volution
Ġ3 23
bat man
tĠm etal
con vers
ex ican
Ġc atĠp
Ġwind shieldĠ
u Ġwomen'sĠ
Ġl y
est in
Ġec onom
Ġadults âĢĻ
enn i
disp la
p ull
ĠmadeĠin ĠtheĠusa
.5 cm
big Ġdo
theĠw orldĠ
tĠof Ġhappines
Ġl akeĠ
appro ach
er ina
,Ġ goldĠ
runn erĠ
t oo
ti le
Ġmo th
le man
eng ersĠ
.5 ĠlittleĠkid
Ġboy 'sĠ
cmĠx Ġ80
super dry
Ġ owl
Ġassort edĠ
umĠ -
Ġ tĠ
eĠto y
ma st
ri vetĠ
Ġtw istĠ
Ġrim Ġsticker
Ġst rok
sĠw c
Ġlo tusĠ
1 Ġor
Ġb ad
cam o
mm)Ġx Ġ2
ar ea
blk ĠpowerflexĠblack
,Ġ ecoĠfriendly,Ġfoldable,ĠcanvasĠclothĠbagĠwith
,ĠreusableĠgroceryĠbag,ĠshoppingĠbag ,ĠecoĠfriendly,Ġfoldable,ĠcanvasĠclothĠbagĠwith
tĠt ap
s !
bigĠdo tĠofĠhappines
Ġal arm
ĠkeyĠ ring
Ġwedding ĠbandĠring
f Ġ50
assort ed
Ġem eraldĠ
tĠc ut
tĠc lutch
mm)ĠxĠ1 .00
90 8
think !
er k
du o
spanish ]
t ow
: Ġblack
7 mm
e,Ġ 3
Ġ12 2
larg e,
ind eer
re ez
ro tĠ
sĠf loral
hol ida
Ġau th
go dĠ
cover Ġwith
h um
sĠ per
10 g
bonamaisonĠ100%ĠcottonĠprintedĠtoteĠbag ,ĠreusableĠgroceryĠbag,ĠshoppingĠbag,ĠecoĠfriendly,Ġfoldable,ĠcanvasĠclothĠbagĠwith
Ġ70 Ġbolt
fus ion
h id
Ġhon or
0 .0
00 5
y in
sh a
) Ġblack
j ia
.1 Ġinch
Ġ2 pcsĠ
Ġsol eno
Ġt eardrop
mĠ andĠ
ĠforĠmen ĠandĠwomen
mar ineĠ
genuineĠ leather
sĠh oop
sĠandĠ cat
Ġ19 0
i ateĠ
em ma
v 8
sĠh ood
f ib
Ġ7 9
Ġox ygenĠsensor
Ġ2 500
ch elsea
john son
eĠc ak
eĠf lar
tĠprotec tiveĠ
ra ving
unn y
f olk
wall paper
Ġv ision
ĠiphoneĠ 7
Ġ2 Ġpair
eĠb ear
entĠ -
flow erĠp
eĠc ordĠ
sĠprin tedĠ
len ovo
yĠh older
edĠf ram
Ġgaug esĠ
eĠc rossĠ
b es
Ġconst ellation
is e
re cycledĠ
Ġ1 pc
00 6
l yĠm
nit ro
Ġv .
lof aro
Ġ3 m
fl ic
sĠc ustom
undam ental
Ġdoor ,
sm ith
2 ĠpcsĠ
sĠs lid
ĠcrossĠ section
Ġ âĢ
erryĠ lofaro
Ġ oliveĠ
sĠb ack
ĠfloorĠmuralĠstandardĠvinylĠ(uptoĠ3month s),Ġxx
Ġcosmetic Ġbag
eĠsof t
"ĠeĠbrakeĠcableĠclamp ĠclevisĠtrimĠ
- blue
men ts
art ridg
febi Ġbilstein
Ġsh i
Ġr ic
Ġt-shir tĠ(black
newĠrm-seriesĠ tvĠremoteĠcontrolĠfor
adver tĠ
sĠp remium
Ġbeig e
j ab
4 000
Ġst i
Ġst rik
k .
Ġcol lapsibleĠ
ir m
ĠmĠusĠ toddler
ti al
Ġslo tsĠ
ustain ableĠ
.75 "
Ġ- Ġw
Ġbusines sĠ
Ġachx ĠcurtainsĠdrapes,Ġ264
can ter
mon t
tĠp ad
3Ġm4Ġm5Ġm 6
cloth esĠ
Ġab sĠ20
st reetĠ
Ġ2 30
akopartsĠ j
19 2
r s
4 Ġ(
hel lo
Ġnon- oem
Ġclass room
us e
Ġsmar tĠwatch
,Ġvf(20-25 )
Ġra di
Ġachx ĠcurtainsĠdrapes,Ġ203
sty lish
Ġcam el
und le
e vel
rev eal
ig ation
Ġ- Ġred
lens esĠfor
st rang
Ġx Ġ200
in ar
Ġ19 6
ĠcoverĠ (
Ġwall Ġdecor
f ootball
it yĠh
ep perĠ
en ic
Ġm ushroom
rizomaĠb s
la im
lad ies
Ġwork out
70 .8
y Ġco
48 x55
Ġlit re
Ġm Ġu
al t
Ġcirc ular
scop ic
ingĠt ableĠ
,Ġ durableĠ
Ġ- ĠboxĠof
yĠcar ol
zinc ĠplatedĠm
arrowĠhomĠnocatĠ full
eĠs uppli
ukk aĠb
ed wardĠ
Ġb rightĠ
i- metallic
48x55 ĠcmĠ-ĠdesignedĠandĠmanufacturedĠinĠturkey
tot al
aut ical
raid edĠ
Ġgen eric
Ġhand book
eĠ original
ĠtimingĠbel tĠ
c rim
p and
ea stern
theĠ artĠof
ter minal
s elec
sĠ van
ich el
ĠipadĠ pro
eĠof Ġth
Ġmason ry
Ġcolour s
Ġnav yĠ
c e
p sych
Ġd ais
h is
di yĠcraf
sĠf ish
lo bal
9 50
Ġed tĠ(
[# 4
00 4
100 pc
Ġkid sĠboy
Ġop tical
Ġkit ten
ag ne
iss a
Ġ2005 Ġ05
s ydne
eĠp ortableĠ
Ġb eĠ
ĠcoupleĠ ledĠturnĠsignal
24 5
fac eĠmask
Ġsock sĠfor
Ġg sĠ
m -
w itch
eĠcar bon
eĠl and
esh adow
ac book
ord an
Ġpetrol Ġ4
ĠcardĠ freeĠpost
Ġcabin et
Ġgaug eĠ
os o
Ġh .
Ġmous eĠpad
Ġs 3
1 b
Ġ(4 .8
ar ab
.7 mm
2 15
Ġ2011 Ġ2012
Ġ( g
ch im
Ġb laz
d ev
inn i
yĠp lat
mor e
ma y
/ green
Ġ& ĠbossĠ
eĠcon c
p ut
acc in
q h
in fant
eĠg o
yĠgif tsĠ
on aĠd
12 pc
diamondĠ ring
Ġsp anish
eĠb ik
een th
lightweigh tĠbreathableĠ
Ġsweat erĠ-
1 Ġpack
Ġbab yĠb
Ġal fa
Ġfloor Ġmat
ru gb
Ġc ran
yellowĠstamp edĠaluminumĠstreetĠsignĠmancaveĠ
Ġrot at
w ord
s ack
ĠwallĠartĠ- ĠmatteĠpaperĠprint,Ġblack
Ġ8 4
yĠp attern
sĠ 13
ĠcableĠ -
absorb entĠ
yĠb randĠ
all y
artĠprin t
cmĠx Ġ60
Ġpress ureĠ
Ġch es
j igsawĠpuzz
Ġleg end
/ onlineĠ
art work
eĠw indow
Ġt l
Ġ old
at la
arm on
erĠ outbackĠobkn
eĠw idth
Ġrenaul tĠ
fl ap
Ġg )
,Ġ usĠ
Ġth ough
lightĠblu e
Ġsli deĠ
Ġst ap
Ġd riv
sol sĠmen
k ath
Ġc 6
Ġ- Ġsilver
la id
Ġ14 kĠgoldĠ
-d ouble
ray best
mechan ism
Ġw p
Ġg 4
Ġwindow Ġregulator
ĠsizeĠ 10
19 78
Ġwrit ing
- lin
lo verĠ
Ġbead sĠ
bonamaisonĠdigitallyĠprintedĠmessengerĠschoolĠbagĠwith Ġblack
eĠster ling
bonamaisonĠdigitallyĠprintedĠmessengerĠschoolĠbagĠwithĠblack ĠstrapĠforĠstudents,ĠcrossĠbodyĠbag,ĠcourierĠbag,ĠshoulderĠbagĠforĠchildren,Ġkids,Ġgirls,Ġboys,Ġsize:Ġ29x36Ġcm
Ġbil letĠ
ka Ġwomen'sĠ
Ġfre edom
Ġm echan
er /
Ġtr an
yĠw c
as sĠ
Ġe va
ri qu
16 6
3dĠbedĠpillowcasesĠquiltĠ duvetĠcover
ot ional
Ġk y
av ic
ĠstickersĠ for
Ġ4 pc
moda Ġsp
edĠ edg
dĠ p
ri sk
Ġst .
eĠp remium
Ġ9 2
Ġm uh
k is
35 5
ĠfloorĠmuralĠheavyĠdutyĠvinyl(uptoĠ5year s),Ġxx
Ġfast en
idĠb adg
Ġte e
yĠgif tĠfor
d ep
Ġne opren
yĠc lassic
art an
temp Ġsensor
eĠco in
as u
16 00
th an
sĠsp or
Ġsun Ġprotection
Ġth an
eĠsp ec
s,Ġblack Ġ(
Ġw ick
ĠsamsungĠgalax yĠwatch
sĠp etĠ
eĠg el
-b 1Ġ(70.7ĠxĠ100cm)
m eg
Ġsize: Ġ11
eĠb ow
Ġd olphin
eĠc and
eĠ kid
Ġgra yĠ
vis or
Ġad v
-b la
Ġsc ent
3 90
Ġlaptop Ġnotebook
Ġpol itical
u sĠwomen'sĠ
4 Ġpc
b yĠd
yĠp in
Ġunisex -
22 7
Ġmo da
tĠp etĠ
Ġnail Ġpolish
lic a
ition al
Ġf iberĠ
royal ĠblueĠ-
3- pack
r ul
Ġboy friendĠ
Ġdi aper
Ġm ind
erĠ kitĠ
tu res
Ġinch es)
eĠ2 b
9 12
jackĠ&Ġj onesĠ
Ġl ash
Ġph ysic
Ġseal Ġkit
tĠc atĠ
urg ical
sĠh eadĠ
-1 /4"
the ir
brown ,
Ġfl am
ult il
urnit ureĠ
Ġf igh
14k ĠwhiteĠgoldĠ
eĠco up
f astĠ
Ġey ewear
sĠw ooden
b righ
er enc
p ri
f irs
aĠh a
Ġst opper
ap ric
sĠs afet
gre yĠm
x 21
b ott
ĠmatteĠpaperĠprint,ĠwhiteĠframeĠ(withĠmatĠboard) -a
,Ġp ortableĠ
+ bus
tĠb rown
io us
Ġq t.
Ġter minal
. 12
Ġdu o
s oc
Ġspar co
sĠb irthdayĠpart
es ,Ġc
end antsĠ
edg eh
Ġhead Ġscrew
tĠp endantĠ
mous eĠpad
ooti esĠ
herth +bus
est a
6 90
Ġwall Ġmoun
loveĠ hear
- blu
sĠj ean
Ġeg yp
Ġrear Ġbraid
leg ac
Ġf iveĠ
qu i
tĠb racele
e hous
we b
sh ib
royalĠblueĠ- Ġroyal
Ġ2013 Ġ2014
p illow
ne y
Ġno tĠ
Ġmat ,Ġw
Ġsilver ado
on athan
- king
Ġself ĠadhesiveĠ
app a
s, Ġsmall
Ġauth entic
eĠb ody
designĠwith Ġvinyl
b earing
Ġskir tĠ-
Ġseal edĠ
sĠcar toon
Ġsheet ĠsetĠ
fil ter
Ġcentim es,Ġ
(w )
r 0
ra sp
aĠc la
e,Ġ 2
Ġfunn yĠ
Ġchip board
mm ,
22 9
tri umph
Ġtr ump
op stick
sĠm ix
Ġallo y
p eac
sĠtop sĠ&
edĠp olish
ĠiphoneĠ11 Ġpro
Ġm Ġeu
Ġh oldĠ
ĠhighĠtensil eĠgradeĠ8
( 8
cas e
yĠch arm
colorĠnĠdriveĠ for
eĠc amera
eĠ red
Ġj umbo
,Ġ 28
ym bol
Ġv ib
j as
3dĠ flowerĠ
ti sh
comfor tĠ
mirag eĠpetĠproductsĠ
lunch Ġbox
gi ousĠ
Ġjeep ĠwranglerĠ
6 80
Ġsport back
iz erĠ
sĠs ummer
allo y
Ġchass isĠ
d ani
Ġ8.5 x19Ġ5x112ĠetĠ
well sĠa
cm* 45cm
eĠ 11
Ġgreeting Ġcard
g .
Ġsneak erĠ
Ġcontain er
sĠtopsĠ& Ġblous
Ġl ag
22 8
Ġjeweller yĠ(
sĠfor Ġtoyota
Ġd am
eral d
Ġstar fish
ipp i
/0 8
dar eĠ2b
Ġsh imm
ar aĠd
ab ras
Ġt igh
eĠm ix
uff in
med iumĠ
Ġpart yĠsuppli
ĠstainlessĠsteel Ġg304
eĠ #
and i
Ġcor rugatedĠ
ĠrearĠdisc ĠbrakeĠrotor
Ġtrous ersĠ(
Ġsaf ari
form al
eĠ rear
Ġhear t
Ġwater fall
Ġheav en
riend ship
erman n
Ġf oc
og u
tĠgif tĠfor
pla idĠ
ack et
Ġfram edĠp
ow derĠ
Ġsil houett
Ġband itĠ
alle tĠ
s ist
oil Ġresistant
cod il
ĠstudĠearring s
circ leĠ
Ġself-adhesiveĠremovableĠ zoe
il a
bo at
or b
Ġb ay
yĠs upp
er -
flu or
on lyĠ
bo undĠ
opp o
Ġlatex Ġballoon
e j
edgeh og
Ġe k
ĠmensĠ shortĠsleeveĠ
/ strip
eĠro dĠ
eĠh andleĠ
Ġeng rav
Ġl t
: Ġ1
b ull
we ek
24 4
ry p
Ġkid s'
ĠwallpaperĠwallĠmuralĠremovableĠself-adhesiveĠ amy
Ġclos edĠ
a 3
arm onic
Ġtemper atureĠ
mobil eĠphon
ĠtableclothĠtableĠcoverĠclothĠbirthdayĠpartyĠeventĠ aj
27 5
t rop
yĠs chool
Ġlac qu
ell it
,ĠstainlessĠsteel ,
ast leĠ
g ut
vi olin
packĠof Ġ8
Ġb eh
Ġ8 50
t yĠb
as qu
Ġ15 "
b n
spark Ġplug
l un
00 9
it yĠd
6 Ġx
ad ian
Ġv n
craf tedĠ
Ġcomp osit
Ġle s
tac tical
s pro
Ġph antom
Ġ199 7-
eĠc od
3dĠ retro
Ġri g
ĠsoftĠp lush
ier r
ligh ter
es i
Ġ(3 /16")
Ġ et
erĠf abric
h ur
need leĠ
ĠxĠ1 1
be am
ag eĠb
Ġham mer
ĠfrontĠ axleĠbrakeĠdisc
Ġcool antĠ
Ġar mani
geox Ġmen'sĠ
Ġmirr ors
Ġ8 "
Ġ1 /8"
22 3
Ġ ou
eĠsp oon
cm( 70.8
iphoneĠ x
engin eering
Ġrod eo
tĠm on
Ġwar rior
hell yĠhansen
Ġorang e/
sĠd ecor
m old
Ġlip stick
Ġarch itec
Ġfor Ġkia
thĠgen eration
lightĠb lue)
Ġ8 x10Ġphoto
Ġsuit sĠtoyota
Ġab sĠ
Ġz ircon
,Ġcopper -nickel
new Ġyear
sol id
ig ure
ry an
tre at
Ġac idĠ
j r
Ġorganic Ġcotton
ingĠp attern
0 .3
23 1
Ġcon dens
Ġar row
ink Ġcartridg
Ġ- Ġ1/
lou is
ril leĠ
giviĠcaseĠtrekkerĠblack ĠlineĠ
giviĠcaseĠtrekkerĠblackĠlineĠ trk
sĠdrap es,Ġ
as usĠ
it ut
Ġcom f
Ġst ars
new Ġ*
-c entur
eĠm achin
eĠd ragon
Ġm cc
Ġj umper
Ġlu min
to xic
Ġon eĠpiec
giviĠcaseĠv 47
ob i
r entĠ
j k
Ġ2 ndĠ
keyĠ ring
Ġgre atĠfor
s ocketĠ
x 300
Ġ10 k
ed Ġstretch
Ġe qu
clark sĠmen'sĠ
40 5
m eal
180 cm(
Ġ2019 Ġ2020
om in
eĠj ay
Ġbab yĠshow
hall mark
Ġfor mal
us cleĠ
Ġmakeup Ġbag
Ġy fm
owerĠ of
Ġx Ġ80
Ġm easur
Ġpeac ock
Ġt yr
Ġ19 82
eĠs imp
Ġ700 ml
boy sĠ
or celain
ig ma
Ġ&Ġt yl
,Ġ50cmĠx Ġ50
Ġgenuin eĠpartsĠ
ĠmmĠ x
Ġb eer
ta up
Ġ5 30
40 7
Ġf enc
Ġle opard
Ġcolor ado
stand ard
Ġmed itation
Ġzo diac
e 6
s,Ġ red
Ġcas eĠof
ĠfrontĠ l
Ġz ebra
o enix
18 4
Ġedel man
Ġz ero
Ġd ynamic
ĠandĠ outdoor
yst emĠ
adultsĠ unisex
j ur
Ġpeop leĠ
man agementĠ
Ġ10 3
mmĠ roundĠ
,Ġ50cmĠxĠ50 cm(19.7''
advanc edĠ
ri sĠ
tw r
50 1
,Ġ50cmĠxĠ50cm(19.7'' ĠxĠ19.7'')Ġ(wxh)
sĠ larg
eĠ jacketĠ
f arm
cm(39 .3''
c loudĠ
iv e
erĠb ottleĠ
-sid edĠ
Ġm 1
/onlineĠ audio
Ġstat u
8 5-
ock ey
18 7
bossĠ men'sĠ
sĠg old
Ġn Ġmnh
Ġb estĠ
: Ġbook
Ġout fit
Ġeag leĠ
Ġ1.2 mm
ia Ġ4
Ġflu idĠ
700 ml
adida sĠwomen'sĠ
eĠs neak
nu tĠm
yĠp aper
ha veĠ
Ġ2008Ġ08 Ġ2009Ġ09
Ġ20 "
dĠ (
/ 25
Ġx 3
iv a
Ġc rib
lav ender
rocker ĠcoverĠ
Ġsecur ityĠ
Ġor Ġ18kĠgoldĠnatural
Ġm ast
Ġg 6
Ġhel p
14 kĠgoldĠplatedĠ
Ġpower ful
Ġd rinking
Ġonep lu
sĠs ub
brak eĠrotor
Ġpet al
le sĠ(
Ġst e
f )
sĠh older
purpleĠb anjos)
environ mental
Ġread ersĠ
Ġallen Ġgrub
Ġappro ach
Ġmachin eĠm
ap t
Ġd esser
ĠmarineĠstainlessĠsteel ĠssĠ316Ġa4
x iaomi
gif tĠbox
ĠshoesĠ with
usb Ġ3.0
Ġch er
sh eet
ĠdressĠ with
,Ġ3 Ġuk
lin ear
le sĠandĠ
eĠhel metĠ
200 2-
m assag
ist leĠ
Ġd eadĠ
histor yĠof
2 k
Ġcan -am
ham m
Ġj etĠ
Ġdress -Ġblack
Ġcontroll er
Ġcar abin
Ġmet re
w illiam
2 12
ĠforĠtoyota Ġhilux
oil Ġpump
Ġh aveĠ
gm ĠgenuineĠpartsĠ
sĠp o
ro u
eed ing
Ġd uk
americanĠshifterĠ 39
sĠb yĠg
Ġf unk
80 cm
Ġbo b
,Ġ high
ia h
re ek
h y
eĠh atĠ
sutton Ġd
Ġclass ical
''ĠxĠ3 9
s, Ġs
ank Ġtop
Ġp our
r enc
sĠp et
Ġ199 6-
Ġb undleĠ
Ġsa ab
Ġ $
plat edĠb
Ġ1 m
gh os
men tĠc
di esĠ
eĠp ocketĠ
Ġre manufacturedĠ
,Ġ3 .5Ġuk
aeros ole
c lamp
2 Ġpiec
ĠfrontĠ+ ĠrearĠdisc
Ġtra g
Ġx Ġ14
egyp tian
eĠp aperĠ
,Ġ80 cmĠxĠ80
Ġm aster
s,Ġ 6
og an
1.5 mm
Ġj im
inc eĠ19
''ĠxĠ3 1.5
Ġin dia
co sm
/ queen/king
,Ġ80cmĠxĠ80 cm(31.5
,Ġ80cmĠxĠ80cm(31.5 ''ĠxĠ31.5
eĠwall Ġdecor
Ġlo v
cmĠx Ġ110
stra da
,Ġ80cmĠxĠ80cm(31.5''ĠxĠ31.5 '')Ġ(wxh)
tĠ n
et suĠno
Ġsun Ġshad
sĠof Ġa
b athroom
''ĠxĠ39 .3'')Ġ(wxh)
ĠseatbeltĠbuckleĠ dogĠcollar
Ġstretch edĠcanvasĠprin
m ind
Ġantenn a
Ġtre as
erĠg el
Ġfor Ġa
am ou
Ġneutral s
Ġmov ementĠ
Ġf lask
ux cell
ir rel
sĠh ook
sp Ġauto
eĠbo ardĠ
ohem ian
y ot
black Ġbanjos)
etsuĠno Ġya
Ġf ruit
Ġt ightsĠ
f ind
sĠpack Ġof
cho ic
ist a
qu et
Ġ3 "
Ġwatch Ġstrap
ev an
forĠh p
tĠp air
tĠfron t
5 g
buckle-downĠplasticĠclipĠcollar Ġ-
ann ah
sy z
p ra
,Ġms( 63)
rid on
giviĠcaseĠtrekk erĠdolomitiĠdlm
c ropĠtop
whit e,
sho esĠfor
ĠadultsĠ unisex
qu ito
mar ri
Ġm ah
af terĠ
id d
Ġcar pet
sĠp en
yĠp op
-sterling Ġsterling
Ġbreak through
Ġlan tern
ri otic
Ġcar avan
Ġank le
,Ġb ab
Ġbush es
Ġkid 'sĠ
Ġp illowcasesĠ
ingĠglass esĠforĠwomen
Ġm 2
l ton
eĠt umbler
just ic
d rill
alloyĠwheelĠmak Ġspecial
Ġglov es
Ġlen ovo
Ġcer tifiedĠ
Ġsandal sĠ(
z b
Ġhel ix
.5 )
lap el
dean Ġ&Ġtyl
c oral
kar iban
Ġc las
eĠwomen &#39;
Ġbracele tĠforĠwomen
Ġreplac ementĠb
Ġseal ed
Ġcap ital
eĠ long
Ġ6 7
le bar
Ġreli gion
3dĠ flamingo
uss ion
re h
,Ġf it
xxlĠ520cmĠxĠ290 cmĠ(hxw)(205''x114'')
enc yc
, 3
Ġ @
est er
ieĠc utter
Ġmemor ial
Ġt-shir tĠ-
leg al
Ġm 6Ġ(6mm)Ġx
arm yĠgreen
Ġfor Ġsmall
saasĠsteeringĠwheel Ġsw
254 cm
ĠinchesĠ x
1 /8"
rizom aĠm
sĠ all
eĠh ard
Ġpor celain
Ġbracele tsĠforĠwomen
ĠsilverĠ -
j ad
120 cm
t assel
Ġkawasaki Ġk
Ġornam entĠ
tĠf loral
p ac
n oseĠring
ĠsingleĠdoubleĠ queenĠking
cm( 43
Ġfl annel
denso Ġiridium
Ġm -t
-w: 416
i ent
cmĠxĠh: 254cm
60 mm
emor ial
-w:416 cmĠxĠh:254cm
Ġpower Ġsupp
Ġsh ar
2Ġ( 2
redĠ -Ġred
/m edium
in '
Ġpush Ġswitch
ï ¿
Ġhead wear
eĠhand bag
arn ish
s em
eĠp urs
apph ireĠ
.3'' ĠxĠ43
Ġb yĠth
Ġqu iltĠcoverĠsetĠ
olid ay
cm(43 .3''ĠxĠ43
cm(43.3''ĠxĠ43 .3'')Ġ(wxh)
cmĠxĠ110 cm(43.3''ĠxĠ43.3'')Ġ(wxh)
syz mik
ia o
200 ml
,Ġ110 cmĠxĠ110cm(43.3''ĠxĠ43.3'')Ġ(wxh)
eĠm outh
in di
- Ġgreen
a quarium
Ġdegre eĠ
23 7
ation Ġin
erĠ 5
eĠt in
Ġ3 000
osp el
Ġm omen
chines eĠlaundry
eĠb yĠg
Ġs ata
erĠ dayĠ
Ġo ther
Ġbath ĠmatĠ
Ġge ograph
eĠch ar
ot on
tĠw ind
Ġflo at
ĠknurledĠthumb Ġscrew
eĠw ood
32 8
yĠ 3
Ġpow erĠb
nit rileĠ
eĠgu ardĠ
med ical
on e-
Ġm m)
eĠfor Ġmen
sĠp remiumĠ
oo terĠ
giviĠcaseĠtrekk erĠoutbackĠobkn
Ġsiz eĠm
sĠin door
Ġh umid
eĠb alletĠflat
ur i
Ġpat ent
f z
a ith
Ġtrek king
amp agne
m 2Ġm2.5Ġm
Ġ5 .4
Ġ1 .5"
4 wdĠ
eĠd ark
eĠb od
32 6
Ġseries )
Ġsiz eĠs
-k lass
eĠ longĠsleeveĠ
pearlĠiz umi
Ġleather Ġstrap
Ġcomfor t
sĠc omfor
sĠsil verĠ
Ġplat ing
mo veĠ
lightĠ green
sĠsil iconeĠ
um entĠ
Ġ outĠ
sĠh ear
Ġcyl ind
Ġsumm erĠbeach
artĠ onlineĠ
eĠf lexibleĠ
anvasĠwallĠar tĠprin
Ġ4 tĠ
Ġneed leĠ
alloyĠwheel Ġsparco
Ġst urd
l ol
Ġgre at
th i
- multi
tĠd oubleĠ
gen z
Ġplu m
Ġt es
enc los
ĠglossĠblack Ġfull
et o
ĠbyĠj amesĠ
hen bury
di rection
Ġorang eĠ
Ġt weez
Ġd p
Ġg raphit
Ġj aw
Ġb us
Ġflip Ġleather
eat r
Ġspac eĠ
ĠbyĠ n
erĠg am
Ġsandal sĠ-
eĠf emal
er maidĠ
co gn
sĠs lo
Ġcab rio
d s
8 Ġuk)
evcĠidriveĠthrottleĠcontroll erĠ
bas eball
sĠ i
Ġsc ramb
Ġ(6 .1
Ġstor y
Ġser v
onaĠd uvetĠ
Ġsli ding
ĠsetĠof Ġ12
Ġcur b
ath olic
edĠg if
ĠxĠ3 1
ĠfromĠ japan
n '
Ġg tx
Ġwork wear
5 12
Ġc anvasĠwallĠartĠpictureĠprint
Ġtex turedĠ
ĠiphoneĠx sĠmax
tĠw rist
Ġey elash
Ġb ull
eĠcurtain sĠdrapes,Ġ
mmĠ length
Ġcon t
ĠpostĠ torx
Ġ- Ġr
f w
.2 mm)
iqueĠpol oĠshirtĠ(
b icycleĠ
s leeveĠ
,Ġ navy
ro th
Ġwel com
Ġembroider edĠ
al arm
Ġsm il
Ġ3 )
d aint
,Ġ xs
well sĠc
Ġ( silver)
Ġso da
Ġar omatherap
Ġsw ag
ridg eĠmagn
tĠc lassĠ8.8
erĠb rief
Ġsneaker ,Ġwhit
Ġ1990 -
ing Ġon
Ġp ill
eĠm al
Ġsp lit
costum e-
sĠ adjustableĠ
Ġsling back
ĠaccessoriesĠ forĠwomen
tri mm
Ġn i
jos eph
250 r
Ġc p
sĠw ind
44 mmĠ
eĠs ued
bol t
Ġblu -ray
Ġanim eĠcurtainsĠdrapes,Ġ
/0 7
/5 /6
18 3
Ġhistor y
nam eĠ
Ġlo g
men sĠb
Ġheat ĠshrinkĠtub
Ġfleec eĠlin
eĠdecor ativeĠ
eĠ kitĠ
ĠstainlessĠ screw
sĠsw im
/ v
6 10
uge ot
ea ster
eleph ant
ey esĠ
eĠb utterfl
Ġle on
Ġinc ens
ens er
220 cm
x 11
Ġspat ula
zinc ĠplatedĠ
f oldĠ
Ġ5 /8
7 Ġinch
eth ic
Ġpav ilion
k am
2- 3
at 'sĠ
lif t
Ġt og
Ġreg ion
Ġjack Ġto
Ġch alk
plat inum
8- 12
5 30
s nap
eĠc ubicĠzirconia
Ġww ii
- 45
eĠ 15
ton er
t amiya
, m)
Ġpin e
eĠcover Ġwith
perfec tĠfor
Ġrock er
bc Ġfootwear
ĠxĠ1 1.8
Ġb urg
250 ml
Ġh unting
3dĠnordic Ġfresh
520 cmĠxĠh:
520cmĠxĠh: 2
Ġcam i
s,Ġ 3
Ġdecal ĠrimĠsticker
-w: 520cmĠxĠh:2
-w:520cmĠxĠh:2 90cm
ov ietĠ
los edĠto
d eser
sĠ green
s.oliver Ġwomen'sĠ
Ġstru tĠ
Ġhe eledĠsandal
al ter
Ġspeed Ġsensor
Ġstyl ing
Ġd es
ro ver
3dĠflow erĠb
s ac
Ġ >
est ruc
ligh tĠc
tĠh oodi
atĠ theĠ
Ġsock sĠ-
eĠpan el
a Ġ(
rearĠwiperĠblad eĠfor
um atic
anti Ġslip
aw thorn
sĠp antsĠ
la ir
Ġbar rett
32 Ġ5g
ĠsetĠ forĠwomen
Ġins ulation
16 )
kar en
ĠholderĠ yamaha
Ġper man
erĠd rop
Ġapp arel
performanc eĠ
son Ġ&
Ġj b
Ġw ayĠ
Ġtrac tor
tĠp urpleĠ
Ġj amesĠ
Ġsec ond
sĠfor ĠfordĠ
ros ion
70 2
buckle-down ĠseatbeltĠbuckleĠdogĠcollar
bl endĠ
ĠallenĠp lainĠblack
Ġh ipĠhop
22 2
erĠ jacket
b im
Ġx 5
usb -c
Ġfor d
te eĠjay
aĠ #
Ġtri bal
uss i
gs mĠ
-t ank
id ayĠ
Ġ Ġf
ecut iveĠ
ityĠb yĠ
Ġid eal
Ġmicro fiber
Ġcas esĠ
Ġsweat pantsĠ
,Ġs and
Ġpul ley
ins id
aintĠ laur
Ġwrist band
modaĠsp anaĠwomen'sĠ
v egan
ch ees
Ġscen ic
ĠredĠ -
w iredĠ
Ġ3 25
Ġbuck etĠ
Ġ1 3-
tĠp aperĠ
y ok
re vers
Ġst ageĠ
sĠst rip
j ungleĠ
b laz
Ġt tĠ
ĠgalaxyĠs 21
Ġmen sĠm
Ġis uzu
ord on
5 15
eĠ loveĠ
Ġdry ing
eful genz
med iat
18 kĠgoldĠplatedĠ
eĠ jacket
Ġb ritain
Ġpu ĠleatherĠ
Ġoct avia
, 11
g t
p recision
ĠcardĠslo tsĠ
of Ġa
Ġ7 8
eĠh ardĠ
all i
yĠc rystal
, ĠsoftĠ
yĠh ar
oct av
no ir
Ġswim wear
eav y
it ution
& co
c anvasĠ
Ġfor Ġskoda
sĠt ub
Ġro ss
sĠt e
ref lection
Ġk ill
sĠread ingĠglassesĠ
Ġfor Ġwedding
315 cmĠxĠh:
-w: 315cmĠxĠh:
Ġz en
-w:315cmĠxĠh: 220cm
Ġ7 Ġ8
it ageĠ
Ġloaf ersĠ
Ġco urs
0 .8
hous eholdĠ
, 2
Ġstand off
n z
Ġm ath
loos eĠbead
Ġhapp yĠ
Ġ4 .0l
,Ġd oubleĠ
xx -larg
40 4
sĠs ock
Ġfre ez
9 90
Ġpiec eĠjigsawĠpuzz
lab or
Ġau x
lo oseĠ
eĠp urpleĠ
diamondĠ painting
[# 6
ing Ġbox
eĠpro fessional
Ġyellow /
Ġ4 20
20 "
Ġgif tĠbag
eĠ2 .0
eĠg asketĠ
10 Ġx
att en
p epper
erĠb ack
yĠc an
Ġ6 3
sĠ laptop
dist ributor
Ġm-t itan
ar landĠ
Ġm essengerĠbag
/0 9
Ġsid e
sĠfor Ġdog
ir id
ack etĠ
Ġ5x108ĠetĠ 45
gradeĠ 12.9
lass room
las er
Ġg ang
Ġch okerĠnecklac
i ber
nextĠ level
Ġtranspor tĠb
4 .0
s, Ġwhit
Ġt Ġshir
ĠjacketĠ -
eĠgu itar
yĠ or
yĠd oll
c andleĠ
sĠb rembo
ch ev
Ġsant a
Ġs earch
sĠp an
3dĠ gre
eĠbutton ĠsocketĠscrew
eĠ lightĠ
ig er
or eal
sĠ un
Ġj ig
eĠp lush
organicĠbrakeĠpad sĠfrontĠl
eĠg lassesĠ
ĠbusinessĠwallpaperĠwallĠmuralĠself-adhesiveĠcommerceĠ zoe
18 2
ĠforĠvolkswagen Ġgolf
oil Ġballoon
jo yc
nc aa
,Ġ oneĠsiz
Ġtrans f
Ġkid sĠ-
4 80
bp Ġgeneral
Ġblack Ġ&
go thic
organiz erĠ
Ġp ublic
/ Ġh
mo sa
im inator
Ġ attach
e Âł
Ġadvent ureĠ
sĠ kidsĠ
d mĠ
trespas sĠmen
r j45
Ġunc ĠxĠ3
ch icken
Ġsept umĠ
g raphit
ogg leĠ
s tĠc
eĠper formanc
mo ccasin
tĠp antsĠ
Ġin ner
pair )
Ġruss ian
m 6Ġm8Ġm10Ġm12
rick etĠ
Ġblack Ġ-
weigh t
yĠpart yĠdecoration
Ġ10 "
b ach
Ġth isĠ
Ġg .
yĠm ug
eĠre al
inser tĠ
Ġh a
Ġring Ġset
disp osableĠ
paper back
sĠs weat
Ġsim ulation
h olog
Ġspli tĠ
ire lli
Ġc ooper
Ġd uff
r n
Ġcharg erĠ
Ġ-ĠlargeĠwindscreen Ġcar
Ġw est
Ġ7 "
el ineĠ
,Ġ dog
tĠf re
Ġst ill
Ġair Ġcondition
eĠt-shir t
Ġc igar
lin esĠ
5 dĠ
Ġsw if
Ġliber tyĠ
yĠ zhua
win dĠ
,Ġm ediumĠ
Ġgs xr
Ġt ar
Ġthermost atĠ
Ġ2015Ġ15 Ġ2016Ġ16
m itsubishi
lou isĠ
- 70
Ġ2 "
wedding ĠbandĠ
Ġ316 ĠstainlessĠsteel
eĠb ootsĠ
marco Ġto
Ġh iv
Ġrec ord
Ġtop sĠ(
4 .5Ġuk
colour ful
Ġ5dĠ ajĠwallpaper
sĠp ar
hiflo Ġhf
Ġprin cessĠ
Ġpro cess
40 2
k yb
irc ular
1/ 72
Ġp orsch
edĠf itĠ
andre aĠcon
s,Ġbrown Ġ(
sĠhand mad
b ib
sĠt wo
sĠstand ardĠ
Ġ+ Ġn
at ical
Ġfleec eĠblank
Ġb n
ha z
6 pcsĠ
nin eĠw
Ġprin tĠwall
3dĠhomeĠwallpaper Ġcolor
eauĠdeĠparfum ĠsprayĠ
Ġpat entĠ
th eĠcomplet
Ġ2 25
-s iz
Ġwith ĠadjustableĠ
bk Ġ50
Ġb ud
Ġsex yĠ
vir gin
eĠpersonal izedĠ
Ġd ur
Ġfor Ġall
Ġcase,Ġ armorĠbackĠcover
.4 mm
as ol
Ġ3 1
f oundation
eĠb ath
Ġsweatshir t
open er
3dĠwhit eĠ
Ġquartz ĠwatchĠwith
Ġlac e-up
sho esĠb
),Ġ 5Ġuk
c akeĠtopp
ver n
Ġs addleĠ
ari sĠwomen'sĠ
ins ulation
Ġn ok
Ġd rilledĠ
Ġco ck
Ġ amb
eĠw oman
sĠgif tsĠ
Ġro ut
sĠb y
b uffalo
sĠc rossĠ
]Ġbanknote,Ġ austri
Ġtech niqu
fess ion
ever ag
yĠg arden
Ġk no
Ġm 4
eĠwallĠar tĠprin
d 2
tĠcol lection
jo b
eĠwhit eĠ
,Ġk haki
eĠp antsĠ
embellish edĠ
Ġsnow man
phil ip
Ġlim itedĠedition
Ġgho ul
miz uno
Ġj r
22 6
u sĠg
aw ayĠ
Ġm 8
il lusion
mountain Ġbik
p as
h s
ins ulated
l endĠ
sĠdress esĠ
x 35
sĠh eavyĠdutyĠ
f k
wedg eĠsandal
p il
setĠ 4
Ġstation er
Ġ2 mm
Ġf rost
ent ry
you'reĠ lookingĠatĠanĠawesom
raybest o
ĠandĠ other
Ġsystem s
valveĠ stem
c ag
x 200
sĠ20 20
dani black
p ag
/black /
abri el
ersonal izedĠ
yĠb rak
sĠslip per
2x Ġrear
j amesĠ
3 Ġpc
Ġ100 mm
f oo
eĠs ail
Ġtap estry
Ġs 20
Ġrest aur
t unic
Ġhom e
Ġcup cak
s,Ġ 12
mmĠzinc ĠplatedĠ
,Ġm adeĠin
Ġis land
tĠp lastic
eĠc abinetĠ
19 79
chron ou
s ix
Ġ199 5-
40 9
Ġ1.5 l
),Ġ 7Ġuk
et to
nitrileĠ rubberĠo-ring
18 9
r 1
ri f
br anch
Ġadhesiv e)
eĠg litter
Ġonward sĠfrontĠdisc
n umeric_
quar ter
Ġs amp
20 pc
Ġqu art
Ġnam eĠnecklac
s) Ġ-
rout ledg
Ġnut sĠm
le at
ĠscreenĠprotector Ġfor
tĠw arm
ak e
Ġgirl sĠbedroom
Ġf az
f .
z c
writ ing
k ell
larg e,Ġ
h ab
v l
ĠpendantĠ necklaceĠ
Ġen ter
Ġs ag
es ho
Ġ1 15
- jersey
sĠs weatshir
Ġimp act
Ġtablet s
piec esĠ
Ġto eĠ
Ġoil Ġseal
cap tain
Ġher itag
-bl k
Ġloaf er,Ġ
tenn isĠ
Ġho bb
Ġtw ill
li a
Ġin fant
Ġt id
ĠansiĠb 18
Ġpag es
57 4
Ã £
i letĠ
lant ic
ĠstickersĠdecal Ġbreakthrough
new ĠgenuineĠ
Ġf ar
Ġwrist bandĠ
tĠd ecor
fitĠ for
Ġtre atĠ
Ġch art
Ġ( 7
ĠiphoneĠ 8
emb erĠ
Ġdi eĠcut
w s-
ĠhondaĠc br
g lam
zz iĠwomen'sĠ
lat in
Ġ& Ġ2
ĠsquareĠframedĠ wallĠartĠ16x16Ġin
Ġblu e,
Ġsp her
2000 -
Ġclutch ĠkitĠfor
act usĠ
marcoĠto zziĠwomen'sĠ
Ġcoffe eĠcup
ey ebrow
Ġs low
32 7
bb erĠd
Ġofficial Ġmen
ĠswordĠ artĠonlineĠ
al cohol
ĠholderĠ &
novel t
alloyĠwheelĠmakĠk assel
mm Ġdia
tech nolog
Ġ199 4-
eĠmon itor
hand heldĠ
f ri
Ġv isĠ
Ġp j
Ġmen âĢĻ
Ġtungsten Ġcarbid
Ġbook mark
yĠp ain
k raf
er Ġmen'sĠ
eĠw orldĠ
ĠnonĠslipĠrugĠmatĠ elegantĠphotoĠcarpetĠ
120cmx180cmĠ(47.2 ''x
m 4Ġm5Ġm
120cmx180cmĠ(47.2''x 70.9'')
yĠb ead
Ġn ow
Ġsing leĠb
ĠhandleĠ for
1 a
, Ġcharcoal
eĠt w
yellow Ġgold
Ġal cohol
rf idĠb
i Ġb
yĠp er
-m edium
grey )Ġ(
ess ay
asic sĠwomen'sĠ
if y
men t,Ġ
Ġc atĠb
Ġbutton Ġdown
, magnetic
c akeĠtopper
Ġ Ã¸
Ġm 2Ġm2.5Ġm
tĠ/ ĠhoodieĠ(
Ġh ay
ĠmachineĠscrew Ġbolt
eĠp ark
Ġrec tifi
ingĠ up
mentĠ andĠ
p uff
oil Ġseal
Ġj erse
handmad eĠ
min tĠ
Ġke yĠb
andreaĠcon tiĠwomen'sĠ
Ġpant s
Ġh l
veĠb yĠn
ĠwallĠmuralsĠwall ĠstickersĠdecalĠbreakthrough
Ġlo ad
d Ġsedan
av al
Ġf awn
,Ġ 34
Ġbead edĠ
octav o)
th eĠcon
Ġp and
al yp
Ġdin Ġ912
ver o
- Ġbrown
vinc entĠ
Ġr ul
tra stĠ
bo tĠ
6/5/4/3/2 /1
di vin
'sĠ guideĠto
Ġst air
eut ic
genuin eĠb
ros grain
Ġlow er
Ġk itĠb
]Ġbanknot e,
Ġa e
que ez
s âĢĻ
Ġte eĠ(
cooldek Ġclassic
ater pillar
yĠhand mad
Ġtoddler /
esĠs et
Ġsch oll
eĠw ar
Ġplan tsĠ
rub Ġscrew
women &#39;
eĠg un
Ġav ail
fil terĠ
on eĠp
Ġ1 )
yĠf itĠ
eĠn a
Ġser ratedĠ
p ublic
harryĠpot terĠ
Ġav antĠ
ell ar
Ġblo odĠ
kitĠdipstick ĠforĠf
rockportĠ men'sĠ
brakeĠdisc Ġrotor
veĠbyĠn tk
tĠin itial
orch idĠ
w veĠbyĠntk
imm un
Ġp a
eĠandĠ theĠ
''x 35.4
trac tion
ĠforĠmerced es-benz
''x35.4 '')
750 ml
francoĠsarto Ġwomen'sĠ
h ing
Ġhi ac
al anc
c cess
thĠanniversar yĠ
Ġgu zzi
fruitĠofĠtheĠloom ĠmensĠ
Ã©nÃ© riqu
Ġem ergenc
j ig
4 xl)
bleĠc anvasĠwallĠartĠpictureĠprintĠva
cm* 200
Ġop tion
otter box
ligh thous
eĠp uĠleather
Ġskir t-
andĠ ring
tĠc am
w etĠ
Ġcoast al
ĠsamsungĠgalaxyĠs21 Ġultra
eĠsc ienc
wel com
0 1-
Ġst ir
Ġri vetĠ
eĠwomen sĠ
Ġw ars
Ġs ouvenir
Ġseal ĠrebuildĠ
lifest rid
/8 /10
al fi
on ia
friend ship
eĠ jewel
sĠ( packĠof
- red
Ġ2 .7
oliv ia
+ self
yĠ x
z an
Ġx tĠ
Ġ19 78
in 1
er Ġtrk
ĠleavesĠ wallĠmuralĠwallpaperĠ
Ġe z
erĠdog Ġcollar
gre yĠmarl
sh rink
Ġ14 mm
Ġcar ol
eal ableĠ
cragh oppersĠ
petĠ dog
Ġc ulture
s,Ġ dark
Ġd ev
Ġsun shad
Ġfor ĠtheĠ
durable +self
/whit eĠ
Ġfaux Ġleather
),Ġ 4Ġuk
durable+self Ġadhesive)
vinyl( durable+selfĠadhesive)
i eveĠ
in visibleĠ
tĠg rip
Ġ15 ml
eĠb alloon
ff ic
Ġtor x
60 1
prop ylen
lop edia
Ġm op
Ġalfa Ġromeo
? ?
eĠ steel
k r
Ġg mc
tĠblu e
Ġdipp ingĠp
Ġb Ġus
ĠhondaĠc rf
h ssĠ
etsuĠnoĠya iba
Ġstud entsĠ
Ġto ĠsuitĠ
otter Ġpin
eĠc offe
Ġcustom ĠfitĠ
lumin ou
Ġf alseĠnail
i ledĠ
Ġclo sure
Ġn ap
ro tor
rel ation
Ġgre enĠp
Ġ10 2
Ġstr ut
eĠre action
lim at
acdelco Ġ45
eĠw aterĠ
Ġ18 .3
Ġs y
pl ant
gra yĠ
ableĠs il
m3 Ġ(3mm)Ġx
Ġhous eholdĠ
Ġp enguin
dr. Ġscholl
sĠp op
geoxĠwomen'sĠ dĠ
m ess
genuineĠhonda Ġ8
john n
ĠwindowĠfilmĠprintĠstickerĠclingĠstainedĠglassĠuv Ġzoe
Ġstar ry
Ġ ergonomic
Ġch ampagn
eĠsil k
Ġvol tag
Ġ10 5
Ġ0 3-
5 /8"
Ġair plan
wes fil
ac on
Ġfor ĠkidsĠ
edĠc omfor
eĠm akeup
Ġtr ick
''x 78.8
140cmx200cmĠ(55.1 ''x78.8
eĠf loor
eĠw ick
140cmx200cmĠ(55.1''x78.8 '')
eĠs neaker,Ġ
Ġp ari
yĠp lastic
Ġbel tĠfor
sĠm x
Ġn et
sĠst rut
it iv
tenn i
Ġlin esĠ
sho es,Ġ
shir t,Ġ
Ġc x-
s elf-
etĠ ring
2Ġpack ]
a Ġto
ether land
14 )
pu zz
ston e
kne eĠhigh
7 30
Ġcover ĠcaseĠfor
,Ġ1 "
sĠb utton
m em
icyc leĠb
alog ic
ĠseriesĠ 1
Ġfor Ġvw
Ġsc raper
eĠg ym
ric al
costum eĠ
Ġabsor b
ril li
Ġwith Ġ3
Ġs ump
? ĠbyĠ
g 0
eĠcolor ful
ne verĠ
Ġscrew s
f og
Ġh ea
Ġam ber
dek Ġ.42mmĠbmtĠtopsideĠcolour
is lam
Ġcer tifi
edĠf inish
ĠandĠ t
ra el
Ġ(3 .5
necklac esĠforĠwomen
vor Ġmitchell
"ĠneckĠ- Ġmedium
raw ing
Ġc lassĠ8.8
-d ut
Ġsho eĠ(black
Ġf ibr
ali en
ĠshifterĠ 23ĠswanĠ
ĠshockĠabsor ption
ch ief
eĠp at
oc top
bi otic
Ġmic ron
Ġfin ding
eĠc uff
erĠn ail
Ġsweater ,Ġ
Ġp .
20 cm
kid 'sĠ
in er
Ġmodel sĠ
edĠf ishing
Ġtim e
sĠd ecorativeĠ
yĠs ock
illi ams
eĠc opper
ac ordĠ
Ġx box
ew al
sm artĠ
memor ial
bro ther
os si
1 -s
i erc
-b andĠ
Ġsn akeĠ
ch and
sĠf leec
eĠb rassĠ
atch ing
etĠs ustain
Ġj ul
Ġm is
sĠp upp
ang ele
small )
k aĠdot
/ r
200 1-
m and
- Ġsilver
Ġ6 1
Ġsucc ul
-p urple
sĠfor Ġbmw
rap idĠ
Ġpost erĠ
Ġb ill
Ġsheet sĠ
ĠaccessoriesĠ (
rap id
sĠh ypoallergenic
(black /
medium )
spir ation
10 Ġpack
tri scan
,Ġb ras
ant ag
yĠw aterproof
Ġshoulder Ġstrap
Ġseason Ġ1
Ġ4 dr
ador ableĠ
off in
s im
Ġj erseyĠ
Ġ8 x18
p .
el bourn
3dĠ lak
eĠs ecur
Ġr ust
Ġcn 225
Ġre turn
m6Ġ(6 mm)ĠxĠ1.00
Ġmp 3
alog en
et nam
b ir
Ġyamaha Ġyz
Ġfor Ġoutdoor
ĠquiltĠ coverĠset
Ġn ik
Ġli v
ĠstainlessĠ 304
Ġslid esĠ
Ġpass engerĠsid
sp ider
sĠd ark
us ical
yĠt r
Ġpow derĠ
eĠ vinyl
illi ardĠ
head band
fla tĠ
au v
Ġliqu id
Ġpart yĠsuppliesĠ
3 ĠinĠ1
erĠh ook
ch e
f ry
s qu
gasket Ġset
Ġr hodium
da yĠb
Ġgif tsĠforĠwomen
Ġanti -f
s 0
Ġ2002 Ġ2003
Ġ+Ġn etĠsustain
eĠc ub
il letĠ
Ġlin er
i e'sĠ
war mĠ
Ġi ĠloveĠ
Ġm l)
land cruis
j ogger
sĠb ow
Ġcity scap
tĠc up
Ġb inder
,Ġ2 60
ideĠ leg
tag on
hex ĠboltĠm
blu sh
Ġcap tain
ĠforĠd ucati
Ġj ustic
iz edĠp
2 90
ab c
lin ing
transf erĠ
ed ,
Ġmart ingaleĠdogĠcollar
Ġco ax
eĠs uit
Ġst ad
Ġsn ook
eĠ( black)
b .
d eb
van illa
a Ġk
sĠp ortableĠ
-th e-
11 10
Ġgra di
Ġ-Ġblack Ġ-
Ġsk yĠblu
map co
pi ercedĠ
Ġh oney
Ġdoor Ġmural
s at
umm ing
Ġx Ġ90
ott en
00 8
4 Ġ-
Ġh di
ine appleĠ
co as
Ġspir it
eĠsof tĠ
in tern
Ġslid esĠs
sĠ theĠ
rh ino
Ġ( green)
lightĠb rown
Ġwhit eĠt
Ġf t
mo therĠ
Ġpo intedĠto
eĠf lu
''x 94.5
''x94.5 '')
160cmx240cmĠ(63 ''x94.5'')
Ġposter ĠprintĠ24x20"
,Ġblack ,Ġmedium
Ġsoft Ġsol
og ram
crow Ġcam
Ġeng ravedĠ
lu sterĠ
Ġon ĠtheĠ
Ġfresh en
Ġseas id
3dĠfor es
lav end
Ġcapac ity
Ġsoft ĠsiliconeĠ
''x 23.6'')
qu enc
-slee vedĠ
40cmx60cmĠ(15.7 ''x23.6'')
raf ting
ele st
eĠbalanc edĠ
Ġunf ĠxĠ1
eĠch eck
s weatshir
us ion
sĠs lim
alloyĠwheelĠoz Ġrac
m r.
Ġmf c-
ifi erĠ
Ġs 10
cooldek ĠcorrugatedĠ
est ro
Ġs onic
encyc lopedia
res id
Ġd inner
tĠb ook
Ġiphon e
Ġ& Ġoutdoor
eĠf ishing
or eĠblack
sh arp
l yĠ-
, Ġstamp
Ġdoc tor
2 g
d dĠ
17 3
trotter sĠwomen'sĠ
Ġh usqvarn
adjust able
38mmĠ 40mmĠ42mmĠ44mm
le av
26 6
m 5Ġm
Ġe f
Â ¼
Ġ& #
mmĠzinc ĠplatedĠsteel
h art
c utter
a 01
Ġ5 3
st ain
Ġpitch ĠmetricĠfin
Ġwhit e/black
ai ledĠ
eĠp iercing
inser t
! !
Ġx Ġ25
âĦ ĥ
m ish
ray on
ai hatsu
out erĠ
sp Ġtool
s,Ġ redĠ
w en
puma Ġwomen'sĠ
Ġb sp
Ġn ex
lut en
int ellig
harryĠpot ter
eĠh er
eĠs ol
sĠs neak
ig u
eĠph il
tp -link
gu es
Ġand roidĠ
sĠw /
v amp
n r
kennethĠcol eĠreaction
r attan
ex am
t :
b yĠb
a ub
Ġsecurity Ġscrew
,Ġp erfec
Ġemb ellish
bol tsĠ
ĠsneakersĠ for
Ġ2 80
eiff el
enn y
Ġf tĠ
ĠquiltĠcoverĠsetĠbeddingĠsetĠpillowcasesĠ 3dĠbedĠpillowcasesĠquiltĠduvetĠcover
prin c
ĠstretchedĠ&ĠmountedĠcanvas ,ĠdarkĠoak
.925Ġsterling Ġsilver
underĠarmour Ġmen'sĠ
walle tĠ
int ak
edĠb ead
cre di
rang erĠ
enz o
el metĠ
30 9
1/ 10
Ġmer maidĠ
ĠforĠh ar
Ġi re
Ġsh ooting
no c
out sid
racele tsĠforĠwomen
pan ĠheadĠphillip
alloyĠwheelĠozĠracing Ġsuper
Ġafter p
ayĠ available
sĠg el
Ġafterp ayĠ&
ra dor
Ġd riverĠ
eauĠdeĠtoiletteĠsp rayĠ
z ircon
lin da
-t rimm
Ġ ivory
Ġgo gh
-Ġblack Ġ-
Ġh awk
Ġair Ġin
Ġzipp ayĠavailable
ĠafterpayĠ& ĠzippayĠavailable
aller ina
littleĠkid /bigĠkid
uc alyp
mon ro
Ġs atchel
mm) )
Ġmen sĠt-shir
oug la
ac terĠ
eop le
Ġmicro phoneĠ
b estĠof
mint ex
eĠn ot
Ġ200 7-
50 6
sĠbig Ġkid
yĠ 1
a q
eĠh ydraulic
60cmx90cmĠ(23.6 ''x35.4'')
illi an
uc c
ef in
ar ag
sĠc atĠ
yĠh ead
eĠs n
ens landĠ
k ins
vinc eĠcam
,Ġs un
ĠfrontĠ andĠrear
, Ġmo
fold ing
''x 47.24
joint Ġspi
Ġdisc ĠbrakeĠpad
eĠb yĠn
''x47.24 '')
ĠcdĠ -Ġnew
Ġpl ann
re el
80cmx120cmĠ(31.4 ''x47.24'')
ĠroadĠ bik
cap ric
u tĠc
co urs
2 34
Ġprom iseĠring
Ġsilver ĠplatedĠ
,Ġblack Ġ(black
lim ation
Ġrunning Ġshoe,Ġ
ett e
- Ġb
,Ġ11 .5
rap book
gre yĠs
Ġcell Ġphon
Ġox id
exper ienc
ĠshifterĠ( th
Ġcord lessĠ
ĠmensĠfunn yĠweddingĠanniversar
urp oseĠ
Ġ Ġ#
Ġand re
bab yĠgirl
v 6
edĠb ar
Ġt owerĠ
eĠm ic
luck yĠbrandĠ
Ġh im
Ġcon version
ch ino
eĠch ang
Ġbe et
Ġof ĠtheĠworldĠ
s even
Ġwonder landĠ
to ĠsuitĠ
er :
),Ġ 6.5Ġuk
ĠstretchedĠ&ĠmountedĠcanvas ,Ġno
qu art
uel Ġpump
_ 3-
Ġ19 81
Ġflip -flop
eĠp ocket
3dĠhandĠ paintedĠ
Ġsupp le
eĠc ur
Ġwhit eĠsize:
yĠ hous
eĠc utter
,Ġp lastic
bo hemian
po dĠ
ed an
tĠprotec tion
blueĠprin tĠ
Ġblack ĠandĠ
1- 1-
tĠp lug
]Ġfrance, Ġtoken
8 x
re bel
59 ''x
a esthetic
Ġto ile
Ġv 56
espri tĠwomen'sĠ
sĠm ad
estĠ hit
Ġallen Ġscrew
Ġprint ed
w ip
theĠ littleĠ
ĠshortĠsleeveĠ t-shir
Ġtre atedĠ
Ġ-Ġ1 "
g ran
Ġan t
Ġor b
rat ing
Ġnc Ġ750
et edĠ
eng ag
10 "
tĠc loth
ist ryĠ
h asting
tĠf rom
Ġ5 /16
Ġd aint
Ġhandmad eĠ
Ġis su
Ġb yĠsh
s,Ġ 1
- 28
metalgearĠbrakeĠdiscĠrotor ĠfrontĠl
- sp
sĠm itsubishi
in ox
- Ġ2
Ġlo oseĠ
Ġbrak eĠpadĠ
0 .6
work ing
ĠstorageĠ rack
Ġcollection Ġ-
Ġsheep skin
ul la
ĠwallĠartĠcanvasĠprin t
sĠc lip
iaĠ4 Ġv56
Ġtravel Ġmug
Ġv eg
b risban
Ġg rac
4 ĠpiecesĠ
Ġmemor y
shir tĠ-
Ġruff leĠ
"ĠneckĠ- Ġlarge
p ear
sĠ air
body con
Ġsqu eez
sĠgif tĠ
Ġsilicon eĠcas
hÃ¶ gl
giviĠcas eĠmax
giviĠcaseĠmax iaĠ4Ġv56
) Ġstamp
Ġswimm ingĠpool
ersĠ nrl
18 1
osterĠ homeĠdecor
3d Ġs
ĠpackĠof Ġ10
Ġw avesĠ
,Ġ2 Ġpack
kitĠfor Ġf
thread edĠ
6- 10
Ġt 5
Ġmen &#39;sĠ
Ġdis cover
puma Ġunisex
wind proof
ĠstainlessĠsteel ĠssĠ304Ġa2
ĠanimeĠwallĠmural sĠself-adhesiveĠvinyl,Ġxx
z oo
316l ĠsurgicalĠsteel
yĠp ower
jack Ġwolf
b os
ĠwallĠartĠ( yellowĠstampedĠaluminumĠstreetĠsignĠmancaveĠ
p riv
p alm
b urgundy
Ġc rf
Ġb p
,Ġw ash
24 7
sĠg o
Ġspac er
Ġ2004 Ġ04
vi ol
Ġw ak
jackĠwolf skin
th irdĠ
yĠh ors
e 0
Ġ& Ġloop
mmĠn br
,Ġ ros
zz ling
Ġeleph antĠ
.3 "
eĠbol tĠ
tĠc ableĠ
Ġwhit eĠs
Ġsp ur
2 21
Ġbrush esĠ
ĠstretchedĠ&ĠmountedĠcanvas ,Ġblack
Ġsoc c
b g
Ġhe ater
Ġb ollywoodĠ
p ray
colour :
ask a
Ġpiaggio Ġ50
ingĠb ar
pol y
new ĠzealandĠ
Ġwedding Ġring
Ġcolour s)
el en
funko Ġpop!
level andĠ
Ġskir tĠ
Ġstat esman
al in
Ġgs x
Ġdist ributor
eĠsh ell
Ġeas yĠ
Ġaudi Ġa4
two Ġlip
u sĠf
/whit eĠ-
eĠsh ortsĠ
Ġd eser
ĠfrontĠs ump
,Ġ 100%
Ġ3 ĠseriesĠ
co bal
et tleĠ
eĠsp ort
bac co
Ġx 2
eĠd etail
Ġcur vedĠ
a itĠ
super pro
eĠb rew
eĠsh eetĠ
m8Ġ(8 mm)ĠxĠ1.25
Ġswim suit
),Ġ 8Ġuk
b rem
ather ineĠ
ĠjewelryĠ (
edĠp art
19 76
s, Ġmedium
s neaker
Ġre sc
a im
Ġed mond
Ġmacbook Ġpro
Ġser ial
ismĠ in
Ġbracele tĠfor
athem atical
p um
eet ah
c f
Ġimp ac
u lu
d rillĠbitĠ
Ġg hos
Ġdi or
let 'sĠ
Ġx Ġ70
sĠc an
Ġnovel tyĠ
erĠd esk
Ġnav araĠd
eĠ 50
Ġ( green
ĠbyĠ ralphĠlauren
yĠf lowerĠ
etric Ġcoars
gre ssĠ
w or
reli giou
yĠ animal
u tĠb
engin eer
ĠanimeĠwallĠmural sĠwovenĠpaperĠ(needĠglue),Ġxx
Ġcraf t
Ġtra yĠ
Ġribb edĠ
l ark
g /0
Ġhigh Ġperformanc
Ġic eĠcream
c ultural
Ġlearn ing
fess or
h )
Ġsho uld
,Ġc ream
ĠbandĠ for
as ian
eb b
Ġi .
st uff
whit e)
Ġf mx
kswagenĠp ass
emp ir
( f
at mos
sol sĠwomens/ladiesĠ
le vi
- queen
Ġfas ci
ear Ġplug
Ġallen Ġblack
heavyĠdut y
nut rition
Ġ/ Ġa
mmĠ /
ĠsamsungĠgalax yĠtab
us edĠfor
Ġeleg antĠ
innieĠ mous
Ġtig er
sĠfor Ġscooter
comm unication
erĠc lip
-endĠ plug
ct ure
mad eira
Ġsist er
em ann
Ġn ano
eĠgif tĠ
Ġplan etĠ
n ativeĠ
art on
Ġfull -
di aper
Ġ2 60
- ch
ĠphoneĠcas eĠcaseĠtype:
plated ĠstainlessĠsteel
bur gh
eĠsh arp
sh ower
ĠxĠ2 3.6
Ġsh awl
Ġclip per
lim itedĠ
sĠsiz e:
flip Ġflop
Ġele gan
Ġref rigerator
Ġv as
ĠshoesĠfor Ġmen
erĠg las
ubic-zirconia ,
eĠ ankleĠboot
3dĠ flower
Ġins ec
Ġf idgetĠ
b m
Ġqu ant
sĠ angele
Ġt emplat
ill on
- dĠ
ey ewear
regatta Ġwomens/ladiesĠ
sĠth atĠ
ĠhoseĠ endĠ
Ġs 4
Ġwe ight
sh ortĠ
ĠsmallĠto Ġlarg
omp son
ies :
Ġguid e
emb lem
Ġorganiz erĠfor
v ik
apph ire
scot ch
Ġm ol
Ġ ur
ed er
vari ousĠ
evcĠidriveĠthrottleĠcontroll er
ead ow
j im
w Ġus
3dĠb rown
quiltĠ coverĠset
aĠh istoryĠof
Ġin formation
Ġlip o
eĠw ais
eĠpart yĠdecoration
eĠd oll
Ġsandal s,
atter yĠ
par allel
Ġm14 Ġm16
s neak
7 ĠmĠus
,Ġblack,Ġ large
eĠs lid
regatta ĠmensĠ
200 5-
3dĠbusines sĠwallpaperĠ
Ġfor Ġtriumph
an Ġblack
,Ġ 500
Ġcam ouflag
replac ementĠp
sĠs chool
pro tex
eĠsp or
eĠb ak
Ġbo th
eĠd ress
ĠpetĠ leash
ross bodyĠbag
Ġadjust ableĠs
Ġda ith
sĠs uzuki
ĠroundĠ headĠ
wallĠar tĠ(
rec iation
leĠbar -endĠplug
plat eĠ
,Ġ x
dr.Ġscholl 'sĠ
mon itor
Ġbat tleĠ
Ġman ag
Ġel bow
tĠf abric
30 b
oz )
Ġh erĠ
Ġhold erĠb
th ĠbirthdayĠpart
Ġmacbook Ġair
sĠfil m
Ġsc rubber
duvetĠ coverĠ
Ġgu inea
Ġun framedĠ
ord erĠ
Ġp ap
70 1
ĠbyĠp aul
red )Ġ(
en Ġ&
Ġ1/4 8
Ġblack ĠframedĠ
ĠsoftĠp lastic
Ġtr ansm
u itĠb
Ġrear Ġax
easy ĠspiritĠ
ar Ġfasci
tĠd ecoration
ĠsizeĠ 12
add ario
lutch Ġlever
f s
pro jectorĠlampĠmoduleĠfor
aw ar
Ġpol oĠshirtĠ(
Ġd '
ĠwallĠsticker sĠwallĠmural
eĠch arg
Ġsolitair eĠring
Ġwith Ġblack
th oma
Ġ1 75
g ig
ĠprotectiveĠ coverĠfor
americanĠshifterĠ 38
a ic
end uro
,Ġc offe
i j
Ġv ill
h oseĠ
/c d
Ġf le
Ġcard sĠ
Ġshak espear
Ġoh v
yĠf leec
uk on
Ġhous eĠshoesĠ
y,Ġ andĠ
Ġper spectiv
te e
eĠg lassĠ
k ymco
abin et
Ġar ea
eĠg emston
Ġg sm
Ġfor Ġkitchen
rug Ġcultur
amp lifi
col leg
Ġ- ĠmenĠ-
tĠp endantĠnecklac
b umper
ulloverĠ hoodi
: ĠtheĠm
100 mm
y oko
etĠp icnic
v 2
Ġg over
Ġs election
Ġther momet
Ġwork shop
zo om
craf tsĠ
water color
Ġthick en
Ġlarg eĠcapac
35 00
Ġwinter Ġwarm
Ġ ugg
y v
sid edĠ
and ex
ing Ġyour
Ġst rang
anĠ american
f at
plan etĠ
yĠb ody
eĠ library
Ġgrand ma
d mi
ric ia
Ġf ragranc
, Ġsilicon
tokyo Ġghoul
Ã ł
ed -
Ġg allon
,Ġblack ,Ġsmall
ty reĠ
low Ġtop
eĠc lassĠ
Ġ00 1
lightĠb ar
fĠ50 +
ugeot ĠscooterĠ
Ġk ind
Ġvo ic
ri ssĠ
b eadĠ
ĠfrontĠdisc ĠbrakeĠpad
Ġsand paper
jewelryĠgif tsĠforĠwomen
13 )
90 1
del phi
lan tsĠ
250 f
,Ġblack,Ġ 10
d us
et im
Ġno is
,Ġs ch
quo iseĠ
ais le
Ġpair Ġof
om br
sch ino
Ġm 5Ġ(5mm)Ġx
multi -
Ġresist an
sĠblu eĠ
am mock
fram edĠprin
fig ur
s, Ġmetal
Ġrear Ġview
7 /16"
Ġcomp atible
Ġm 5
ĠappleĠwatch ĠseriesĠ
bal anc
Ġstitch ing
ul can
200 6-
Ġcomm unication
Ġtv ĠremoteĠcontrol
f b
Ġc ooperĠ
eĠf an
riv nutĠ
Ġtor ch
s andĠ
Ġ9 3
sĠt ur
Ġsh eer
rib ution
,Ġblu e)
eĠs elec
con st
6 000
refill ableĠ
Ġtough Ġcase,ĠphoneĠmodel:
jo yĠ
Ġ2006Ġ06 Ġ2007Ġ07
Ġ+Ġside-casesĠ v
,Ġ or
Ġch ino
eĠsetĠ with
am mer
c in
rep lay
sĠt ri
imp son
p ec
Ġshoelac esĠ
Ġmini atur
sid ian
wedding Ġring
col lec
Ġti en
leg Ġjean
f inderĠ
siz esĠ
Ġcomp lex
Ġs oko
h yper
con utĠ
Ġsign atureĠ
la undry
ondaĠc b
ultra -thin
eĠ kitchen
ireĠ dia
Ġwhit eĠframedĠ
theĠs ecre
Ġnok ia
v ehicleĠ
sĠslip -on
Ġb uff
- i
z ok
Ġf irs
, ĠsuitableĠfor
30 a
Ġb ang
Ġthe ir
Ġboo stĠ
tĠb rak
,Ġblack,Ġ 8
Ġ60 cm*
yĠs ea
uv Ġprotection
w rang
Ġn ar
Ġbolt Ġstainless
Ġ ''
leftĠ or
n t
ĠmulticolorĠdecorativeĠmdfĠpainting Ġ(3Ġpieces)
42 mm
ith Ġ&
eĠl ength
y le
Ġs add
yĠw ear
eĠf itsĠ
Ġusb Ġcharg
blu eĠs
os al
ez on
ĠfleeceĠblank etĠpicnic
3 .2
(whit e,
Ġplush ĠfleeceĠblanketĠpicnic
mo thersĠ
app li
eĠmasterĠcyl inderĠ
Ġon e-
, for
Ġcer tific
Ġex cel
k angaroo
eĠsk ull
e,Ġ x-large
Ġprin tĠpainting
Ġwomen'sĠ casual
eĠp en
allen Ġedmond
Ġdesign edĠfor
ĠxĠ1 .5
ule leĠ
ud guardĠ
t attoo
Ġ60cm* 40cm
sĠc or
ro id
tĠf lip
Ġ1 11
quar iumĠ
roundĠ to
ear phon
mosa ic
eĠbo atĠ
ĠframedĠp osterĠhomeĠdecor
Ġ0 .6
Ġcuff link
Ġr and
ist erĠ
ĠframedĠposterĠhomeĠdecor ĠprintĠpainting
inclu deĠ
ity )
daniblack Ġwomen'sĠ
Ġps 4
ham mer
Ġhex ĠheadĠboltĠ
ag ram
Ġfron t-
Ġm ot
ĠwallĠmuralsĠwallĠstickersĠdecalĠbreakthrough ĠajĠwallpaperĠau
ĠmarineĠgrad eĠstainlessĠsteel
sh e
erĠ hom
yĠt al
y Ġcolor
yĠb rown
fin der
tĠfil ter
Ġd ock
yĠ jewelry
Ġle verĠ
in umĠ
p add
Ġlu men
Ġco aster
yĠ kid
Ġd iction
fit nes
eĠ 16
premiumĠ ignitionĠcoil
b w
da wn
americanĠshifterĠ 49
Ġnecklac esĠforĠwomen
Ġ24 "
ornam entsĠ
ut i
/0 4
Ġbl ind
ash a
Ġsweatshir tĠ
ĠforĠaudi Ġa4
sĠ 30
ing ual
yĠc at
loaf er,Ġ
rock man
Ġheal ing
s ourc
Ġprin cip
rit or
and erĠ
eat ure
at il
3dĠ door
miz Ġm
32 3
eĠm usic
m achin
fair lan
mizĠm ooz
Ġw reath
low Ġheel
olitic sĠof
sĠj akopartsĠj
d ell
Ġ4l 60
ed -to
y rock
Ġtrain ers,
50 8
Ġ leĠ
Ġinch es,Ġ
sĠ ring
yĠgu id
extra Ġlong
xx x-large
32 9
av ior
Ġoc casion
6 20
bracele tĠ
Ġmad e
d iction
Ġt ac
Ġmatch ing
war e
Ġd ell
Ġp rong
y er
Ġa k
Ġoutland erĠ
Ġcounter top
racott a
s ew
ig ration
Ġmulti function
Ġ6 Ġpack
Ġb 5
Ġdisp layĠ
pro duc
on Ġnail
3d Ġston
Ġtap eĠ
/ 17
re ast
g antĠ
Ġlo tion
um ent
ump erĠ
50 pc
ligh tĠf
ec om
j ell
ass engerĠsid
bellaĠvita Ġwomen'sĠ
og ramĠ
anvasĠwall Ġart
Ġcad illac
Ġsneak ers
Ġin flatableĠ
ĠxĠ3 00
,Ġ 1-
Ġhand guard
pol ic
charg e
ber tĠ
le sĠp
p owder
Ġim pro
Ġfron tĠfor
t Ġsp
ĠtransportĠb chw
s, Ġc
Ġcam ryĠ
az ura
erĠg arden
Ġ7 /8
ĠkitĠ (
emboss edĠ
ew ay
Ġ( blu
Ġt s
Ġ7 991
sĠb ik
Ġc 5
Ġc add
eĠw arm
ra dĠ
el tic
it yĠg
Ġ2 xl
23 8
Ġ8 3
,Ġ anti
Ġlif estyleĠ
yd oll
k ur
Ġw or
Ġno -metal
i y
14 mm
el der
ma dĠ
iz ardĠ
anc er
3dĠ leaf
b ootsĠ
Ġm 24
Ġcur v
ol eĠ
eĠpan ĠphillipĠmachineĠscrew
Ġ6 2
tam arisĠwomen'sĠ
Ġcoup ling
Ġnovel .
tĠwheel Ġbearing
b rightĠ
ingĠ endĠcap
e ]
Ġr ca
bu ret
Ġwomen sĠf
es ,Ġs
ap ex
-plat edĠ
s mok
isĠ &
naturalizer Ġwomen'sĠ
Ġ ang
Ġresist anc
eĠp rop
m atic
Ġr x
Ġw hol
ĠtennisĠ shoesĠ
İ âĢĵ
o bb
estruc tibleĠ
s ingle
Ġscrew Ġtapper
Ġsnap Ġcase,ĠphoneĠmodel:
Ġ ultimat
in -tank
be ech
Ġfit tedĠ
aghetti Ġstrap
11 -12
ĠslotĠm achineĠscrew
lu lu
yĠgif tsĠforĠwomen
Ġf ireĠ
espadril leĠ
do dg
e: ĠtheĠ
ou tĠm
eĠb owl
Ġonward sĠrear
ibb ean
Ġc entral
Ġ3 x
er r
cm( 102
yl ind
3dĠ lotu
e,Ġ 1
a el
on aldĠ
eĠm ad
imp act
1/4 8
,Ġ260 cmĠxĠ150
fl am
nineĠw es
cm(102 .3''
,Ġ260cmĠxĠ150 cm(102.3''
ĠxĠ59 '')Ġ(wxh)
,Ġ260cmĠxĠ150cm(102.3'' ĠxĠ59'')Ġ(wxh)
Ġ( 9
Ġcsk Ġflat
ĠfrontĠbraid edĠbrakeĠlineĠ(carbolookĠhoseĠ&ĠstainlessĠ
tĠb utton
:Ġhow Ġto
- Ġpurple
25 9
twoĠlip sĠwomen'sĠ
argar etĠ
ĠthreadĠ diameter
10 80p
altern ator
Ġh amm
s ink
rides maid
Ġfil mĠ
,Ġh eavyĠdut
m ooth
le o
b ri
- roadĠ
ĠmotorolaĠm otoĠg
oll en
aĠc lau
Ġ60cm*40cm Ġset
Ġd ead
yĠc and
tra y
ne st
Ġtt ĠsparkĠplug
yĠd oubleĠ
sĠ upĠto
aut om
u leĠ
Ġr da
Ġ- ĠtheĠ
eĠsh ipping
/ 99
sĠs upp
prem ierĠ
u tĠm
Ġor Ġrear
russ ia
Ġ1 k
Ġ75 cm*45cm
sĠm edium
b yĠt
Ġspinn ing
Ġcas esĠfor
Ġt .
comp Ġcam
Ġgif tĠ(
m ing
vero Ġmoda
Ġcar ly
20 x
theĠc ambridg
l tdĠ
Ġc opperĠ
ra ven
ĠstickersĠdecal sĠj
3dĠblu eĠsk
arth ur
war eĠset
Ġh w
er ino
Ġber lin
yĠp ump
quant um
Ġpain tedĠ
res s,Ġ
Ġpet it
yĠst yleĠ
Ġ0 .3
,Ġm ini
orn ing
Ġoffic eĠdesk
Ġtien ha
sĠ au
ĠadultsĠ andĠ
n b
le sĠd
Ġ1 55
m ol
eĠst ring
r -
Ġplat eĠ
c ity
v w
tĠ 5
eĠhos e
Ġsty leĠb
sĠs umm
Ġtub eĠ
dis k
( green
ex terior
m ath
g316 ĠmarineĠstainlessĠ
3dĠp aintedĠ
Ġth 350
3dĠ ocean
g on
Ġprin t-
Ġpant s,Ġ
Ġb asket
Ġtravel Ġbag
man agement
eĠp lain
ĠxĠ23.6 '')Ġ(wxh)
cmĠxĠ60 cm(39.3''
cmĠxĠ60cm(39.3'' ĠxĠ23.6'')Ġ(wxh)
,Ġ100 cmĠxĠ60cm(39.3''ĠxĠ23.6'')Ġ(wxh)
Ġ& Ġk
sĠc ook
Ġpolar izedĠ
men tĠp
Ġd ens
Ġdress esĠ(
/p urple
Ġm 6
Ġlunch Ġbox
eĠin ter
power flex
l cdĠscreen
ĠstressĠ relief
Ġc sc
Ġmar ino
in son
oc i
ipadĠ pro
uff ler
Ġp ixel
,Ġms( 65-70)
mĠ a
Ġsmart phoneĠ
exhaustĠ race-tech
jointĠspi Ġfork
19 3
eĠpol ish
Ġr ustic
11 Ġuk
erc ur
/ gold
eĠt wo
p ig
Ġ americ
fre edom
,Ġb ook
giviĠcaseĠ e
Ġrubber Ġsol
Ġflu oro
ingĠm ask
toner Ġcartridg
Ġwith Ġ4
Ġabstrac tĠwallĠartĠ#
leĠ of
2 .2
Ġkey board
ineĠ -
Ġtension Ġspring
Ġhigh Ġwaist
Ġ urn
Ġsoleno idĠ
Ġcol umn
st ressĠ
Ġwar rant
Ġv f
Ġun itĠ
ub iqu
sho eĠ
isp or
al ia
Ġh j
us on
sp oon
mw Ġr
Ġm 6Ġ(6
originalĠbulbĠinsid eĠlamp
fuel ĠfilterĠ
ba yĠs
buret tor
,Ġ180 cmĠxĠ100
Ġveget ableĠ
,Ġ180cmĠxĠ100 cm(70.8
Ġp eak
,Ġ180cmĠxĠ100cm(70.8 ''ĠxĠ39.3'')Ġ(wxh)
ell en
Ġextra Ġlarg
Ġ2000 Ġ2001
ang a
vel vet
multi functional
Ġcomp actĠ
enderĠ reveal
winter Ġwarm
3dĠ dinosaur
Ġkid s,
Ġwis dom
ab etic
yĠm aking
qu ietĠ
anthrac it
lin ic
eĠh alf
eĠc our
exp ressĠ
landĠ -
hatch back
Ġmil ano
tamarisĠwomen'sĠ 1-1-
Ġchild rens/kid
bugatti Ġmen'sĠ
f on
Ġ10 80p
d ryĠ
ul at
ĠseriesĠ 2
ass ess
,Ġ 90
sĠr da
ativ e
b yĠs
Ġros e
ign on
mentĠ in
Ġco gnac
sĠtruck sĠvan
le -
Ġart is
Ġsun flowerĠ
- ordĠ
ĠcardĠ with
Ġinch esĠ(
amp ton
Ġmin eral
:Ġa Ġnovel
eĠd enim
Ġ espresso
Ġ( packĠofĠ2)Ġ(
ul in
Ġstrip eĠ
Ġch uck
w eaveĠ
eĠg asket
,Ġwhit e)
del iver
Ġhang er
Ġen hanc
i sĠw
key Ġfob
( pink)
Ġwrist Ġstrap
tĠd in
ke vin
ĠbyĠw illiam
eĠh alloween
in fantĠ
ing Ġkit
an atom
Ġre m
unit edĠ
w ordĠ
Ġcar ĠseatĠcover
ub ble
Ġcoup leĠbar-endĠplug
for everĠ
Ġdel ta
ikingĠb ootsĠ
Ġ& Ġg
Ġ30 cm(19.7''
Ġ30cm(19.7'' ĠxĠ11.8
amp unk
,Ġ50cmĠx Ġ30cm(19.7''ĠxĠ11.8
e per
Ġedition )
fr ar
Ġanimal ĠnonĠslipĠrugĠmatĠelegantĠphotoĠcarpetĠ
eĠth rough
,Ġ50cmĠxĠ30cm(19.7''ĠxĠ11.8 '')Ġ(wxh)
kim etsuĠnoĠyaiba
Ġ30 2
shaft Ġseal
r k
Ġear phon
ist an
Ġband sĠcompatibleĠwith
.8 "
Ġpow d
nar va
veget ableĠ
do x
Ġcontrol ĠarmĠ
Ġ3 xl
ar isĠ
ley -
Ġ5 /8"
lad y
Ġr pm
Ġ16 gb
Ġc 4
Ġ9 1
eĠplat form
all Ġseason
46 b
s,Ġ 4
z x
allĠball sĠ
ew oo
Â »
ieĠ rodĠ
sĠm icro
Ġwedding Ġpart
r d
cher oke
Ġ75cm*45cm Ġset
sĠn ordĠ
com bo
Ġtop -
kn uckleĠ
ok i
high Ġwaist
Ġrot ating
Ġboot s,
tĠb oo
wal let
for t
c w
Ġ( 40
canton Ġpressur
eĠp lainĠblack
( packĠof
cantonĠpressur eĠbalancedĠ
yĠ 5
cantonĠpressureĠbalancedĠ oilĠpump
ne ill
Ġman icur
e '
Ġex haust
iston Ġring
Ġjack son
v oyag
sĠ earring
ĠdressĠ shoesĠ
Ġkey Ġfob
umm ies
Ġheadphon esĠ
Ġ1 l
Ġ& Ġ
Ġsh agg
eĠto ddler
h eal
eĠd rum
theĠw orld
ingĠm achineĠ
Ġl atin
9 "
Ġpol yĠ
x4 50
ĠfromĠ list
azura Ġexchang
v -
jo intĠ
b -
alloyĠwheelĠozĠracingĠsuper tur
war rior
Ġcas tĠiron
tĠ(black )Ġ(
og n
eĠprin ces
les son
Ġengin eering
eĠd ecal
]Ġbanknote,Ġ german
5 .5Ġuk
Ġwomen Ġgirl
m oog
e +
x19 Ġ5x120ĠetĠ
Ġst ak
roundĠ neck
sĠfor k
Ġstabil iz
Ġnon- oemĠ
fl annel
lec ular
ir en
/ yellow
ut ure
] [
25 7
Ġh az
Ġcast leĠ
j ung
mmĠ idĠ
in flatableĠ
bec u
dnc Ġhiv
s ï¼Į
vintageĠpartsĠ 7
Ġkne eĠhigh
eĠc ow
Ġ20 g
geoxĠmen'sĠ u
angu ageĠ
25 2
Ġx -large
Ġdi mm
Ġp ed
di ar
ĠsteveĠ readĠ
60 3
aw esom
du cer
eel ong
tĠp lush
tĠw indow
con fetti
q l
ors eĠcod
ag eĠtray
Ġsheet Ġset
do onaĠduvetĠ
theĠ north
Ġplu s/
Ġd anceĠ
clutch pro
eĠb lad
d aintyĠ
ord eaux
eĠb edroom
s au
ĠcardĠslo tsĠ&
Ġcan op
ho les
thĠbirthda yĠdecoration
lightĠ grey
eĠp ush
eĠd angleĠ
Ġ- Ġbrown
anvasĠwallĠartĠprin tĠposter
9 mm
Ġj erryĠlofaro
14 00
# 2
Ġto Ġhdmi
track suit
li o
ĠiphoneĠ12 /12Ġpro
sĠb yĠt
ura bleĠ
Ġ# 1
Ġ4 "
my ster
ior gio
Ġwal nu
Ġdoll ar
Ġd ad
d eco
head setĠ
Ġ2 dĠ
,Ġ19 21
ug al
kswagenĠpass atĠ
men sĠt-shirtĠ
ab o
coun tryĠ
yĠm ask
ĠfitbitĠ vers
ĠbrakeĠpad ĠsetĠdb
ĠxĠ2 "
arg ain
Ġc alf
ing Ġseal
eĠ outdoor
sĠt w
ort al
Ġ4 x
Ġeng ine
-1 /2
s, Ġblu
Ġsiz e,
tĠm al
tĠg las
Ġx x
Ġa /c
plu m
Ġr j45
Ġclimb ing
ĠstairĠrisersĠdecorationĠphotoĠmuralĠvinyl ĠwallpaperĠ
3dĠ attackĠonĠtitan
yĠc lean
eĠdoor ĠmuralsĠwallĠprintĠdecalĠwallĠdecoĠaj
eĠg emstoneĠ
exp ression
eĠleather ĠsteeringĠwheelĠcoverĠ
unisex -
ĠforĠholden ĠcommodoreĠv
igi &co
ulticolor ĠdecorativeĠ
Ġflo ating
ab erg
esĠ |
med ic
Ġ2 35
Ġ3 /16
Ġg il
Ġaluminium Ġc
5 c
Ġv fr
Ġnon- stick
brem tec
ĠprotectiveĠ coverĠ
Ġb w
Ġtr ol
Ġwris tĠwatch
an ana
asicsĠmen'sĠ gel
Ġbrak eĠ
s ugar
ukkaĠb oot
eĠw ear
Ġl inger
Ġ3 8mm
j in
blueĠ lightĠblocking
ust ry
90 6
flu ff
ss ic
em erg
eĠd vdĠ
35 n
Ġg m
8 pc
,Ġ10 k
theĠ greatĠ
,Ġ4 .5Ġuk
p urs
tĠt itan
12 Ġinch
Ġballoon sĠ
ĠbathĠmatĠ only
drap erĠ
Ġl x
Ġpro c
Ġ2 Ġpc
bel tĠ
Ġsh ipping
Ġvan illa
sĠ natural
âĢ ľ
/ k
ĠblindĠ pop
imension al
sĠb yĠc
,Ġ offic
edĠf ron
le igh
ex quisit
Ġkn ot
f inger
Ġcountersunk ĠheadĠsocketĠ
s 3
Ġar tĠprintĠframedĠ12x16
Ġ( model:
tĠm ask
ash i
g ymĠ
Ġdiffer ential
yĠb aby
lon el
ameth ystĠ
Ġcommodor eĠ
of t
e- tex
24 6
Ġsmart watch
Ġsal adĠ
5 cm
ba itĠ
Ġrol ling
atter yĠcharg
Ġcal ifornia
Ġc ris
Ġb ridesmaidĠ
ĠmotorcycleĠ motorbik
Ġst iletto
Ġg rid
h idden
eĠp oster
ru d
head phon
Ġph ras
Ġwh is
Ġemb lem
ĠshifterĠ( 4l
setĠof Ġ6
erĠg rip
don aldĠ
sĠgif tsĠfor
rat ed
in ternal
eĠc anvasĠ
s,Ġ 10
orth otic
Ġ5 Ġpack
Ġbl ond
,Ġmulti -
Ġp y
Ġflash ĠdriveĠ
ĠsetĠ ws-
eĠre el
gre atĠbritain
pr ana
running Ġshoe,
eĠb yĠt
eĠsh op
ann yĠpack
sĠsof tĠ
olog yĠb
Ġanimal sĠwall
es,Ġ andĠ
l yĠh
sĠs eal
eĠhexĠsetĠscrew Ġbolt
am or
tig er
Ġwatch Ġ-
k tmĠ
man tleĠ
jud eĠjewel
k notĠ
sĠd rop
,Ġ outdoor
d ut
flyĠ london
con t
eĠh ar
p si
li ssĠ
Ġheal tech
ti eĠrodĠ
yĠback groundĠ
Ġconver terĠ
s ach
in etĠ
m etic
Ġshaf t
larg eĠcapac
Â ¬
Ġden imĠ
200 4-
Ġeng land
b s
Ġpersonal isedĠ
ĠblueĠ lightĠblocking
Ġs ack
Ġs inter
Ġh an
Ġ- Ġcharcoal
op ol
ĠsideĠcas eĠtrekk
Ġup per
Ġwhit e,
j erse
65-70 ),Ġ
pump kin
fin ding
ev ent
eĠh eartĠ
xt rem
eĠs elf
Ġpres ent
hood edĠ
ra idĠ
och on
yĠ ro
Ġrecei ver
erĠ +
Ġra y
Ġsiz e)
eĠsh adow
la ugh
Ġmulti strada
ne umatic
sĠ atĠ
iesĠ byĠ
ĠappleĠiphoneĠ 12
ĠsolidĠgoldĠ natural
nar uto
er Ġtool
as car
rubber Ġsol
Ġar ab
polo ĠbyĠralphĠlauren
Ġ10 1
Ġfak eĠnail
m echanical
Ġchain Ġ&
Ġn Â°
sm ooth
edd yĠbear
Ġs mo
prin cip
Ġaltern ativeĠ
dĠ new
Ġwhit eĠgold
bo und
g ang
tĠw irelessĠ
sĠre movableĠ
Ġhe atherĠ
ĠwallĠmuralĠwallpaper Ġsf
eĠcomp anion
24 2
Ġrug gedĠ
Ġmad eĠ
black ,
v ehic
100 pcsĠ
Ġout sid
-20 22
awdisĠj ustĠ
tĠposter Ġprint
Ġin fantĠ
w r
od ym
ftĠ x
Ġd ut
eĠb y
low -topĠsneaker
mark etĠ
id en
Ġspeed Ġsteel
Ġv g
Ġbracele tĠwith
oper atedĠ
p addedĠ
Ġt 17
: ĠtheĠb
ĠdoubleĠsid edĠ
rip p
Ġ8 mmĠ
60 2
ast ro
Ġb eck
eĠtap eĠwheel
ĠcoverĠ -
shap edĠ
no catĠ
yĠjan eĠflat
eĠm idĠ
edg eĠsandal
yĠm ichael
Ġmerc ur
top ĠofĠtheĠworldĠ
Ġsh am
/ multi
6- 9
19 1
Ġunc Ġcoars
eĠtapeĠwheel ĠstickerĠ
Ġ1 s
walking ĠshoesĠ
Ġv ic
blo od
Ġsung lasses
ĠshifterĠ kitĠ(
ra it
tĠg el
erĠv p
Ġk enn
Ġt-shirtsĠ&Ġsingle tsĠ(
ĠsocketĠ headĠcapĠscrew
bevil lesĠ
sĠwomen &#39;
ĠtransportĠwall ĠstickersĠ
,Ġ r
ĠforĠkawasaki Ġz
ass o
/c d)
le sĠt
Ġsup erĠb
eĠb lue)
ĠĠ Ġ
s +
Ġchild rens/kidsĠ
erg uson
Ġst oveĠ
eĠg raphic
zhua 7
e ?
Ġsept um
jacketĠ -
sĠto ol
4 dĠ
french Ġnavy
Ġsupp lemen
o as
yn n
Ġm atĠb
ĠstoneĠ king
Ġm 4Ġ(4mm)Ġx
lĠ4 Ġcyl
/ off
36 8
ingĠg lasses
rop onic
sĠd angleĠ
Ġchristma sĠs
herth+bus sĠjakopartsĠj
yĠs er
az in
Ġslee ve
Ġcol l
lead ership
ab lo
6 Ġinch)
Ġdef in
canter bur
4- pack
us ,Ġ
Ġ(l) Ġsp
eĠf igur
Ġto Ġb
Ġhor ror
tĠp adĠ
Ġbaseball Ġcap
ĠshowerĠcurtain -136
Ġstraw berry
op lin
ura ssic
3dĠhomeĠwallpaper Ġpink
top shop
Ġpiec esĠb
lif eĠandĠ
zok ko
ingĠg lov
ĠfrontĠ engineĠmount
premiumĠignitionĠcoil ĠsetĠfor
Ġd f
Ġf rog
yĠc lutch
Ġwel ding
aerosole sĠwomen'sĠ
Ġ eĠ
Ġreplac ementĠp
even ing
ch in
x19 Ġ5x114.3ĠetĠ
Ġb rain
sĠ( blue)
,Ġ nav
Ġ ancientĠ
op eration
Ġsneaker ,Ġwhite,Ġ
tĠc om
eĠwallĠar tĠ#
Ġ38 mmĠ
eĠle atherĠ
k v
lip per
h ybridĠ
6- inch
electric Ġguitar
cas io
yl in
arkbust erĠvp
Ġ3 5mm
Ġ/ Ġvarious
ear bud
d na
ad air
o Ġ-
Ġst ruc
christ mas
ĠhardĠ pc
Ġchristma sĠbirthda
i watch
20 g
star ter
Ġto shib
eĠt ank
Ġpra do
or ian
Ġmo thersĠ
tĠh old
ass ion
c il
Ġsw is
fel -pro
in Ġm
Ġmin tĠ
Ġsun catch
Ġchelsea Ġboot
coolantĠ tempĠsensor
eĠh eat
d 1
eng ine
Ġornam ent
45 5
Ġe bayĠs
ro chetĠ
d t
Ġtop sĠ
h m
ar b
Ġho tĠpink
- redĠ
w m
Ġplay er
ĠbyĠm ar
Ġh q
-th ef
3dĠb ig
Ġ(5 .4
yĠprin ces
bcĠfootwear Ġwomen'sĠ
24 9
3 .5mm
tyreĠs ummerĠ
ut ting
Ġtra gu
lensesĠfor Ġoakle
6 Ġinch
r z
, Ġwedding
g ium
- 34
l yĠd
suit ableĠfor
targ etĠ
Ġsock sĠ(
,Ġ non
24 8
sĠon lyĠ
,Ġc ubic-zirconia,
Ġam g
duc tor
ti ma
sĠ yamaha
eĠf oam
Ġover all
rom per
7 Ġinch)
sĠ 60
! ĠbyĠ
Ġs ak
ĠfrontĠ lef
tĠp o
Ġpupp yĠ
ac orn
Ġar th
,Ġp remium
air Ġballoon
coun tĠ
Ġmodu le
ele mentsĠ
Ġcon temporar
Ġvolum eĠ
Ġinter fac
Ġ14k ĠwhiteĠgoldĠ
Ġoz )
tre eĠ
Ġslo uch
enter tain
ell erĠ
tension erĠ
1 ĠwallpaperĠmuralsĠwallĠprintĠdecalĠwallĠdecoĠajĠwallpaper
nic a
4 cm
Ġp si
es ,Ġf
Ġclean erĠ
/p kg
Ġman agementĠ
Ġsuppor tĠfor
Ġk araok
ĠmatteĠpaperĠprint,ĠlightĠoak ĠframeĠ(withĠmatĠboard)-a
alloyĠwheelĠmak Ġemble
ep ox
Ġbra idĠ
Ġloaf erĠflat
alloyĠwheelĠmakĠemble ma
Ġ18 g
ĠebayĠs eller
. Ġ[
ent rep
toddler/littleĠkid )
60 -6
sĠh olida
heavyĠdutyĠ vinyl(durable+selfĠadhesive)
r achel
eĠ edition
ligh tĠd
e ing
Ġsandal s
aryĠt attoo
Ġlin ing
Ġfrancs,Ġ 19
Ġc anvasĠprin
leĠ leaf
ĠmatteĠpaperĠprint,Ġblack ĠframeĠ(withĠmatĠboard)-a
Ġvolum eĠ1
Ã ¥
Ġfor Ġt
Ġmoto Ġg
resp ons
Ġe o
7 Ġuk)
vio let
assemb lyĠ
8 Ġinch
Ġhead set
sĠh onda
sĠwhit eĠ
et ter
densoĠiridium ĠttĠsparkĠplug
eĠbo ho
gut ermann
ak a
cd w
Ġis o
Ġmed ieval
9 ctĠ
ech o
ĠmadeĠin Ġusa
Ġear ly
j ul
Ġeng agementĠb
Ġmemor yĠ
v entĠ
ĠshortĠsleeveĠ poloĠshirtĠ(
ys i
28 5
Ġ10 Ġpack
Ġcanc el
Ġnam eĠ
d aniel
Ġ& Ġwilliam
4- 5
2 mmĠ
necklac eĠwith
iqu eĠ
Ġtea Ġcup
sĠ kitchen
Ġcul turedĠ
grad eĠsiliconeĠ
eĠdoorĠmuralsĠwallĠprintĠdecalĠwallĠdecoĠaj ĠwallpaperĠau
dr um
light n
Ġblu esĠ
Ġcirc lip
Ġst dĠ
Ġn um
americanĠshifterĠ 40
Ġ/ /
ĠtableclothĠtableĠcoverĠclothĠbirthdayĠpartyĠeventĠ ajĠwallpaper
Ġ0. 80
p ressur
ph an
Ġbr illi
ĠshifterĠ 16
2 ndĠ
whit eĠgoldĠ
Ġm8Ġ(8 mm)Ġx
ĠbyĠj an
eĠmasterĠcyl inder
ĠcdĠ new
ail leur
3dĠb utterfl
las ma
fac tor
ĠsingleĠc anvasĠwallĠartĠpictureĠprintĠva
er ĠbyĠ
disp ens
us edĠ
Ġf iatĠ
in formation
Ġnut sĠ
erĠg lassesĠ
Ġref :
Ġpol ari
Ġp t
et ween
air plan
for g
ang ular
mo du
pl antĠ
edĠc omp
sĠn urs
Ġ12 .5
- 120
Ġeyeg lassesĠ
uni form
tĠb sw
Ġg own
9 .7
ken stock
et achableĠ
, ĠcompatibleĠwith
Ġleg ac
tĠin Ġblack
king Ġwill
kĠgoldĠ natural
ym phon
Ġast ron
necklac eĠ-
Ġin spiredĠ
Ġg iraff
sam Ġedelman
l yĠw
sĠgu itar
imp ort
ĠmidĠ calf
erĠp ump
8 10
. Ġn
-on Ġevc
Ġ6 mmĠ
Ġdail yĠ
jump suitĠ
Ġc ash
l ung
Ġsleep ing
ass ist
hol iday
Ġpag esĠ
ĠwallĠmuralĠwallpaperĠ zyĠd
rest aur
,Ġ usb
Ġr atch
s dĠ
ro ther
p opp
yb ug
Ġ0 2-
sec ur
Ġdis k
ic ture
Ġadapter Ġfor
Ġmen sĠf
18 )
j ou
ex yĠ
az ur
Ġj ungleĠ
eĠc anc
ran o
Ġ100 g
sĠb en
tra st
funn yĠ
Ġtor tois
Ġh r
mo schino
Ġsealing ĠodĠ
Ġwr x
ra x
i ar
Ġr sv
eĠb el
gem ĠstoneĠking
ill y
cc i
Ġval ve
_ 5)
asqu ithĠ&
Ġ(c yn
air Ġcondition
comput erĠ
ki wi
m tb
Ġpe ugeotĠscooterĠ
ingleĠc anvasĠwallĠartĠpictureĠprintĠva
x10 ĠsilverĠhalideĠphotoĠprint
3dĠbedĠpillowcasesĠqu il
resul tĠ
histor ical
s, Ġp
Ġblank ingĠendĠcap
Ġnav y,Ġ
m3Ġm4Ġm5Ġm 6
eĠb ush
Ġfunn el
ĠzincĠplatedĠ as
eĠd ual
sweat yrock
ingĠc ream
mon ster
qu ik
Ġc op
et ryĠ
bb b
Ġ2 15
h usbandĠ
eh l
1 c
Ġcrop pedĠ
ig erĠ
antĠ to
Ġgri tĠ
asquithĠ& Ġfox
coun ting
b la
altern ativeĠ
edding ĠsetĠquiltĠcoverĠquiltĠduvetĠcover
pre-catĠ oxygenĠsensor
Ġameth ystĠ
Ġbag g
ster eo
necklac e,
boy friendĠ
eig eĠsize:
m ro
water ĠbottleĠ
sĠc and
can o
,Ġ royal
Ġ7 4
edding ĠquiltĠcoverĠsetĠbeddingĠsetĠpillowcasesĠ3dĠduvetĠcover
Ġc ruz
cm( 63
Ġf alcon
Ġs eg
Ġ oo
Ġgalax yĠwatch
Ġnav yĠblu
Ġbas in
yĠb lock
eĠri ding
Ġsun flower
78 .7
fant as
( a
d eadĠ
Ġl qh
Ġs ay
100 g
1 .9
rac ework
Ġenvelop esĠ
usb and
thermo st
d ba
m ight
originalĠbulbĠinsideĠlamp ĠmoduleĠfor
br illi
Ġpro blem
Ġmotorcyc leĠb
Ġyr Ġsize
uk e
Ġsu ccess
Ġjean s,Ġ
m ey
trous ersĠ
sĠp urpleĠ
erĠp attern
all a
Ġplay station
eĠstamp edĠaluminumĠstreetĠsignĠmancaveĠ
199 6-
Ġwalk er
sĠf amil
Ġ30 8
ideal Ġfor
oc ado
Ġc br
Ġat x
Ġprin c
sĠwith Ġpocket
Ġvictor ia
Ġshe pher
Ġtap est
eĠb ronz
sĠg ym
Ġsp otĠ
rock etĠ
piercedĠ owl
ĠankleĠboot ,Ġblack,Ġ
Ġlas erĠ
sĠp lain
eĠb umper
Ġh b
n m
sĠst at
Ġself-adhesiveĠvinyl ,ĠxlĠ208cmĠxĠ146cmĠ(wxh)(82''x58'')
Ġtank Ġbag
sĠp iercing
ĠoxfordĠ flat
ĠstandardĠ volum
ley ball
Ġfla tĠheadĠ
heav y
Ġcarry ing
sl r
Ġcar Ġwindow
Ġ199 3-
/strip ĠoilĠpan
Ġphon eĠholder
Ġmicro Ġusb
doll sĠhous
bol tĠ
-st amp
Ġf iction
omet ryĠ
edĠaluminumĠstreetĠsignĠmancaveĠ wallĠartĠ(
es tĠfor
gi eĠhoopĠearring
1- 0
royal Ġblue)Ġ(
ep rin
ĠtheĠs un
button ĠheadĠsocketĠscrew
sĠb yĠh
sĠg las
ex foli
yĠhand bag
160 cm(63
rot at
ast en
ĠbyĠch rist
18 Ġinch
Ġwomen sĠm
tĠ your
alloyĠwheelĠmak Ġunion
60 6
Ġqu estion
eĠtv ĠremoteĠcontrolĠfor
Ġ199 1-
eĠt all
â ľ
Ġcomfor tĠfit
eĠd er
eĠframedĠ artĠprin
b&c ĠmensĠ
eĠland scap
Ġself-adhesiveĠvinyl,Ġxx xxlĠ520cmĠxĠ290cmĠ(wxh)(205''x114'')
ĠplushĠfleeceĠblanketĠpicnic ĠbeachĠtowel
ultra Ġthin
Ġimm un
m ulticoloured
Ġsummer ĠplushĠfleeceĠblanketĠpicnicĠbeachĠtowel
"ĠneckĠ- Ġsmall
eĠb yĠc
ay n
sĠdisp osableĠ
ath edral
ef oo
bik eĠ
Ġac tu
Ġg ent
german ]
edĠ leather
b ridal
vol vo
Ġpin ion
6- 7
Ġbol tĠ&
eĠsetĠ -
f j
60cm( 23.6'')
yĠs uitĠ
Ġlapel Ġpin
/ 55
23 3
Ġpul sar
sĠto ddlerĠ
Ġr y
eg ad
c ent
ugg ieĠ
Ġwar ehous
yĠn a
b ronz
Ġstuff edĠanimal
2 m
max well
,Ġmetal ,ĠcubicĠzirconia,
3Ġm4Ġm5Ġm 6Ġm8Ġm10Ġm12
316 ĠstainlessĠsteel
d ur
aut otec
Ġred )
understand ing
ef ieldĠ
tĠp ost
oli verĠ
optim al
Ġpiec eĠp
Ġs older
brown )Ġ(
Ġchevro let
Ġ2.0 Ġtdi
Ġ70 ĠsetĠscrew
all anĠp
edĠg oldĠ
chrys lerĠ
y Ġcollar
Ġbooth Ġprop
yĠ |
yĠg litter
),Ġ aluminum
iphoneĠ12 Ġpro
Ġmen sĠwomen
christma sĠdecoration
gprĠexhaustĠhom ologatedĠ
ib u
Ġshe ath
starĠwar sĠ
] Ġ[au]
sĠc eramic
, Ġtravel
Ġ2 ĠinĠ1
ep ic
ĠstairĠrisersĠdecorationĠphotoĠmuralĠvinyl ĠwallpaperĠzoe
g304 ĠstainlessĠ
b estĠ
3dĠ car
19 77
Ġapp liqu
eĠb efor
mar oon
ĠwalletĠcas eĠwith
sĠn os
o sh
fil a
Ġpro mis
eĠprin t
Ġchunk yĠ
Ġsuit cas
ĠshoesĠ forĠwomen
Ġri sk
shaf tĠp
Ġ-Ġ1/ 00
. 15
Ġb oneĠ
ri val
capric eĠwomen'sĠ
Ġb readĠ
eĠp u
30 )
Ġt si
Ġdres s,Ġ
racer back
Ġbirth stoneĠ
Ġmar io
Ġ( softcoverĠbook
8 35
160cm(63 '')
mm ar
Ġ& Ġs
yĠc om
9 .5Ġuk
3dĠ wall
po intĠ
se quin
eĠst itch
cardĠ holder
Ġscrew driverĠ
Ġtre vorĠmitchell
yĠf ish
3 11
Ġcook book
Ġp le
Ġw estĠ
ist o
Ġwall ĠmountedĠ
Ġeas y
Ġvehic le
Ġ3 18
Ġcomp as
24 3
beig e)
ingĠg am
Ġanim eĠ
Ġmat tĠblack
iat ric
Ġ19 79
Ġas ia
Ġself-adhesiveĠvinyl,Ġxx xlĠ416cmĠxĠ254cmĠ(wxh)(164''x100'')
ĠwovenĠpaperĠ(needĠglue),Ġxx xlĠ416cmĠxĠ254cmĠ(wxh)(164''x100'')
aiss anc
sĠandĠ envelopesĠ
b ann
rissĠ crossĠ
Ġluxur yĠ
Ġsteer ingĠp
ed ĠsleeveĠ
Ġj as
50 7
etĠ for
Ġyver tĠandĠtellierĠnÂ°
b 0
ĠtransportĠwallpaperĠmural Ġself-adhesiveĠremovableĠamy
eĠt itanium
rot ek
Ġo' polo
marc Ġo'polo
ultil ay
ĠplainĠscrewĠboltĠ 12.9
Ġcar Ġtruck
Ġdegre eĠro
bo ys
3dĠhomeĠcar pet
necklac e,Ġ
women Ġmen
an ĠintroductionĠto
Ġp ac
28 8
sĠp endantĠ
eĠinser tsĠ
Ġch e
Ġh isĠ
dĠ &
Ġ ivor
chang eableĠ
elly fish
wh al
Ġth 400
19 73
Ġ 000
regulator Ġrectifi
s) ,Ġl
Ġan od
10 m
80 cmĠ(
Ġoffic e
del ic
36 6
Ġdoor ĠhandleĠ
Ġson ata
x 13
ĠxĠ1 14
ĠappleĠiphoneĠ 13
120 cm(
Ġlaser jetĠ
.925 ĠxĠ1
ley- davidson
- resistant
sĠ20 18
Ġst ein
m og
s z
ligh tedĠ
k av
ing Ġsuit
lo tĠ
( silver)
Ġeth nic
ĠlittleĠ girl
so undĠ
Ġcom bi
ed i
yc ra
phoneĠcas eĠcover
hondaĠc b
Ġp p
r ativeĠ
ur r
erĠp art
Ġcl ark
k ir
Ġ# 2
er t
,Ġdark Ġbrown
ubiqu iti
/2 .5
a Ġv
Ġtank lock
speed o
p ital
Ġvi ol
th Ġof
cantonĠpressureĠbalancedĠoilĠpump ĠstandardĠvolum
d eal
Ġin j.
mm et
liver pool
19 74
aw ak
Ġbrush edĠ
Ġban ana
Ġc rimp
Ġt dĠ
ol t
st ill
sĠw ood
ĠipadĠ air
kick stand
ramĠ neo
Ġruss ia
Ġ18 kĠgoldĠplatedĠ
Ġb 6
ĠblockoutĠphotoĠcurtainĠprintingĠcurtainsĠdrapesĠfabricĠwindow Ġau
Ġspring s
highĠtensil eĠclassĠ8.8
judeĠjewel ersĠ
) ĠbyĠ
Ġ25 6
360 Â°
t ou
y +
ia Ġwomen'sĠ
,Ġd esign
Ġtienha ara
t id
car avan
ag an
, Ġsof
light ning
Ġag esĠ
ens on
iphoneĠ12 ĠproĠmax
eĠb ell
eĠw id
sĠs o
eĠwallĠar tĠposterĠprint
199 8-
sĠg oodĠ
ingĠ lightĠ
Ġtor qu
26 7
band ana
a ,
rhodium Ġplated
5 90
in sp
- 300
Ġin Ġyour
40 )
j p
Ġbo yĠgirl
i usĠ
yĠs neaker
v iking
( red
gar ag
erc iseĠ
g ateĠ
Ġm n
Ġin to
eĠnonĠslipĠrugĠmatĠphotoĠcarpetĠ zoe
ha y
erĠ 6
Ġ2 .6
m5Ġ(5mm)Ġx Ġ0.80
ar di
Ġcool ingĠfan
Ġre sp
s yl
lif estyleĠ
Ġar n
artil ag
Ġh idden
ĠfilterĠ -
etĠ |ĠpaintĠscratchĠrepair,ĠexactĠmatchĠguaranteeĠ-
sĠst rap
io degradableĠ
Ġdun lop
ic edĠ
dynamicĠfrictionĠcompan yĠbrak
ĠxĠ31 Ġinch)
bl anc
Ġchev ron
comfor t
ĠsuzukiĠgs f
sĠn eck
Ġ19 70
tur tleĠ
e eledĠsandal
cmĠxĠl: 80cmĠ(
sĠstor ag
Ġash esĠ
sĠp edal
sĠpart yĠdecoration
cmĠxĠl:80cmĠ( 47
cmĠxĠl:80cmĠ(47 ĠxĠ31Ġinch)
s),Ġl Ġh:
y ,Ġb
Ġslo tĠ
]Ġcoin,Ġfranc e,
Ġch isel
120 cmĠxĠl:80cmĠ(47ĠxĠ31Ġinch)
s),ĠlĠh: 120cmĠxĠl:80cmĠ(47ĠxĠ31Ġinch)
6 ĠmĠus
Ġpower edĠ
eĠprin tĠ
Ġsilver )
dark Ġgre
Ġbag Ġ-
oc co
yĠf il
entĠb ook
atic an
av anti
sĠ+ĠbrakeĠpad sĠsetĠfor
port westĠ
erĠb ush
Ġtrac erĠ
ris ing
Ġtrad ersĠ
ra h
red ator
Ġnurs ing
Ġadvanc edĠ
ĠledĠ bulb
s, Ġwhite,Ġ
77 7
Ġgarden Ġflag
esĠ women'sĠ
tail or
ter visĠ
Ġst rat
Ġiron Ġon
Ġbig Ġfit
Ġhear tsĠ
Ġchocol ate
Ġch okerĠ
ity :
ch es
Ġfus ion
Ġb .
char li
sĠwalking ĠshoesĠ
Ã Ł
eĠsocketĠheadĠcapĠscrewĠallen Ġbolt
Ġrhineston esĠ
Ġhous eĠslippersĠ
.4 '')
eĠbol t
Ġpaperback Ġbook
Ġc li
eĠs uitĠ
sĠforĠwomen Ġgirl
Ġmoun tĠfor
genuineĠ nissan
Ġc elebr
Ġr 6
eĠphon eĠcover
pan el
ing erĠ
eĠsingleĠ or
yĠbutton Ġring
com mon
ĠsuperĠ king
Â Ń
Ġcrad le
Ġb osch
ĠwovenĠpaperĠ(needĠglue),Ġxx lĠ312cmĠxĠ219cmĠ(wxh)(123''x87'')
Ġhear tĠshap
a Ġ6
Ġbuck le
Ġmo c
Ġar mour
3- 6
Ġwith Ġpocket
yĠt ravel
yth on
sĠd om
Ġk at
Ġbol tĠc
Ġpend ulum
Ġin fus
,ĠusĠ v
eĠc ycling
wedding Ġband
ti eĠ
yĠ- ĠmultiĠ-
sh eetĠ
iz eĠ
qtyĠ 1000
eĠcardĠ (
on tsĠ
Ġlef tĠhand
Ġcomm un
erĠb irthda
,Ġ 35
Ġch in
Ġlo verĠ
Ġlu g
ut p
sĠb as
) Ġ
ess i
Ġfamil yĠ
tĠg am
yĠbar bar
eĠofĠth ron
50 9
)Ġ( black
6 Ġuk)
Ġb la
70 6
j amin
st .
47.2 '')
Ġ2 2mm
Ġsize: Ġ8.5
bb in
p edal
9 Ġm
120cm( 47.2'')
in eĠc
ou tĠt
e- dy
Ġ- Ġad
re mover
0 20
anth on
wrist Ġstrap
bracele t
Ġc ot
eĠmen sĠt-shirtĠ
Ġm athematic
Ġth ai
glo ssĠ
eĠsh eet
theĠb ig
s,Ġ 5
Ġ122 ĠxĠ8
slip -on
f en
l om
mart in
ur anc
Ġwomen&#39; sĠbootsĠ
h b
eep Ġto
limb ing
eĠb uckleĠ
2 Ġfunc
ĠstairĠrisersĠdecorationĠphotoĠmuralĠvinylĠwallpaperĠ amy
Ġcar Ġcolours)
agon al
312 cmĠxĠl:
Ġ122ĠxĠ8 6Ġinch)
m 1.6
Ġles son
cre ek
Ġ2 wdĠ
d v
Ġh: 312cmĠxĠl:
Ġh:312cmĠxĠl: 219
ab sĠ
top Ġ-
Ġh:312cmĠxĠl:219 cmĠ(
yl andĠ
Ġh:312cmĠxĠl:219cmĠ( Ġ122ĠxĠ86Ġinch)
l Ġh:312cmĠxĠl:219cmĠ(Ġ122ĠxĠ86Ġinch)
el com
Ġball erina
Ġbu ick
usp end
Ġ& Ġp
Ġse ater
timingĠbel tĠ
Ġpend an
Ġsepar ator
ast rotek
Ġsyn c
Ġ- ĠsizeĠ
pop lin
Ġsiz eĠ-
tim ing
ef oot
ch alk
Ġ6 .7Ġinch
ra do
Ġscub aĠd
Ġs ab
ole on
sh all
p layĠ
ir isĠ
ind epend
ero do
p eak
3dĠ geometric
ul ley
.3 Ġinch
Ġp es
sw orth
Ġskyl ineĠ
ch ampagn
Ġself-adhesiveĠvinyl,Ġxx lĠ312cmĠxĠ219cmĠ(wxh)(123''x87'')
athletic ĠshoesĠ
Ġp it
alloyĠwheelĠmsw Ġ30
tim e
* new*
chain Ġnecklac
Ġsandal ,Ġ
Ġind epend
Ġind ex
ĠboysĠgirl sĠ
Ġcon ch
/4 4
brakeĠpad sĠbrembo
gossĠ oil
Ġby ĠtheĠ
2.5 mm
Ġvers ysĠ
Ġnight gown
kid sĠgirl
sĠs n
sĠw rist
b reath
),Ġ 7.5Ġuk
Ġcolor )
sĠw interĠ
tĠs yn
Ġaw g
Ġexper ienc
199 9-
tab let
rin der
Ġpend antsĠ
quick ĠdryĠ
Ġsize: Ġ5
in oz
Ġdi eĠcu
tĠp anel
ab let
ur fac
45 6
Ġstorag e
met hod
k ais
tĠc rystal
3dĠ g
Ġall igator
254 cmĠ(
adul ts
or row
Â §
eĠf leec
ĠfunnyĠnovel ty
chem ical
mizĠmooz Ġwomen'sĠ
sĠwall sĠlaptop
254cmĠ( 163
Ġh: 416
Ġfor Ġjeep
Ġh:416 cmĠxĠl:
254cmĠ(163 ĠxĠ100
Ġm avic
e- Ġblack
Ġgirl sĠandĠ
eĠh at
254cmĠ(163ĠxĠ100 Ġinch)
Ġd rap
yĠt-shir tĠf
xl Ġh:416cmĠxĠl:
Ġlef tĠhandĠ
xlĠh:416cmĠxĠl: 254cmĠ(163ĠxĠ100Ġinch)
Ġsydne yĠ
sĠb yĠp
ĠsamsungĠgalax yĠz
8 x18Ġ5x112ĠetĠ
m ission
ne villeĠ
aut ograph
r ung
sand isk
,Ġh iking
Ġlead ership
Ġclaw Ġclip
c gi
eĠpro jectorĠlampĠmoduleĠfor
ig ami
Ġal b
ĠhighĠtensileĠgradeĠ8 Ġscrew
sĠp lug
repairĠkit ĠsetĠ
-t ech
non-slip Ġrubber
Ġdin9 31
Ġg ymĠ
air bag
ĠbyĠ al
ad i
sĠh andĠ
x17 Ġ5x112ĠetĠ
Ġpink )
yĠf riend
sĠsiz esĠ
Ġlock ing
n y
da zzling
ĠmulticolorĠrugĠ(80 ĠxĠ1
sĠandĠ theĠ
sĠh ang
3dĠp eacock
cap Ġscrew
b ank
yĠb each
Ġscot ch
esĠof ĠtheĠ
olid ayĠ
erĠg ear
Ġston e,
3 Ġpair
Ġsp lic
it ungsten
s ab
sĠ& ĠflipĠflop
eĠsho ulder
Ġ .
Ġsnook erĠb
Ġ(4.8 mm)
Ġvinc entĠ
yĠt-shirtĠf athersĠvalentinesĠday
c raz
sĠth em
ĠmensĠfunnyĠweddingĠanniversar yĠt-shirtĠfathersĠvalentinesĠday
r ustĠ
newĠbalanc eĠmen'sĠ
Ġc ashmer
Ġp leatedĠ
Ġsoft Ġshell
2 16
holog ramĠneo
shockĠabsor b
ab yĠ
ot ech
tĠb ead
Ġweb b
hib ition
ac e
15 mm
200cm( 78.7
li der
ic aĠs
Ġaction Ġfigure
givi ĠtankĠbag
eĠdi sh
eĠsocketĠsetĠscrew Ġgrub
yĠb ottleĠ
3dĠ tropical
o Ġring
organiz ation
Ġir ish
Ġ0. 70
Ġg ridĠ
over all
3dĠ dolphin
Ġres ourc
roundĠ beachĠtowel
osition Ġsensor
Ġtrans form
,Ġblack /black
ig raph
hous ing
giviĠtankĠbag Ġtanklock
esĠ top
ĠbyĠ rober
k s
esĠfor ĠmenĠwomen
eĠd elux
ĠdoorĠwallĠmuralĠphotoĠwallĠstickerĠdecalĠwall Ġamy
por ation
antĠ -
eĠc utĠ
,Ġm on
,Ġmedium )
Ġcol lin
Ġst an
Ġal way
ĠcoldĠ weather
ah n
/s ealed
Ġe -
tĠc omfor
ec on
3dĠ animal
Ġ2 tĠ
application s
evro le
10 /
alpin estar
: ĠtheĠs
Ġbever ag
u sĠre
eĠ lip
Ġb un
100 cm(39
Â ·
ĠtheĠh ear
yĠs quar
keep sak
sĠtrucksĠvan sĠwallsĠlaptop
ĠwovenĠpaperĠ(needĠglue) ,ĠxlĠ208cmĠxĠ146cmĠ(wxh)(82''x58'')
us )
100cm(39 .4'')
33 3
Ġt ireĠ
eĠp lus
Ġch as
Ġclean ingĠbrush
forĠh yundai
Ġ&Ġb eck
Ġch iffon
Ġs even
,Ġc lassic
el on
ac acia
.6 Ġinch
lifestrid eĠwomen'sĠ
ĠansiĠb Ġ18.3
sĠsandal sĠ&ĠflipĠflop
Ġunisex ĠadultsĠ
nature 'sĠ
,Ġ5 .5Ġuk
Ġ1 x
,Ġ9 .5Ġuk
ed ar
ĠansiĠbĠ18.3 Ġast
edĠ co
sĠf lower
Ġengin eer
42 8
Ġprofessional Ġrear
eĠgif t
Ġslim Ġfit
com f
,Ġsmall )
Ġb ond
u bleĠ
im ulation
eĠcomp atibleĠfor
d esser
Ġbeig eĠsize:
able .
d 0
t igh
eĠstick ersĠdecal
qu estĠ
Ġ2008Ġ2009 Ġ2010
elec tro
cm( 59''x
eh r
x-larg e,
sĠc ollar
Ġchristma sĠb
Ġwomen&#39; sĠtopsĠ&Ġblous
isedĠbirthdayĠpartyĠbannerĠbackdrop Ġbackground
Ġsil entĠ
Ġf if
Ġrop eĠ
Ġ/ Ġau
Ġv c
s ocketĠsetĠscrew
ch ant
Ġss d
Ġp aveĠ
y am
Ġd ci
l yĠ(
lan ter
ĠframeĠ(withĠmatĠboard) -b1Ġ(70.7ĠxĠ100cm)
p each
at thew
3dĠ greenĠp
yĠw arm
Ġlu re
200cm(78.7 '')
ring ĠforĠwomen
ever ything
eĠslip -on
Ġston eĠbead
Ġ5 v
lat t
ar tĠp
d le
yĠ and
yĠn ylon
ref rigerator
th anksgiv
Ġkid sĠandĠ
ĠforĠtoyota Ġcorolla
ĠclosedĠ loop
g lass
Ġ0 5-
ustri esĠ
yĠst ephen
Ġflower Ġwc
n ical
Ġcon ferenc
Ġ- Ġon
tex turedĠ
Ġmin ut
Ġpat rick
Ġ30 cm
s neakersĠ
m6Ġ(6mm)ĠxĠ1.00 ĠpitchĠmetricĠcoars
alk er
c lock
ling woodĠ
k an
Ġ16v Ġdohc
Ġr atio
-s m
Ġsc an
p j
tra xxasĠ
ingĠg ear
ingĠ light
rog z
yĠ- Ġpaperback
Ġ17Ġinch ĠmotorcycleĠ
van Ġgogh
ess endon
,ĠpackĠof Ġone
g rill
Ġa2 Ġ304ĠstainlessĠsteel
eĠm idi
Ġa ustri
eĠst reetĠ
read mill
alloyĠwheelĠozĠracingĠsupertur ismo
vis ual
kit t
ter 'sĠ
et ec
Ġcas eĠcoverĠ
Ġman agement
ĠwallĠpaperĠwallĠprintĠdecalĠwallĠdecoĠindoor ĠwallĠmurals
,Ġblack Ġ(
comb ination
Ġp riz
larg eĠsiz
sp ar
Ġ& Ġf
Ġskinn yĠjean
Ġ1 .7
ĠwovenĠpaperĠ(needĠglue),Ġxx xxlĠ520cmĠxĠ290cmĠ(wxh)(205''x114'')
h ey
hear tĠshap
Ġse ag
3dĠ co
Ġ- Ġyellow
Ġlu c
Ġr 16
ĠansiĠb18 .3
g ab
ĠforĠaudi Ġa3
ĠtableclothĠtableĠcoverĠclothĠbirthdayĠpartyĠeventĠaj Ġlemon
Ġc raz
Ġ2018Ġ18 Ġ2019Ġ19
yĠp ol
Ġsail or
Ġrear ĠsprocketĠ
n fl
Ġ14 .9
2 13
Ġfor Ġk
Ġlo tu
: Ġ100
om as
eĠ ink
Ġcomfor tĠfitĠ
tĠc ustom
,Ġ 120
,Ġ8 .5Ġuk
bl end
Ġscal e
Ġ3 500
Ġcas s
drop Ġearring
glo ss
yĠp lay
borg Ġ&Ġbeck
Ġfil igre
45 2
eĠc row
/d ouble
countersunk ĠsocketĠscrew
Ġb ark
Ġrock etĠ
Ġtouch Ġscreen
Ġx 1
lu ster
w ris
enter pris
19 20
eĠst ation
p unk
offic eĠ
Ġtrail er
Ġv v
Ġiphon eĠs
Ġdrop Ġearring
Ġsweatshir t,Ġ
40 8
faux Ġfur
ĠwallĠartĠ (whit
yĠcomp atibleĠwith
lac ost
Ġpop ĠbubbleĠ
Ġballoon sĠfor
Ġj ogger
Ġscienc e
tr ick
Ġpop ular
boo stĠ
2 /
aĠp ig
ĠcubicĠzirconia ,
volum eĠ1
sĠandĠenvelopesĠ packĠofĠ8
lo gan
Ġ3.5 l
il yn
emp t
12 Ġpack
Ġh: 20
5 Ġ-
xxl Ġh:
le verĠ
Ġth eĠfor
ĠwallĠartĠ(whit eĠstampedĠaluminumĠstreetĠsignĠmancaveĠ
m 1
lif tĠ
,Ġxl Ġh:20
cmĠxĠl: 2
Ġ5 000
22 mmĠ
Ġ81 ĠxĠ5
Ġp opp
Ġread er
cmĠxĠl:2 90cmĠ(
iesĠ (
eĠb yĠh
eĠb adg
rec reation
Ġ81ĠxĠ5 7Ġinch)
overs ized
146 cmĠ(
s) ,ĠxlĠh:20
s),ĠxlĠh:20 8cmĠx
520 cmĠxĠl:290cmĠ(
Ġ10 mmĠ
om ber
146cmĠ( Ġ81ĠxĠ57Ġinch)
s),ĠxlĠh:208cmĠx Ġl:
s),ĠxlĠh:208cmĠxĠl: 146cmĠ(Ġ81ĠxĠ57Ġinch)
Ġdaugh terĠ
ĠxĠ114 Ġinch)
-c or
xxlĠh: 520cmĠxĠl:290cmĠ(
Ġpiec e)
xxlĠh:520cmĠxĠl:290cmĠ( 204
xxlĠh:520cmĠxĠl:290cmĠ(204 ĠxĠ114Ġinch)
Ġgrow th
ĠbyĠ richardĠ
22 )
ebc Ġbrak
owel Ġpin
á »
Ġju ic
sc ratch
Ġacadem ia
t aper
Ġpuzz le
ul f
le en
re -
fl akeĠ
esĠ and
Ġfitted ĠsheetĠ
oc lix
re y
w ire
tĠp ol
Ġbar ber
sĠg litter
,Ġg las
ingĠt ub
Ġscreen Ġdoor,
Ġ- Ġ18
Ġblack ĠframedĠartĠprintĠb12x
ver tex
s: ĠtheĠ
5 25
180cm( 70.9'')
er lin
Ġd ji
eĠwalle tĠcas
think! Ġwomen'sĠ
Ġactu ator
Ġcomplet eĠ
eĠb uck
8 /
Ã ´
artĠd eco
inch Ġ(
-20 mm
gantĠ men'sĠ
Ġsal t
Ġm10 Ġm12
ĠbyĠ ann
pop !Ġvinyl
Ġmar l
3 ĠpiecesĠ
h ea
ĠbootsĠ (
Ġset sĠ
Ġking dom
c lo
pa -fre
: Ġd
Ġsa ver
Ġtop p
19 75
Ġa 8
eĠgu ideĠto
mount lessĠ
Ġri o
suit -
eĠhex ĠheadĠboltĠ
Ġpan asonic
Ġs 6
Ġb low
ym erĠc
arm yĠ
youĠchoos e
:Ġth eĠcomplet
girl friendĠ
room ĠmatĠ
Ġutil ity
Ġv ga
yĠp ark
Ġmm ĠthreadĠdiameter
,Ġ 26
Ġ2 Ġx
er Ġbag
Ġblu eĠs
ĠwideĠ us
sĠnordĠ n
re bec
Ġflower sĠwallĠmural
Ġlu m
Ġpar adis
Ġd vi
Ġto Ġview
eĠro und
Ġpre -
zhua 6
s,Ġ greyĠ(
925 Ġhallmark
, Ġpro
Ġt rap
organ is
s, Ġbeig
Ġvintag eĠtravel
x-larg e,Ġ
m10Ġ(10 mm)ĠxĠ1.50
ĠwalletĠcas eĠfor
ason ry
gre gor
k iss
carbon Ġfiber
g ebra
g um
rig ation
trop lat
y ork
Ġsp id
sĠp ower
for Ġdog
s eyĠ
sp rin
re moval
ed p
tĠf ootball
(black )Ġ-
sĠh er
18k ĠwhiteĠgoldĠ
edĠc opper
Ġid ea
Ġhous eĠ
k 2
ĠswanĠ ignitionĠcoil
b ett
am ant
Ġfashion Ġsneaker
Ġjeweller y
f 0
Ġhex ĠsetĠ
2- in-1
hom eĠdecoration
setĠ -
y g
multi pleĠ
sĠj ump
Ġboy sĠ&
Ġcap ri
su itĠb
con tac
Ġshor tĠb
ĠwireĠ rop
. 11
you Ġcan
Ġk raf
Ġbumper Ġwindow
Ġvalent ine'sĠ
Ġd w
h oo
eĠsp ark
ĠholderĠh onda
Ġf ri
yĠp ar
ĠnonĠslipĠrugĠmatĠ roomĠmatĠ
Ġburg man
es tĠm
tĠd isp
Ġin nov
5 70
Ġ- Ġ11
ĠunframedĠ paperĠprintĠ/
Ġcro c
Ġst even
Ġ8.5 x20Ġ5x112ĠetĠ
man ifoldĠ
tp sĠsensor
ĠframedĠartĠprin tĠpictur
sĠ5 g
v ortex
Ġ6 x
th Ġcentur
v ionic
eĠ- Ġcolor:
Ġtwo Ġton
tensionerĠ rollerĠ
d im
-b eltĠ
so und
eĠsetĠ for
ulticol ouredĠ
log ic
Ġc actu
all -
el b
Ġzhua 7
ingĠt rain
yĠp ainting
Ġfish ingĠlure
d emon
yĠb anner
Ġmet r
a Ġ&
bo ut
Ġthermost atĠfor
p epp
Ġl l
tĠm otor
tĠsyn chronou
yĠh at
imp actĠ
st rideĠ
jetĠ black
sho elac
45 4
Ġoil Ġpainting
hand book
yĠb rush
mac book
ber t
packĠsizeĠ 10
5Ġ(5 mm)ĠmetricĠcoars
j erseyĠ
sĠb asic
qu estion
s eĠ
volum eĠ
Ġ7 3
bet ween
h ong
eĠb ikini
Ġcar rier
Ġ1 mĠ
m4Ġ(4mm)Ġx Ġ0.70
Ġre t
aĠcla usĠ
j enn
lass ical
anniversar y
mus ical
ne g
45 7
b t
gra di
Ġr n
Ġgen eration
ĠprintedĠ cotton
spro ck
eĠs al
gossĠ tpsĠsensor
ling back
Ġgrin ding
ograph y
ĠcurtainsĠdrapes,Ġ264 cmx241cm(wxh)Ġ104''xĠ94''
Ġ9 "
theĠb ookĠof
jewelry Ġfor
ian tĠ
sweatyrock sĠwomen'sĠ
eĠt ruck
Ġro os
-c lassĠ
d ungeon
gem ston
Ġtool Ġfor
tr ilog
,Ġp etĠ
tĠm ark
unisex ĠadultsĠ
ingĠc lip
34 8
Ġhigh -
Ġa 12
Ġh it
Ġd rillĠbit
36 )
28 9
ĠiwatchĠseriesĠ 6
erĠg oldĠ
ag gi
mĠ l
ĠbyĠch ar
Ġ3 .8
col lin
b eat
.2 "
- max
Ġpan ĠheadĠ
Ġra zor
oth ic
sĠc ushion
erĠ education
Ġb uffalo
Ġtf si
3dĠ river
k ay
du ff
2.5Ġ(2.5 mm)Ġx
Ġoffic eĠwork
tensionerĠrollerĠ dimm
ĠcurtainsĠdrapes,Ġ264 cmx160cm(wxh)Ġ104''xĠ63''
Ġperformanc eĠ
Ġcan ada
ĠyellowĠstamp edĠaluminumĠstreetĠsignĠmancave)
Ġrigh t
as ymmetric
Ġstamp Ġ-
6 ĠpiecesĠ
Ġmed allion
Ġslee vedĠ
Ġs in
gasket ĠsetĠ
il lo
f ol
Ġperman entĠ
Ġperfec tĠ
2 .3
Ġimpre za
- >
eĠsimp lyĠ
29 7
tĠb oy
am ong
Ġsmall Ġanimal
ri mar
wallĠartĠ homeĠdecor
ĠcurtainsĠdrapes,Ġ264 cmx213cm(wxh)Ġ104''xĠ83''
Ġ3 mĠ
da Ġsensor
ric o
Ġsued e,Ġ
Ġhe ightĠ
es (
p ierr
hÃ¶gl Ġwomen'sĠ
Ġhow Ġto
ryco Ġ
Ġnrl ĠtradersĠ
setĠof Ġ3
eĠp ull
eĠbag sĠ
ĠinchesĠ color
Ġv -st
Ġbal con
36 b
Ġshin yĠ
ag enta
Ġrear ĠengineĠmount
an sw
bo ston
ey ele
sĠd inosaur
Ġwil son
theĠb eat
Ġex terior
Ġsnak eĠchain
eĠtra il
10 ml
Ġwind sor
v aud
whit e,Ġ
Ġn autical
Ġlayer edĠ
bo yĠ
Ġcasual ĠshoesĠ
Ġhol iday
z ur
Ġl or
c 6
Ġlu k
Ġhous ing
Ġn ov
6 an
tĠg arden
Ġblu -rayĠ
Ġ4-cyl Ġ2.0
40 3
bir kenstock
aĠc ableĠ
Ġth eĠcomplet
199 7-
Ġo .
re ams
sĠs ign
Ġele mentsĠ
repell entĠ
Ġthread edĠ
Ġtiming Ġchain
Ġox ygen
ew ell
c loud
we atherĠ
zipp erĠ
Ġnurs eryĠ
[# 35
l mĠ
Ġc ros
giviĠcas eĠsimplyĠ
ĠrearĠax leĠbrakeĠdisc
26 9
eĠw alking
sĠwhit e
Ġroman tic
is ing
eĠle avesĠ
strideĠ rit
wrist band
ustradeĠ kit
Ġar Ġnew
sĠh oodi
Ġcar r
Ġusb Ġ2.0
tomĠtailor Ġwomen'sĠ
Ġ2 .5"
sĠb reathableĠ
Ġcon tour
Ġto Ġ2013
nin ja
Ġnecklac esĠ
27 7
180 cm
tĠb ottleĠ
3dĠ rainbow
Ġfresh water
enc eĠof
inder ella
eĠman ual
12 .5
easyĠto Ġinstall
Ġlac eĠ
60 5
genuineĠb osch
x14 ĠsilverĠhalideĠphotoĠprint
sc rip
Ġdis eas
li sten
d rilledĠ
Ġw eaveĠ
Ġmo ssĠ
Ġn eg
Ġb paĠfre
eĠg ro
Ġre ason
Ġbag s
camel ĠactiveĠ
Ġer as
genuineĠhonda Ġ7
Ġ+ Ġholder
Ġf .
regatta Ġmen
lin coln
tw is
quil ting
yĠph il
Ġart work
setĠ 2
Ġcar nival
Ġb eat
tĠd ark
Ġwater Ġbottle
skechersĠ unisex-childĠ
jewelryĠgif tsĠfor
Ġrot ation
Ġcomp etition
st ersĠ
Ġt Ġshirt
Ġm 18
Ġ32 gb
oc c
ant enna
ah ara
ĠgenuineĠ9k ĠorĠ18kĠgoldĠnatural
a2 ĠstainlessĠsteel
Ġto Ġ2007
- 38
ed a
au ra
Ġlen s,Ġ
yĠslip persĠ
eĠst udiesĠin
analog u
originalĠbulbĠinsid eĠprojectorĠlampĠmoduleĠfor
tur tleneck
Ġfla tĠhead
eĠc los
Ġblad esĠ
Â ¨
packĠsizeĠ 100
Ġbik eĠ
Ġguid eĠfor
Ġbat man
s tĠg
and roidĠ
Ġe ex
feed ing
3dĠp rett
Ġ(c y
dc i
Ġd eĠla
bim ba
eyek epperĠ
-bas edĠ
th eĠpro
log itech
Ġsiz e,Ġ
eb on
k itĠb
26 8
or ah
ĠengineĠ oil
tĠb all
Ġfunn y
Ġ(c ambridg
cap ri
in sĠ
Ġ5 "
b og
),Ġ nickel
3Ġm4Ġm5Ġm 6Ġm8
tĠcon nector
Ġmagn etsĠ
Ġrav 4
Ġbon netĠ
ah r
ori ental
ach etĠ
eĠp encil
replacement Ġstrap
1 ĠwallpaperĠwallĠmuralsĠremovableĠself-adhesiveĠamy
7 /8"
Ġ( z
Ġm and
Ġornam entsĠ
Ġh awaiian
ton g
for ĠsamsungĠgalaxyĠa
c 0
Ġto Ġ2012
Ġfashion ĠsneakersĠ
Ġbalanc edĠ
resc entĠ
3/4 ĠsleeveĠ
tĠc ubicĠzirconia
dirtĠbik eĠ
sĠp lush
eĠh yd
cgi Ġmini
ĠsuzukiĠgs x
sinteredĠbrakeĠpadsĠfrontĠl ĠorĠr
tĠh ol
12 pcsĠ
,Ġ19 20
Â ¥
ĠcurtainsĠdrapes,Ġ203 cmx241cm(wxh)Ġ80''xĠ94''
50 g
d ata
es jo
ĠbyĠ various
Ġno ir
eĠj ersey
at el
at man
zz o
Ġ3 .6
_ point
s, Ġtruck
pr anaĠwomen'sĠ
atĠb ag
ĠyamahaĠfz 6
eĠth em
om Ġpom
3dĠhomeĠwallpaper Ġwhit
eĠhel ix
Ġmen'sĠ standardĠ
Ġre bel
tĠb as
44 3
s,Ġ yellow
sĠm al
ingĠw ash
Ġb usĠ
16 mm
Ġphil ip
tĠd anc
st abil
tĠh ar
34 7
inc ens
yĠ ros
Ġcm Ġchipboard
-f un
Ġcosplay Ġcostum
eh old
Ġmous eĠmatĠ
tĠw oodĠ
Ġb le
Ġsprocket Ġsteel
Ġho lesĠ
theĠp oliticsĠof
bo om
sĠb aseball
per s
a 7
Ġ1" ĠwideĠ-ĠfitsĠ
ĠsnookerĠb illiardĠ
inn amon
,Ġb urgund
ear s
men &#39;
ĠpackĠof Ġ6
ĠperforatedĠleather ĠsteeringĠwheelĠcoverĠ
Ġ16 00
organiz erĠfor
( silver
dm Ġdub
activ ityĠbook
Ġcheck er
if ying
Ġresc u
Ġj ad
ean ut
lyn n
ele ment
ymp ath
sĠb yĠn
lin eĠdrawing
st erĠb
ĠsamsungĠgalaxyĠs 9
in Ġ-
Ġtoy Ġfor
Ġbol ts
Ġeurop e
Ġtur tleneck
Ġkick stand
us c
50 cm
Ġh sv
Ġhook ĠandĠloop
tig erĠ
eĠf un
Ġs urpris
redĠ -
Ġeex fab
,Ġ 1000
Ġ1 mm
ros cop
Ġge ometry
st rateg
Ġskate board
iv o
lan et
kn ightsĠ
Ġ150 ml
und atedĠ
eĠf ranc
gh i
del icat
Ġteen ĠgirlsĠ
Ġg igabitĠ
[# 66
eĠpart yĠ
sĠ20 19
Ġre adĠ
sĠ accessoriesĠ
Ġtub e
gripĠknob ĠboltĠ
Ġrug g
s ag
/c lear
_ 1)
1 ĠsetĠof
iter ran
Ġprofessional Ġgrad
w ig
ĠsetĠ in
post -catĠ
eĠsupp or
eĠ 30
50 pcsĠ
st rik
Ġsen ior
sĠcar bon
aut ism
eĠ9 11
Ġ0 .7
ãĢ Ĳ
eĠj ump
Ġm yth
setĠ for
re ck
Ġm ich
Ġ10 8
propetĠ men'sĠ
b ian
re tain
Ġ23 ĠswanĠ
Ġcenter Ġconsol
- strap
eng e
ĠsizeĠ 11
only Ġwomen'sĠ
s lee
Ġdoor Ġlock
Ġsup rem
70 5
sĠself Ġtapping
-c utĠ
Ġ( l
clip sal
eĠnon -slip
Ġh zj
[# 9
rizomaĠm a5
ĠdiamondĠ ring
h oll
Ġ1 .5mm
Ġp rett
Ġin sp
hel p
.925Ġsterling ĠsilverĠ
Ġv t
2 39
c abinetĠ
eĠc reation
Ġp onytail
te eĠ
at elic
mak er
cyc leĠb
50 4
eĠp ick
ra ss
e 9
Ġa2 ĠstainlessĠsteel
lo od
Ġ20 2
Ġad am
ãĢ ĳ
Ġligh tĠfor
Ġ11 "
h ava
Ġ .0
Ġtheor y
10 Ġuk)
Ġ- Ġsmall
som eth
Ġro ug
id ler
astron au
w on
Ġy ieldĠ
opp ingĠbag
Ġ( usĠwomen'sĠ
men tĠ(
s imon
entĠc olor
water colour
d rinking
d 4
sĠn ylon
Ġ199 2-
ross bod
ob liter
ro ot
ut er
Ġex am
high Ġwais
eyek epper
rang eĠro
,Ġbras s,Ġ
25 8
Ġyellow Ġgold
Ġston e,Ġ
Ġd iec
ix ar
27 8
j eep
eĠc af
ben ch
nu tĠg
eĠst ag
Ġb j
12 Ġx
,Ġ gre
every da
in strum
quer ad
Ġsp rink
ott oman
eĠm etallic
Ġbel tedĠ
Ġaudi Ġa6
il tĠb
Ġle ft
ovel t
eĠt ouch
Ġ125 cc
eg on
Ġbirth ston
ieĠ &
ruch edĠ
]Ġcoin ,
Ġloaf er,
Ġpart yĠwedding
sĠf loor
econom ical
0 5-
60 4
ot rim
m erced
abstrac t
Ġ7 380
3dĠ ros
Ġcoil Ġspring
st acyĠ
ug u
el ay
Ġm iss
Ġre moverĠ
sĠin Ġa
Ġ oppo
Ġst emĠ
Ġn ba
Ġx b
27 4
3dĠhomeĠwallpaperĠ golden
Ġtoy sĠ
st ag
bel le
Ġ4 2mm
sĠa 4
tĠpro of
b asketball
Ġtra dition
quick-d ryĠ
eĠ ledĠ
Ġb ezel
ĠcurtainsĠdrapes,Ġ203 cmx160cm(wxh)Ġ80''xĠ63''
- ra
Ġt ou
wil son
tĠ12x16 "
)Ġ( 12
ĠsizesĠs-5xl !
Ġpar isĠ
kit sĠfor
sof tĠtpu
Ġlob ster
ing Ġsystem
k 1
Ġd 3
Ġp illar
Ġf ederal
Ġwh en
do veĠ
ar ter
sĠb ulk
Ġcam ĠangleĠsensor
m 16Ġ(16
Ġlin coln
ĠcartilageĠ earring
4- inch
rub ie'sĠ
Ġ5 12
Ġarc tic
Ġslogan ĠcarĠwindowĠbumper
Ġ10 4
Ġsize: Ġ7.5
tor ch
Ġpar ti
Ġf ile
Ġtungsten ĠcarbideĠring
sĠm akeup
37 3
eĠsk ir
Ġ era
tĠh andleĠ
eb bleĠ
, ĠblueĠ
f if
ï¿ ½
stacyĠ adam
,Ġf ashion
ĠfrontĠbrakeĠcaliper Ġpiston
Ġdiffer entĠ
Ġminimal is
Ġinn erĠ
eĠin itial
a ylor
walking Ġcradle
Ġzo om
aĠs at
Ġsociet y
t as
larg eĠb
sĠm otor
sĠp lay
sĠsp ac
Ġfin dĠ
Ġa -z
al do
Ġi phoneĠcas
Ġair Ġfreshen
nineĠwes tĠwomen'sĠ
eĠdisp la
c n
Ġrec ording
1- 2
Ġtra ding
Ġ2 70
iesĠ men'sĠ
g ogg
- 000
ĠcurtainsĠdrapes,Ġ203 cmx213cm(wxh)Ġ80''xĠ83''
o colat
agn et
Ã ³
ros em
ĠfrontĠb rakeĠpad
walk er
em bleĠ
50 2
entr yĠ
Ġ60 mm
tire men
no Ġpull
Ġmix edĠ
Ġres er
sinteredĠbrakeĠpad sĠrear
yĠf lat
Ġtheor yĠandĠ
Ġsun set
ing ĠkitĠ
eĠpol o
Ġsp ell
ok u
issan it
eĠso ap
Ġfor Ġmini
sĠboy sĠ
60 9
[ size:
m8Ġ(8mm)ĠxĠ1.25 ĠpitchĠmetricĠcoars
Ġsize: Ġ12
,Ġm nh
Ġbro ok
sh ar
sĠbyĠ john
ingĠc or
ov i
Ġsmall ĠmediumĠdog
Â ´
u ction
Ġseal s
eĠsh ip
eĠm or
Ġm istĠ
sh el
eĠp ant
Ġsh ovel
Ġf erguson
Ġbal m
Ġd aniel
acc ination
o /s
ou quetĠ
w ristĠ
rom w
rakeĠdisc Ġrotor
yĠs leep
ver ter
Ġint ens
ligh tsĠfor
Ġ ...
Ġv ar
il it
Ġn ativeĠ
rycoĠ ĠairĠfilter
t 0
Ġseas cap
b low
Ġ1 12
15 -26
ĠforĠaudi Ġa6
eĠ- Ġ
sau con
ingĠp antsĠ
Ġ5 .7
sĠb ottleĠ
Ġk ong
jessĠartĠdecoration Ġ
at oo
u lesĠ
.8 Ġinch
Ġkn ock
Ġ2 Ġpiec
transferĠ vinyl
-18 Ġmonth
eĠsiz e
2pc s
ex trac
Ġkawasaki Ġkx
earring sĠ-
j ut
ĠforĠtoyota Ġlandcruis
Ġlo ssĠ
Ġpo tĠ
ed :
eĠp edal
_point _5)
tsĠ with
yĠf lower
Ġ0 .50
imag in
ĠcaseĠfor Ġhuawei
2pc s)
no zzleĠ
0 2-
Ġedp Ġ(l)Ġsp
Ġr ingĠp
24 pc
c ritical
yĠ lovesĠ
eĠh ill
ĠshifterĠ kitĠ
Ġd iesĠ
-s leeveĠ
sp iro
bor do
/ grey
ic ci
kil da
Ġwith outĠ
Ġy d
d riv
6 16
Ġfactor yĠ
Ġf riendĠ
andĠ largeĠdog
ven i
ĠaluminumĠ allo
andĠ black
sup erĠ
,Ġlarg e)
brakeĠle verĠ
Ġaut om
clear )
Ġbow Ġti
Ġjewelry Ġfor
sĠ- Ġblue
Ġ2 45
ĠforĠp orsch
eĠp oin
3d ĠswordĠartĠonlineĠ
,Ġ di
yĠn ightĠ
u istic
Ġspli tĠpin
Ġtransp ort
Ġw b
Ġwith Ġzipper
Ġl tdĠ
et z
.5 Ġeu)
Ġb ugg
organ iser
Ġro ok
a :
ea sterĠ
Ġ18 Ġinch
sĠf itsĠ
ityĠ -
3dĠ leavesĠ
rizomaĠfr 110
Ġshap esĠ
Ġr uck
floor Ġmat
10 an
46 n
ap ollo
Ġ( octavo)
Ġconcer to
80 1
Ġavail ableĠ
omet er
rav ens
s/ girl
Ġpain Ġrelief
ĠforĠyamaha ĠmotorcycleĠ
am ster
vintageĠ adver
eĠs up
e us
Ġj ut
roll erĠb
umb bell
air Ġcushion
Ġt erry
super ga
Ġm otivational
compatibleĠwith ĠappleĠwatch
Ã Ń
ag no
Ġboo tiesĠ
Ġst ubb
Ġbeaut yĠ
Ġbur lap
a Ġ9
,Ġ1 .5"
Ġscot landĠ
Ġ2 -pack
Ġform ula
Ġu h
Ġw f
sĠw ar
eĠt est
eĠ isĠ
ri sp
Ġkid s,Ġ
luc entĠ
k tm
awdisĠjustĠ cool
Ġdark Ġbrown
Ġc pu
[...]
