e Ġ
s Ġ
i n
e r
a n
d Ġ
t h
t Ġ
o n
o r
, Ġ
e n
a r
a l
e s
y Ġ
t i
in g
Ġ Ġ
o u
an dĠ
t o
r e
. Ġ
er Ġ
th eĠ
ing Ġ
a t
or Ġ
i c
r o
s t
a c
e sĠ
e l
e dĠ
i l
o f
a s
o l
a Ġ
i t
to Ġ
on Ġ
e c
& Ġ
of Ġ
: Ġ
m Ġ
u r
i g
o m
l eĠ
i sĠ
c h
al Ġ
a b
r a
l e
l Ġ
in Ġ
th Ġ
f orĠ
y ou
i s
ĠĠ ĠĠ
r Ġ
o o
T h
k Ġ
w i
u s
an Ġ
a ti
a d
v eĠ
e t
o w
a g
â Ģ
s ,Ġ
i d
a p
ig h
o Ġ
en Ġ
a m
wi thĠ
p ro
p l
- Ġ
a tĠ
e m
r i
e d
Ġ S
m o
es s
en t
u c
p Ġ
i r
h Ġ
a sĠ
en tĠ
u n
ab leĠ
al l
o v
u l
i f
sĠ &Ġ
0 0
Ġ C
s i
q u
ar t
you rĠ
Ġ B
S t
s h
Ġ P
Th eĠ
l u
e x
e tĠ
t er
l o
ti on
I n
i m
ti onĠ
ar eĠ
o t
an d
ti c
e ar
i es
w h
e ,Ġ
i tĠ
p er
k eĠ
x Ġ
c om
A u
c on
al lĠ
l yĠ
c c
e v
d uc
you Ġ
f or
l i
ati on
n Ġ
ac k
s p
u t
o p
a in
d i
r es
o s
S h
ess or
it yĠ
oo k
A cc
ĠĠĠĠ ĠĠĠĠ
y ,Ġ
s u
at er
0 Ġ
e w
t sĠ
Acc essor
ar d
ou n
er sĠ
e a
c mĠ
P art
Au to
eĠ ofĠ
mo ti
t r
el Ġ
i z
s .Ġ
ic Ġ
u m
Auto moti
m a
g Ġ
c anĠ
s /
' sĠ
P ro
a il
es sĠ
ur eĠ
b eĠ
esĠ &Ġ
ro mĠ
e .Ġ
Accessor ies
an c
st r
il lĠ
ch Ġ
th atĠ
d es
th erĠ
âĢ Ļ
h a
b yĠ
v er
Ġ F
o c
f romĠ
ing ,Ġ
ati onĠ
t erĠ
ater i
igh tĠ
e as
om eĠ
en d
on eĠ
ag eĠ
Ġ M
sĠ andĠ
Ġ A
th e
c ol
2 0
u re
C h
ac kĠ
r in
w or
Ġ W
a yĠ
in eĠ
an g
T o
e :Ġ
igh t
as eĠ
ow Ġ
a y
u p
v e
el l
p or
) Ġ
c m
R e
w illĠ
ig n
es ,Ġ
ra m
o tĠ
ar Ġ
o g
ou r
p h
Th isĠ
l as
i rĠ
b r
c lu
ou rĠ
ofĠ theĠ
i st
at eĠ
en c
o d
e at
Ġ 1
ateri al
Â ł
ou tĠ
a v
th isĠ
c re
ec tĠ
. ĠĠ
Ġ H
i p
t edĠ
ti m
inĠ theĠ
f f
ar dĠ
b e
an tĠ
Ġ D
i on
clu d
i esĠ
id eĠ
Ġ T
p ap
f ac
si z
an t
m ent
e p
E R
duc tĠ
. 5
C om
1 Ġ
s eĠ
1 2
B l
w e
pl ac
as h
1 0
al ityĠ
H omeĠ
em entĠ
es tĠ
h e
in d
C ol
en g
t ingĠ
th er
eĠ andĠ
a st
s |
ĉ ĉ
pro v
re c
u mĠ
h igh
a k
1 00
s tĠ
toĠ theĠ
is h
l essĠ
A n
u tĠ
b l
ab le
b o
ov erĠ
S iz
com p
f Ġ
ook s
oo kĠ
con t
y l
R E
âĢ ĵ
s oĠ
t ec
Automoti veĠ
ov er
,Ġ andĠ
a f
n e
âĢĻ sĠ
A r
n otĠ
an yĠ
ã Ģ
Ã Ĺ
t s
Automoti ve
ha veĠ
O N
lo th
E n
or eĠ
on -
1 9
d er
Q u
i aĠ
il l
âĢ Ŀ
l ec
Automotive /
s e
at edĠ
C on
d o
Ġ G
b leĠ
i v
y .Ġ
I N
sĠ ofĠ
all pap
en 'sĠ
Ġ L
for m
t ur
r yĠ
U S
A T
ou g
u g
yĠ toĠ
ar g
p r
u st
Accessories /
h asĠ
2 Ġ
it eĠ
ac h
W om
W h
Sh o
it sĠ
ĠĠĠĠĠĠĠĠ ĠĠĠĠĠĠĠĠ
ot or
d erĠ
ic eĠ
ic alĠ
Ġ R
1 6
S up
es eĠ
ad eĠ
c ar
A Ġ
C loth
5 0
er s
d ingĠ
P h
os eĠ
en s
ra keĠ
le aseĠ
h ic
all yĠ
t ra
on gĠ
qu alityĠ
M otor
d e
T r
k e
k ingĠ
m m
p ar
E Ġ
u alĠ
er yĠ
ic hĠ
ol dĠ
o b
ew Ġ
m mĠ
f u
oo dĠ
s m
5 Ġ
c o
onĠ theĠ
2 00
O R
t ,Ġ
4 Ġ
M aterial
plac ementĠ
Accessories |
oun dĠ
ti veĠ
in clud
er ,Ġ
f l
re eĠ
ar yĠ
i onĠ
D es
en si
B r
u pĠ
oc k
ig nĠ
3 D
A l
des ign
ur al
g u
ingĠ theĠ
E x
a dĠ
I tĠ
S p
tic Ġ
i alĠ
ain lessĠ
U n
.Ġ TheĠ
y c
ac hĠ
f ectĠ
âĢ ľ
s c
ow erĠ
S Ġ
m entĠ
p re
1 8
e g
f er
us tĠ
p erĠ
i veĠ
P rin
ou sĠ
s er
b i
d ur
m an
s :Ġ
i dĠ
anc eĠ
ec or
sĠ forĠ
fu lĠ
; Ġ
wh ichĠ
us eĠ
L E
sĠ toĠ
edĠ toĠ
f in
p o
cmĠ xĠ
3 Ġ
e elĠ
A N
t eĠ
W allĠ
ri end
leĠ Part
: ĠĠ
u b
e .
yĠ andĠ
ot t
Re placementĠ
if tĠ
er eĠ
il eĠ
d r
m oreĠ
g re
N on-
sĠ&Ġ Accessories|
on g
G re
esĠ andĠ
y st
f ram
w ar
of f
l dĠ
sp ec
Ġ (
A R
f ul
M ed
H e
a u
at ch
d is
it ch
c or
F ram
re ad
m in
âĢĵ Ġ
el yĠ
p rin
ic ation
e -
sĠ areĠ
am p
ri p
To ol
oo d
l if
p ol
a w
100 %
Sho esĠ&Ġ
W allpap
g ra
I C
withĠ aĠ
Cloth ing,Ġ
Com p
es .Ġ
oug hĠ
a th
es /
E S
pro ductĠ
h and
Part s/
ic k
A L
Sup pl
V e
a inĠ
Clothing,Ġ ShoesĠ&Ġ
n ec
ic tionĠ
b ookĠ
b ag
canĠ beĠ
y p
0 .
duc t
Ve hic
u d
isĠ aĠ
las s
Ġ N
is hĠ
ab r
str uc
A d
> ĠB
W i
o ol
f riend
the irĠ
Clothing,ĠShoesĠ&Ġ Accessories/
ac c
a keĠ
m e
as s
3 0
c le
al soĠ
ear Ġ
F eat
ableĠ forĠ
P l
1 4
g r
it t
en ti
B ooks
G ard
Ġ 4
ab il
e pĠ
A C
2 5
r on
ol og
f un
d ayĠ
in s
ow sĠ
des ignĠ
M ural
b erĠ
c us
B o
w eĠ
in ter
i umĠ
i ver
in t
o therĠ
u il
v i
e el
re t
ou t
st and
ac eĠ
ĠS h
C ar
Wom en'sĠ
Pro ductĠ
por t
m aterial
t or
ab l
B rakeĠ
com for
To y
F ictionĠ
I m
h el
1 5
c as
h isĠ
an v
wor k
M Ġ
E N
en er
m er
M an
s el
ex t
O r
ap p
ing .Ġ
âĢĿ Ġ
I T
F orĠ
ad eĠofĠ
ro w
FictionĠ Books
e /
St ainlessĠ
ure sĠ
u fac
t e
siz eĠ
d if
of tĠ
l in
A S
f i
wi th
Vehic leĠPart
re l
ing sĠ
u sĠ
k n
Siz eĠ
ãĢ ĳ
ãĢ Ĳ
ingĠ andĠ
v erĠ
id e
Non- FictionĠBooks
VehicleĠPart sĠ&ĠAccessories|
at ter
s .
ati veĠ
s k
st ra
v ir
ra f
Wallpap erĠ
en dĠ
is tĠ
M us
AutomotiveĠ ReplacementĠ
d el
< /
a irĠ
tion alĠ
ol d
Ġ xĠ
2 .
withĠ theĠ
Med iaĠ
h erĠ
av ail
Bl ackĠ
A p
Y ou
er y
s ol
c yc
I D
s ec
O therĠ
p res
In clud
W e
el lĠ
ma keĠ
mo stĠ
st or
i esĠ&Ġ
T ra
p leĠ
ac tĠ
G am
et ail
in ch
ent sĠ
at ingĠ
h n
Automotive/ Automotive/
n ewĠ
ti v
i enc
tic k
high Ġ
MediaĠ >ĠB
MediaĠ>ĠB ooks
per fectĠ
ow nĠ
d eĠ
vir on
Ġ -Ġ
En g
at erĠ
f itĠ
O ut
li pĠ
ed ,Ġ
ur alĠ
F l
J ew
the yĠ
t ableĠ
1 1
on lyĠ
B lu
at esĠ
tion sĠ
pro tec
to m
i qu
P ack
Pro duct
y .
asĠ aĠ
lo c
ar i
en sĠ
P er
i ec
wh enĠ
> Ġ
t w
2 4
itch enĠ
6 Ġ
Con t
ar tĠ
C D
X L
tion ,Ġ
re dĠ
edĠ inĠ
ur es
b le
l ight
p ur
Material :Ġ
eĠ theĠ
fromĠ theĠ
O n
Bl ack
Product s/
m adeĠ
er :Ġ
H igh
re m
8 Ġ
Gard en
s ur
ri st
ĠS t
n oĠ
p art
HomeĠ &Ġ
eĠ toĠ
in n
V in
I fĠ
ch edĠ
b ackĠ
eĠofĠ theĠ
Wi thĠ
andĠ theĠ
i Ġ
p e
b ook
yĠ ofĠ
/ Ġ
th r
b et
dif fer
bi keĠ
as tĠ
ol l
cre w
es t
O O
d ev
an n
p ic
1 .
oun d
e yĠ
U T
S il
b utĠ
3 .
s af
P ap
g iftĠ
' '
) ,Ġ
T V
.Ġ ThisĠ
6 0
l esĠ
eas yĠtoĠ
t yĠ
y es
ab outĠ
t ureĠ
edĠ byĠ
ma yĠ
C o
a y,Ġ
P o
P leaseĠ
tic alĠ
pro duc
Motor cyc
1 0Ġ
viron ment
ar k
" Ġ
g eĠ
f ir
th eseĠ
su p
Part s|
il yĠ
T Ġ
K itchenĠ
b ack
ro l
ensi on
1 7
eng thĠ
M ov
s s
it ableĠforĠ
ec t
ar m
Suppl ies
h ol
prov id
I ON
e y
li keĠ
I V
Motor bikeĠ
Ġ ĉĉ
ir th
O ff
c r
siz esĠ
E as
j o
r eĠ
ver yĠ
edĠ forĠ
O ur
ufac tur
esĠ theĠ
s,Ġ andĠ
,Ġ theĠ
on l
im ag
ap pl
ti -
Mus ic
wh oĠ
edĠ withĠ
com m
li p
ed .Ġ
willĠ beĠ
res ist
y -
S u
i pĠ
st y
em ent
wor kĠ
al i
ateri alĠ
D I
D Ġ
W eĠ
b re
an s
Th eseĠ
us hĠ
ul lĠ
ron tĠ
esĠ ofĠ
p leaseĠ
at t
ig in
u ti
at chĠ
et sĠ
v el
uc kĠ
ri b
Ph oneĠ
th anĠ
d ay
h es
ra p
C overĠ
f eat
a x
D i
1 3
re f
. ,
g an
able ,Ġ
ist or
f am
H ard
Ġ andĠ
Ar tĠ
ea dĠ
S etĠ
HomeĠ&Ġ Garden
ÃĹ Ġ
h owĠ
l lĠ
k l
e mĠ
m on
C arĠ
ash ion
ex c
forĠ yourĠ
p le
gre atĠ
) :Ġ
W or
abil ityĠ
WallpaperĠ Mural
C anv
ing s
HomeĠ&ĠGarden |
inĠ aĠ
4 0
r ang
In Ġ
do orĠ
l ightĠ
c rip
ĠC ol
in st
P ol
l ongĠ
ight :Ġ
I Ġ
N oĠ
col orĠ
iver s
ĠĠ Ġ
ir l
k sĠ
in e
ch il
w r
p >
E L
am eĠ
ou s
ĠĠĠĠĠĠĠĠĠĠĠĠĠĠĠĠ ĠĠĠĠĠĠĠĠĠĠĠĠĠĠĠĠ
Vin yl
Feat ures
7 0
7 Ġ
ch ang
s etĠ
ex per
d ecor
b ea
b as
O M
high -
to pĠ
ti t
Im prov
w asĠ
e achĠ
l ingĠ
il Ġ
Des ign
d etail
Siz e:Ġ
forĠ aĠ
ic kĠ
Includ esĠ
c eĠ
C over
ac t
is eĠ
N ot
y ear
A v
forĠ theĠ
differ entĠ
ingĠ &Ġ
y s
M od
I S
o mĠ
s ch
ation sĠ
on d
j ust
er s,Ġ
l ook
f -
Au str
A B
w ear
f abr
sh e
v en
a ir
t ain
c over
p os
IN G
D ec
An dĠ
ou ldĠ
In d
a z
D ecor
it y,Ġ
. -Ġ
be enĠ
por tĠ
avail ableĠ
7 5
a mĠ
g e
in toĠ
o to
cmĠ (
You Ġ
ation alĠ
s il
e ff
mer ic
B ag
tec hn
c l
Qu il
ma k
youĠ canĠ
8 0
B ook
ser v
arg eĠ
ing /
m eas
n at
ut t
E lec
WallpaperĠMural s
eng th
or sĠ
Sp ec
R O
ev enĠ
od yĠ
Ġ TheĠ
Mov iesĠ&Ġ
MoviesĠ&Ġ TV
l d
ar r
Pack ageĠ
u gĠ
p ack
h eĠ
Tr uckĠ
f it
T oĠ
Col our
ill ow
su b
M at
HomeĠ Improv
it y
A meric
ant e
ar n
D is
pr ac
rist m
edĠ andĠ
j ustĠ
si m
E C
u eĠ
ra w
sĠ inĠ
Jew ell
we ightĠ
er g
&Ġ D
oo seĠ
.Ġ S
mo v
IfĠ youĠ
per form
il lu
p ingĠ
O E
thr oughĠ
ĠĠĠĠ ĠĠ
Toy sĠ&Ġ
or d
to p
w om
ess ion
b el
isĠ theĠ
ar ante
ott onĠ
ar kĠ
un der
CarĠ &Ġ
pro ofĠ
per s
us h
las sĠ
with outĠ
Clothing,ĠShoesĠ&ĠAccessories/ Clothing,ĠShoesĠ&ĠAccessories/
sĠ theĠ
tim eĠ
m et
t s,Ġ
CarĠ&Ġ TruckĠ
L ineĠ
ev erĠ
Elec tr
wh atĠ
VehicleĠPartsĠ&ĠAccessories| CarĠ&ĠTruckĠ
f reeĠ
un n
a ,Ġ
VehicleĠPartsĠ&ĠAccessories|CarĠ&ĠTruckĠ Parts|
K itĠ
ph oneĠ
t sĠ&Ġ
c lo
Man ufactur
S c
i b
u ff
Automotive/Automotive/ AutomotiveĠReplacementĠ
f re
s oftĠ
the mĠ
3 9
âĢ Ķ
.Ġ ItĠ
p iec
l ov
Automotive/Automotive/AutomotiveĠReplacementĠ Parts/
C r
Y Ġ
an k
Pap erĠ
t ure
b estĠ
c ap
ad d
M en'sĠ
st ud
B ea
oug h
igin alĠ
F or
A b
u bl
2 .5
00 Ġ
S m
qu ip
v elĠ
Al lĠ
M oun
m adeĠofĠ
Av ail
hel pĠ
G u
pl ay
K id
if ication
c aseĠ
I G
tr aĠ
) .Ġ
Col or
In ter
i ti
3 5
g oodĠ
en ,Ġ
y n
andĠ aĠ
H and
d oĠ
âĢ ¢
ingĠ aĠ
andĠ m
9 0
su chĠ
L in
s un
E D
ĠC on
b in
col our
C Ġ
H om
w areĠ
h istor
ev eryĠ
e f
n on-
s et
Gam es/
au th
v ol
Qu alityĠ
B re
ri v
ro lĠ
iqu eĠ
C abl
le x
b uil
K S
pro f
to mĠ
Fram edĠ
am er
hes iveĠ
C as
col lec
W he
Des crip
c er
alĠ andĠ
if Ġ
S crew
al sĠ
- S
M et
bea uti
al ,Ġ
d u
Our Ġ
g iv
S tick
we enĠ
9 8
100% Ġ
yst em
T yp
Ch ristm
cc as
im ension
ID :Ġ
H oseĠ
Y ourĠ
ust ri
ID:Ġ UT
p ock
c ur
v ari
Manufactur er:Ġ
g if
wh ereĠ
Ã ©
ath ableĠ
ea v
c ent
ke epĠ
cus tom
d ep
l ong
dur ableĠ
an sĠ
c ul
g etĠ
v is
D o
tĠ ofĠ
S k
bo thĠ
a veĠ
ir tĠ
on dĠ
ret chedĠ
qu i
y m
c overĠ
ati bleĠ
w ash
L ight
I L
bet weenĠ
R A
2 0Ġ
ĠS iz
Wh iteĠ
St eel
B an
pro c
w ayĠ
w ellĠ
s le
ĠP ro
enc eĠ
m anyĠ
2 -
i orĠ
Â ±
d ec
w ater
or derĠ
Quil tĠ
ToysĠ&Ġ Games/
esĠ toĠ
exper ienc
or tĠ
atĠ theĠ
sh ap
ĠC h
b ec
B uil
w ay
e veĠ
ow er
wh ileĠ
th em
m aterialĠ
on ,Ġ
ati c
Music /
K n
as ticĠ
al thĠ
le tĠ
im ageĠ
U R
c raf
wi d
Per fectĠ
fir stĠ
O L
E T
.Ġ M
toĠ yourĠ
ne ed
su itableĠforĠ
el ryĠ
3 6
fun c
tw oĠ
res sĠ
R em
! Ġ
et c
e ,
provid esĠ
F r
cm ĠĠ
1 -
si onĠ
stand ardĠ
prov ideĠ
gu ideĠ
ation ,Ġ
US B
C le
f r
â ľ
ul ti
R es
ou l
W ash
all o
Tr an
as k
F abr
andĠ s
I t
youĠ toĠ
t orĠ
sur fac
S el
i eĠ
esĠ areĠ
Supplies /
1Ġ xĠ
Off iceĠ
ar oundĠ
A c
to ol
ic ationĠ
ro omĠ
v al
i entĠ
p sĠ
e |
9 Ġ
Motorcyc leĠ
ow n
upĠ toĠ
ac el
ri veĠ
OO KS
F ashion
M o
w aterĠ
.Ġ H
&ĠD in
KitchenĠ &ĠDin
ab yĠ
illow cas
p c
Â± Ġ4
cmĠ Â±Ġ4
ea therĠ
tionĠ ofĠ
us edĠ
ĠB rakeĠ
g l
h oldĠ
F ullĠ
b er
el op
al th
Âł Ġ
F it
m ed
li v
O p
o -
pap erĠ
Wh it
th ingĠ
sh ip
s id
do or
chil dr
col or
qu es
haveĠ aĠ
di oĠ
Tool sĠ&Ġ
v id
sh eĠ
ful lyĠ
en vironment
ur n
y ingĠ
Pro tec
ve hic
S S
t akeĠ
pr ess
ri m
in kĠ
i bleĠ
ec kĠ
ed dingĠ
f il
&Ġ StainlessĠ
f- ad
ex pl
cmĠxĠ 2
ul arĠ
Hom e/
U N
ic ro
be for
HoseĠ &ĠStainlessĠ
Ind ustri
t ak
ccas ion
p an
B e
if terĠ
ap pro
Bea ut
3 2
S T
C H
KitchenĠ&ĠDin ing/
mak esĠ
Fram eĠ
et s
eas yĠ
pl ayĠ
comfor tableĠ
isĠ anĠ
si on
H ol
< p>
comp le
ĠB OOKS
V al
ev ery
bo ardĠ
D Ã©
F ast
j ectĠ
Book s,Ġ
qu al
s '
rol l
er v
lif eĠ
ell entĠ
i ousĠ
c lass
le g
4 .
ful lĠ
uc k
l ookĠ
just ableĠ
.Ġ Th
/ Women'sĠ
pic tureĠ
a ug
S por
j ew
in k
as hĠ
s ati
irth dayĠ
gu arante
r is
in c
.Ġ D
al eĠ
an y
r ingĠ
ev er
owsĠ -Ġ
3 0Ġ
ov enĠ
ov el
ro p
ĠSh owsĠ-Ġ
MoviesĠ&ĠTV ĠShowsĠ-Ġ
Books,Ġ MoviesĠ&ĠTVĠShowsĠ-Ġ
or yĠ
C raf
di tionalĠ
b ro
pre v
in chĠ
st yl
pre m
c ut
ar mĠ
B ra
le ,Ġ
High Ġ
she et
p ec
s ,
e eĠ
Descrip tion
af terĠ
1 /
illu stra
st eelĠ
k id
2 6
ch ooseĠ
lo veĠ
sty leĠ
BrakeĠ LineĠ
ad v
Blu eĠ
Ġĉĉ ĉ
Ġ E
yes terĠ
T -
sĠ&Ġ B
sch ool
t re
us in
t yp
F reeĠ
oc kĠ
DI Y
Gre atĠ
ain tingĠ
t ex
M adeĠofĠ
esĠ inĠ
friend lyĠ
ob ileĠ
p oseĠ
3 4
âĢĻ tĠ
m ark
s ureĠ
n ot
bag Ġ
suchĠ asĠ
.Ġ B
M adeĠ
Not e:Ġ
n essĠ
Mural sĠ
op perĠ
t -
sĠ withĠ
p owerĠ
p utĠ
ĠB ra
iesĠ >
M O
Po st
L ightĠ
s ideĠ
ther eĠ
D og
We ight:Ġ
at ureĠ
ash ionĠ
fin ish
ing :Ġ
T ION
M in
r ac
C re
G oldĠ
w allĠ
P U
techn olog
com eĠ
re g
p ubl
ir eĠ
P owerĠ
D R
< b
andĠ f
Americ anĠ
ch o
3 -
h omeĠ
act ualĠ
R o
Eas yĠtoĠ
em per
L Ġ
Prin tĠ
al |
oo thĠ
e ed
ph on
)Ġ (
wor ld
ti s
E quip
D ER
pl yĠ
ic ,Ġ
prin tĠ
ing |
O Ġ
ou bleĠ
sm allĠ
cre enĠ
Y ell
itt leĠ
am in
cle an
h er
4 5
s om
or n
us ingĠ
HomeĠ DÃ©
ou seĠ
â Ŀ
F itsĠ
m at
l es
CD sĠ&Ġ
f-ad hesiveĠ
St or
mo d
C ur
illowcas esĠ
Jewell ery
3 8
w earĠ
ro om
ĠP ol
am et
L e
J o
ies ,Ġ
s l
itĠ isĠ
inst all
Vinyl /
availableĠ inĠ
esĠ withĠ
2 8
ph oto
:Ġ TheĠ
CDsĠ&Ġ Vinyl/
S oftĠ
beauti fulĠ
or iginalĠ
con ven
g o
.Ġ A
dev elop
il li
fam il
pers on
QuiltĠ CoverĠ
di rec
Industri al|
an kĠ
im port
s.Ġ ThisĠ
onĠ S
5 .
i x
Br andĠ
ens ureĠ
en u
in dĠ
D r
e,Ġ andĠ
befor eĠ
ro s
o veĠ
le a
.5 Ġ
ð Ł
um eĠ
d am
ĠC om
he ad
c ard
Austr ali
cont actĠ
2 7
sh o
esĠ onĠtheĠ
St retchedĠ
on ic
sĠ (
On eĠ
C l
g et
ĠP ack
Bre athableĠ
ĠSiz e:Ġ
p edĠ
o toĠ
d ryĠ
ing leĠ
a i
19 9
includ ingĠ
N ec
wh iteĠ
h um
or gan
S e
pe op
fabr icĠ
er c
b utt
M ar
enti alĠ
CDsĠ&ĠVinyl/ Music/
m anĠ
ub berĠ
ingĠ toĠ
g oĠ
' tĠ
T im
Canv asĠ
et yĠ
high- qualityĠ
el s
< br
- P
cm ,Ġ
st erĠ
tsĠ andĠ
Ġ forĠ
nat uralĠ
di tion
StainlessĠ Steel
feat uresĠ
T H
s or
S w
O ther
P C
m us
s oc
En vironment
wi deĠ
pur poseĠ
To pĠ
P etĠ
sh ipĠ
R ug
C ap
f eelĠ
Eng ineĠ
yes ter
St r
isĠ forĠ
C areĠ
5 0Ġ
yst emĠ
t ainĠ
abilityĠ andĠ
Sil verĠ
ar ac
resist antĠ
T S
res ear
C ool
Mat teĠ
tĠ andĠ
C aseĠ
% Ġ
on om
p etĠ
Buil dingĠ
f ic
y :Ġ
E achĠ
ach ineĠ
H andĠ
all ow
4 -
w antĠ
ch arg
G ra
e.Ġ TheĠ
ref erĠ
l ay
it y.Ġ
W ater
m is
R edĠ
le ad
Color :Ġ
at orĠ
to w
ĠA N
wor ldĠ
A D
con nec
G irl
car ryĠ
erĠ andĠ
tr ans
ter sĠ
id edĠ
s w
c anv
onĠ aĠ
p rec
ĠW allpap
amer aĠ
includ esĠ
âĿ ¤
Ap pl
esĠ forĠ
Canv as
hasĠ beenĠ
ail yĠ
i tionĠ
ic oneĠ
to c
F itt
V Ġ
n ationalĠ
wr it
w ind
un iqueĠ
spec ialĠ
ma kingĠ
t ext
M obileĠ
ationĠ ofĠ
E arr
highĠ qualityĠ
in toĠtheĠ
F il
re duc
h om
D imension
et ,Ġ
sh op
prof ession
eĠ forĠ
mayĠ v
ed g
ural ,Ġ
G r
M on
esĠ thatĠ
m em
acc essor
HomeĠImprov ement
Books,ĠMoviesĠ&ĠTVĠShowsĠ-Ġ Non-FictionĠBooks
âĢ ĺ
ag ain
B el
sĠ thatĠ
rang eĠofĠ
er ingĠ
pro ble
res p
ĠS T
A M
tur n
.Ġ P
t t
G iftĠ
Hard war
po si
Motorcyc leĠPart
it em
ea k
col l
di vid
r ic
ug g
3D Ġ
H os
T w
in cre
ou chĠ
pl asticĠ
Automotive/Automotive/AutomotiveĠReplacementĠParts/ AutomotiveĠReplacementĠ
F itĠ
of t
eff ec
s n
T able
HomeĠImprovement /
eas ilyĠ
comfor t
re adĠ
b oo
,Ġ M
p s
2 2
of fĠ
ĠN at
enu ineĠ
us p
z z
h andĠ
w ood
mo der
U K
c oun
12 Ġ
AL L
O P
U s
ï ¼
s.Ġ TheĠ
prac tic
it edĠ
4 4
n o
r ing
d raw
g ener
u chĠ
Fast ener
l it
ĠW allĠ
y /
sĠ aĠ
L a
x im
b Ġ
,Ġ S
s ear
igh tsĠ
onl y,Ġ
ĠB l
M ak
es .
Part s
& #
rem iumĠ
Christm asĠ
to o
le d
referĠ toĠtheĠ
XL Ġ
d ay,Ġ
re d
W ovenĠ
r ightĠ
W x
fin dĠ
onl y.Ġ
w allpap
to x
y lĠ
if ic
ĠA n
S port
prem iumĠ
h i
W atch
illustra tionĠ
gra ph
R ec
ar y.
m ag
x ĠP
S af
n es
ne edĠ
Q U
ĠB ol
Un ivers
o ccasion
He althĠ
S ol
co ol
b ra
oul derĠ
us ingĠtheĠ
j ec
O ver
m or
mo del
prev entĠ
th oseĠ
we ight
Out doorĠ
I P
productĠ isĠ
f rontĠ
ur ingĠ
6 .
AC K
col ourĠ
SizeĠ (
h an
MotorcycleĠ &Ġ
is ionĠ
Spec ification
X Ġ
g irl
l and
h ard
tr ac
9 9
sc r
A ss
t ectĠ
Wx H
100% ĠNat
P ur
n ew
'' )
f tĠ
ro c
Or gan
pleaseĠ referĠtoĠtheĠ
Bo x
cle anĠ
ĠCol orĠ
s ign
i allyĠ
tr an
l ast
6 -
d at
atesĠ toĠ
ha irĠ
3 00
4 8
I F
o ilĠ
Accessor iesĠ&Ġ
es |
V ol
ingĠ S
IT Y
St and
produc tsĠ
f oo
Ġ ĉ
actualĠ sizeĠ
illustrationĠ purposeĠ
illustrationĠpurposeĠ only,Ġ
ro m
illustrationĠpurposeĠonly,Ġ pleaseĠreferĠtoĠtheĠ
illustrationĠpurposeĠonly,ĠpleaseĠreferĠtoĠtheĠ actualĠsizeĠ
illustrationĠpurposeĠonly,ĠpleaseĠreferĠtoĠtheĠactualĠsizeĠ sheet
Environment alĠandĠ
r id
e enĠ
h app
re mo
100%ĠNat ural,Ġ
imag esĠonĠtheĠ
pro of
pictureĠ isĠforĠ
100%ĠNatural,Ġ EnvironmentalĠandĠ
imagesĠonĠtheĠ pictureĠisĠforĠ
imagesĠonĠtheĠpictureĠisĠforĠ illustrationĠpurposeĠonly,ĠpleaseĠreferĠtoĠtheĠactualĠsizeĠsheet
material ,Ġ
ou ch
i >
car e
usin essĠ
imagesĠonĠtheĠpictureĠisĠforĠillustrationĠpurposeĠonly,ĠpleaseĠreferĠtoĠtheĠactualĠsizeĠsheet .
kl aceĠ
Sel f-adhesiveĠ
ed d
Out door
Sh ifterĠ
o per
ersĠ andĠ
100%ĠNatural,ĠEnvironmentalĠandĠ BreathableĠ
b odyĠ
St y
L ength
A G
1 xĠ
b ar
ch arac
ter n
C lass
con struc
ou se
w on
n um
YouĠ canĠ
PleaseĠ Note:Ġ
sup portĠ
i a
? Ġ
tionĠ toĠ
or m
re qui
BuildingĠ Material
w a
S le
E m
N at
> ĠP
ri pĠ
Parts/ AutomotiveĠ
ap terĠ
A irĠ
st ainlessĠ
mayĠv ary.
3 /
di st
alĠ forĠ
exc ellentĠ
h our
h y
Ar t
2 1
Colour :ĠĠ
* Ġ
ad dĠ
W ind
Hard wareĠ
St eelĠ
rel atesĠtoĠ
AT V
eav yĠ
s omeĠ
wid thĠ
ProductĠ Colour:ĠĠ
ProductĠ ID:ĠUT
le t
-Ġ F
as ,Ġ
SizeĠ guideĠ
ÃĹ Ġ1
h ang
in s,Ġ
l engthĠ
bl ackĠ
D ay,Ġ
ul tĠ
s ameĠ
G if
T ri
off ersĠ
st er
design ,Ġ
sp aceĠ
standardĠ sizesĠ
SizeĠguideĠ imageĠ
SizeĠguideĠimageĠ relatesĠtoĠ
sp ar
SizeĠguideĠimageĠrelatesĠtoĠ standardĠsizesĠ
SizeĠguideĠimageĠrelatesĠtoĠstandardĠsizesĠ only.Ġ
SizeĠguideĠimageĠrelatesĠtoĠstandardĠsizesĠonly.Ġ BrandĠ
SizeĠguideĠimageĠrelatesĠtoĠstandardĠsizesĠonly.ĠBrandĠ sizesĠ
SizeĠguideĠimageĠrelatesĠtoĠstandardĠsizesĠonly.ĠBrandĠsizesĠ mayĠvary.
HomeĠDÃ© cor
ide oĠ
e )
L if
al iaĠ
appl ication
N o
ationĠ andĠ
ish edĠ
v iv
IV EĠ
R ugĠ
al is
asĠ wellĠ
sub jectĠ
U L
ĉĉ ĉ
.Ġ F
s lip
sel fĠ
ex traĠ
he alth
H E
Electr onic
an ti-
R el
Women'sĠ Fashion
Clothing,ĠShoesĠ&ĠAccessories/Clothing,ĠShoesĠ&ĠAccessories/ Women'sĠFashion
sp i
cont ain
y ,
PleaseĠNote:Ġ SizeĠguideĠimageĠrelatesĠtoĠstandardĠsizesĠonly.ĠBrandĠsizesĠmayĠvary.
el d
ĠW h
st andĠ
RE AT
sp or
d ailyĠ
O T
6 5
sĠ&Ġ DIY
BuildingĠMaterial sĠ&ĠDIY
BuildingĠMaterialsĠ&ĠDIY |
HomeĠ&ĠGarden| BuildingĠMaterialsĠ&ĠDIY|
e .ĠĠ
Au dioĠ
hasĠ aĠ
U l
VehicleĠPartsĠ&ĠAccessories| MotorcycleĠPart
VehicleĠPartsĠ&ĠAccessories|MotorcycleĠPart s|
cmĠÂ±Ġ4 cmĠĠ
in ,Ġ
Wh enĠ
Com bin
- F
p op
M ag
I R
yourĠ f
PaperĠ Prin
g lo
le :Ġ
las tic
'' x
A P
el dĠ
on sĠ
to -
a ff
A m
Automotive/Automotive/ MotorbikeĠ
Automotive/Automotive/MotorbikeĠ AccessoriesĠ&Ġ
OR DER
19 8
o il
p atter
ke yĠ
re mov
bo x
Clothing,ĠShoesĠ&ĠAccessories/Clothing,ĠShoesĠ&ĠAccessories/Women'sĠFashion /Women'sĠ
Sport s,Ġ
Automotive/Automotive/MotorbikeĠAccessoriesĠ&Ġ Parts/
import antĠ
i DR
ar e
ti g
part yĠ
loc k
aug h
b il
ensi onĠ
b and
outĠ theĠ
Fitt ings
c ottonĠ
jew elryĠ
g iveĠ
an tsĠ
US T
i anĠ
MotorcycleĠ&Ġ ATV
7 .
bo ard
som e
er edĠ
en n
G al
sati s
Th eyĠ
gr oundĠ
ementĠ -Ġ
toĠ beĠ
in form
esĠ -Ġ
P ad
es :Ġ
ar ti
ture dĠ
Austr aliaĠ
C opperĠ
Gard enĠ
N ovel
al iz
perfectĠ forĠ
E u
Ġ &Ġ
su re
B i
ain t
M uralĠ
K it
loc kĠ
Re g
HomeĠImprov ementĠ-Ġ
W id
Gre enĠ
Col orĠ
par tĠ
d on
r ess
s tit
tionĠ andĠ
em por
c arĠ
sh ir
ul ar
sĠ&Ġ Hardwar
4 6
pol i
Fastener sĠ&ĠHardwar
Ch il
B ar
Fabr ic
again stĠ
s ens
perform anceĠ
for c
W al
N ewĠ
s tick
2 9
an ti
canv asĠ
cm ):Ġ
C ut
T op
in ingĠ
pc sĠ
d em
Cabl esĠ&Ġ
e :
B odyĠ
s ystem
S am
per f
giftĠ forĠ
D etail
am pĠ
peop leĠ
ro duc
Su itableĠforĠ
el eg
T e
for mĠ
sm is
F in
l ittleĠ
P B
5 -
c al
b andĠ
St e
OE M
O il
ke ep
.Ġ L
Comp atibleĠ
B L
C anĠ
w al
D ur
ap eĠ
W aterĠ
AN D
kl ac
ap Ġ
D e
Industrial| FastenersĠ&ĠHardwar
Industrial|FastenersĠ&ĠHardwar e|
ed uc
ItĠ isĠ
m oun
sk inĠ
ut yĠ
at or
N av
ra ph
th enĠ
prin tedĠ
iDR IVEĠ
Part yĠ
en jo
sm oothĠ
ock etĠ
all owĠ
m uchĠ
e etĠ
un derĠ
âĢĻ Ġ
g lu
meas ureĠ
Comp u
em b
/ ĠSize:Ġ
Wom enĠ
l ineĠ
M atĠ
D el
l argeĠ
ra g
in v
it alĠ
C ard
N otĠ
pres ent
an al
2 3
onĠS lipĠ
el sĠ
t emper
lu min
tur nĠ
gra deĠ
perform anc
c loth
el e
) (
b u
t ri
d ro
Moun tedĠ
is su
d ownĠ
Typ e:Ġ
J ack
del iver
re li
youĠ willĠ
He ad
M ensĠ
asĠwellĠ asĠ
auth orĠ
ail Ġ
st at
T re
7 6
ensi veĠ
Eas yĠ
os esĠ
ing .
i PhoneĠ
100%ĠNatural,ĠEnvironmentalĠandĠBreathableĠ ĠTheĠ
ofĠ aĠ
kn ow
bet terĠ
WallĠ Stick
Equip ment
ins ideĠ
Automotive/Automotive/MotorbikeĠAccessoriesĠ&ĠParts/ MotorcycleĠ&ĠATV
op h
o z
100%ĠNatural,ĠEnvironmentalĠandĠBreathableĠĠTheĠ imagesĠonĠtheĠpictureĠisĠforĠillustrationĠpurposeĠonly,ĠpleaseĠreferĠtoĠtheĠactualĠsizeĠsheet.
plac eĠ
E ĠC
tion .Ġ
+ Ġ
si st
moder nĠ
sim pleĠ
L engthĠ
Ph otoĠ
cont rolĠ
HealthĠ &Ġ
s o
In ch
par tic
H airĠ
OE MĠ
be ingĠ
sĠ orĠ
ure ,Ġ
el ec
cre ateĠ
fram esĠ
urn it
ir r
e edĠ
Re f
ur d
Whit e
p ower
a h
in divid
</ p>
ers on
S usp
2.5 cmĠ
childr enĠ
to teĠ
X X
eryĠ &Ġ
Lin esĠ&Ġ
int ageĠ
be g
FrameĠ /ĠSize:Ġ
ke y
isĠ notĠ
7 -
8 .
In t
cm /
O f
en seĠ
V E
C ableĠ
B abyĠ
inĠ yourĠ
re etĠ
id d
at eg
or der
im p
f oll
c an
pro tectĠ
c ep
Rem ov
ĠCon struc
inn erĠ
l owĠ
S ign
,Ġ aĠ
50 cmĠxĠ
ToysĠ&ĠGames/ ToysĠ&ĠGames/
esĠ aĠ
Cabl es
fam ilyĠ
Sh ir
w ereĠ
light weightĠ
pur ch
high estĠ
ish ingĠ
onĠ K
on ent
un d
ĠP art
pack ag
inch esĠ
,Ġ H
str ongĠ
C ardĠ
atter yĠ
" Ġ(
way sĠ
onĠ yourĠ
v etĠ
C or
W r
B as
i an
- -
âĢĻ llĠ
ES S
Wash ersĠ
Blu e
ableĠforĠ theĠ
lex ibleĠ
anc edĠ
unn ingĠ
&Ġ MountedĠ
subjectĠ toĠ
ang eĠ
e k
MatteĠ PaperĠPrin
,Ġ Manufacturer:Ġ
protec tionĠ
met alĠ
h ardĠ
Col lec
off erĠ
struc tion
vi ew
Re ad
class icĠ
ell ingĠ
s lipĠ
ex tĠ
L i
e th
end antĠ
our c
. ĠĠĠĠ
pos si
S n
qu is
ol ts
whichĠ isĠ
I de
en oughĠ
l at
su per
I M
con f
s .ĠĠ
Cr ushĠ
Ap par
rĠ /
P lu
ang u
ent lyĠ
ax yĠ
OfficeĠ Products/
og anĠ
jo sĠ
proble m
i erĠ
ifĠ youĠ
PetĠ Supplies/
ingĠ forĠ
ed :Ġ
un c
l ab
N onĠSlipĠ
<b rĠ/
Suppl iesĠ>
er iesĠ
I Z
StainlessĠSteel ĠConstruc
Avail ableĠforĠtheĠ
ĠBol tsĠ&Ġ
g lassĠ
Combin ationsĠ
ip erĠ
P or
LinesĠ&Ġ Fittings
CopperĠ CrushĠ
CopperĠCrushĠ WashersĠ
IncludesĠ SS
Ban josĠ
ĠColorĠ CombinationsĠ
StainlessĠSteelĠConstruc tion,Ġ
FullĠ StainlessĠSteelĠConstruction,Ġ
ĠColorĠCombinationsĠ AvailableĠforĠtheĠ
FullĠStainlessĠSteelĠConstruction,Ġ IncludesĠSS
FullĠStainlessĠSteelĠConstruction,ĠIncludesĠSS ĠBoltsĠ&Ġ
98 ĠColorĠCombinationsĠAvailableĠforĠtheĠ
FullĠStainlessĠSteelĠConstruction,ĠIncludesĠSSĠBoltsĠ&Ġ CopperĠCrushĠWashersĠ
BanjosĠ 98ĠColorĠCombinationsĠAvailableĠforĠtheĠ
BanjosĠ98ĠColorĠCombinationsĠAvailableĠforĠtheĠ LinesĠ&ĠFittings
ĠH osesĠ
ĠHosesĠ FullĠStainlessĠSteelĠConstruction,ĠIncludesĠSSĠBoltsĠ&ĠCopperĠCrushĠWashersĠ
er sĠ&Ġ
sp ac
app ear
bo xĠ
G ood
serv iceĠ
wom enĠ
Novel tyĠ
sĠ&ĠB olts
lea therĠ
I sĠ
Screw sĠ&ĠBolts
ĠBra kingĠ
ĠBrakingĠ PB
Pro ĠBrakingĠPB
ON T
on eĠofĠtheĠ
I I
um p
I ES
T ec
D riveĠ
. .
spar entĠ
in -
ne edĠtoĠ
D arkĠ
.ĠThisĠ productĠisĠ
MO RE
B oo
tic kĠ
rec tĠ
a thĠ
you r
des c
to ge
2 xĠP
s.ĠThisĠ isĠ
g row
add edĠ
Whe el
tim e.Ġ
K ey
val u
5 00
i um
eĠ isĠ
ure ment
1xĠ QuiltĠCoverĠ
50cmĠxĠ 70
HomeĠ&ĠGarden| HomeĠDÃ©cor
HomeĠ&ĠGarden|HomeĠDÃ©cor |
Ex ha
Automotive/Automotive/MotorbikeĠAccessoriesĠ&ĠParts/MotorcycleĠ&ĠATV ĠBrakeĠ
BrakeĠ Cables
Hos es/
2xĠP illowcasesĠ
)Ġ -Ġ
2xĠPillowcasesĠ 50cmĠxĠ70
rec e
b lu
Sam sun
l y,Ġ
Automotive/Automotive/MotorbikeĠAccessoriesĠ&ĠParts/MotorcycleĠ&ĠATVĠBrakeĠ Products/
b allĠ
IG H
S erv
t es
ut erĠ
ur yĠ
f ast
ic e,Ġ
K e
dep th
overĠ theĠ
subjectĠtoĠ avail
Length :Ġ
Automotive/Automotive/MotorbikeĠAccessoriesĠ&ĠParts/MotorcycleĠ&ĠATVĠBrakeĠProducts/ MotorbikeĠ
sear chedĠ
ouse holdĠ
<br >
Prin ts
B ins,Ġ
2 5Ġ
abilityĠandĠ canĠbeĠ
Automotive/Automotive/MotorbikeĠAccessoriesĠ&ĠParts/MotorcycleĠ&ĠATVĠBrakeĠProducts/MotorbikeĠ Bins,Ġ
Automotive/Automotive/MotorbikeĠAccessoriesĠ&ĠParts/MotorcycleĠ&ĠATVĠBrakeĠProducts/MotorbikeĠBins,Ġ CablesĠ&Ġ
usingĠtheĠ productĠ
Hoses/ MotorbikeĠ
Hoses/MotorbikeĠ BrakeĠCables
Automotive/Automotive/MotorbikeĠAccessoriesĠ&ĠParts/MotorcycleĠ&ĠATVĠBrakeĠProducts/MotorbikeĠBins,ĠCablesĠ&Ġ Hoses/MotorbikeĠBrakeĠCables
onĠK oganĠ
.ĠThisĠproductĠisĠ availableĠinĠ
subjectĠtoĠavail abilityĠandĠcanĠbeĠ
colour s.ĠThisĠisĠ
searchedĠ onĠKoganĠ
colours.ĠThisĠisĠ subjectĠtoĠavailabilityĠandĠcanĠbeĠ
searchedĠonĠKoganĠ usingĠtheĠproductĠ
colours.ĠThisĠisĠsubjectĠtoĠavailabilityĠandĠcanĠbeĠ searchedĠonĠKoganĠusingĠtheĠproductĠ
colours.ĠThisĠisĠsubjectĠtoĠavailabilityĠandĠcanĠbeĠsearchedĠonĠKoganĠusingĠtheĠproductĠ ID:ĠUT
d et
âĢ ¦
V ER
An n
B ookĠ
cus tomĠ
empor aryĠ
lec tiveĠ
l edĠ
Avail ableĠ
ul ti-
P re
og raph
en ingĠ
O F
F romĠ
prac ticalĠ
le arn
D ayĠ
B ri
f oc
AN T
cmĠ( WxH
Sh irtĠ
cmĠ(WxH )(
Wallpap er,Ġ
te ach
Val ent
uc c
op tionĠ
ol eĠ
ing s,Ġ
bre ak
4 2
c a
ersĠ areĠ
j our
o idĠ
design edĠtoĠ
c oĠ
Ban j
sĠ -Ġ
Cover ingĠ
Ġ withĠ
Tool sĠ&ĠAccessories|
organ iz
an eĠ
RE E
k g
ch ainĠ
as tic
O nĠ
po in
las tĠ
in f
Au th
U P
look sĠ
HomeĠ&ĠGarden|BuildingĠMaterialsĠ&ĠDIY| Wallpaper,Ġ
HomeĠ&ĠGarden|BuildingĠMaterialsĠ&ĠDIY|Wallpaper,Ġ ToolsĠ&ĠAccessories|
Appar elĠ
vari ousĠ
e Âł
lo s
comm un
HomeĠ&ĠGarden|BuildingĠMaterialsĠ&ĠDIY|Wallpaper,ĠToolsĠ&ĠAccessories| WallpaperĠMurals
f itsĠ
acel etĠ
wor kingĠ
ufac turedĠ
8 -
Wom en
isĠ madeĠofĠ
it chĠ
u zz
p airĠ
fram eĠ
5 5
U M
Feat uresĠ
ser iesĠ
os )
U seĠ
ear tĠ
out doorĠ
t .Ġ
icĠ andĠ
An ti-
ex p
S im
Pap er
ang leĠ
as sĠ
qual ity,Ġ
o x
Banj os)
stand ingĠ
im alĠ
KitchenĠ&ĠDining/ KitchenĠ&ĠDining/
N um
u tion
com bin
T ext
bas edĠ
Z o
Y ear
ĠAN D
2 4Ġ
b usinessĠ
tsĠ forĠ
edĠ theĠ
HardwareĠ >ĠP
C ameraĠ
allĠ theĠ
detail s.Ġ
Ph oto
f eel
Home/ Home/
ra y
Kid s'
pro duct
F ashionĠ
ĠF OR
REAT IV
n everĠ
sĠ >
you n
Nat uralĠ
Gal axyĠ
thatĠ theĠ
&Ġ WallĠ
KitĠ IncludesĠ
able .Ġ
Met alĠ
ĠWallpap er
r ubberĠ
c ardĠ
C C
aintingĠ &ĠWallĠ
SuppliesĠ> ĠWallpaper
aintingĠ&ĠWallĠ CoveringĠ
aintingĠ&ĠWallĠCoveringĠ SuppliesĠ>ĠWallpaper
HardwareĠ>ĠP aintingĠ&ĠWallĠCoveringĠSuppliesĠ>ĠWallpaper
S ch
s creenĠ
tsĠ ofĠ
th reeĠ
resp on
H y
A U
you tĠ
m un
sh oulderĠ
F rontĠ
kid sĠ
L eatherĠ
ableĠ andĠ
me etĠ
b od
g am
st ret
stor ageĠ
O S
Ph on
Dec orĠ
fabr ic
n ightĠ
it emĠ
Th ereĠ
ou ts
Ad justableĠ
Stor ageĠ
ot tomĠ
a kĠ
me th
Wor ldĠ
U p
AR T
o dĠ
16 Ġ
R ear
Tra velĠ
W Ġ
s,Ġ theĠ
z ip
U RE
w ard
le ftĠ
USB Ġ
E ar
l y
conven ientĠ
ti leĠ
b edĠ
es,Ġ andĠ
ec onom
Eng l
idedĠ BrakeĠLineĠ
idedĠBrakeĠLineĠ (
9 -
with inĠ
ir c
f res
k ,Ġ
E y
G enuineĠ
P ackĠ
l ow
hand lesĠ
M aterialĠ
StretchedĠ &ĠMountedĠ
MobileĠ PhoneĠ
custom iz
d ,Ġ
K Ġ
B irthdayĠ
b irth
L argeĠ
- W
madeĠ fromĠ
s eas
in ksĠ
sh ar
charac ter
ple as
ma xim
; sĠ
w ouldĠ
l arg
n ess
m yĠ
Colour :Ġ
st oreĠ
sh ow
e en
os tĠ
doĠ notĠ
3 3
oo pĠ
Australi anĠ
fac eĠ
resear chĠ
clu des
s -
1 20
&# 39
La youtĠ
0. 0
scr atch
n alĠ
Spor tingĠ
t lyĠ
elec tr
read yĠtoĠ
ro tt
the or
) ĠĠ
non- tox
âľ ¿
u al
E l
asĠ theĠ
ra gr
ind erĠ
f oodĠ
pock et
B ack
dr ess
S ec
tr yĠ
c ouldĠ
l ess
.Ġ .Ġ
year sĠ
A F
SportingĠ Good
ĠPack ageĠ
ex Ġ
R ev
ra yĠ
at elyĠ
er .Ġ
SizeĠ( FrameĠ/ĠSize:Ġ
Jew elryĠ
includ eĠ
Dis c
ros sĠ
c e
p ain
Features :Ġ
b ott
w ell
p ackĠ
re lessĠ
C oun
V intageĠ
M ulti
ul l
ofĠ yourĠ
al ongĠ
4 7
rott leĠ
n on
ant ,Ġ
P ar
ati v
ĠW eĠ
ĠC mĠ
BrakeĠLineĠ LayoutĠ
ag e
er r
V ideoĠ
g oldĠ
desc rib
Yell owĠ
B Ġ
fl atĠ
widthĠ andĠaĠ
framesĠ measureĠ
2.5cmĠ depth
widthĠandĠaĠ 2.5cmĠdepth
cm,Ġ haveĠaĠ
Ġ1 0
t al
tis hĠ
Eng in
op enĠ
all eng
w rap
mod elĠ
Tran smis
u di
know led
Kid sĠ
do gĠ
b irthdayĠ
sil verĠ
Decor ativeĠ
remo veĠ
1 .5
P Ġ
R oundĠ
) ĠF
o ,Ġ
expl or
ma inĠ
ĠĠ ĉ
cle arĠ
V i
m ulti
s,Ġ H
t on
M eas
R Ġ
tra ditionalĠ
< i>
ter ,Ġ
c utĠ
m l
m ar
ther ,Ġ
ov ersĠ
us e.Ġ
c ri
m ustĠ
M icro
16 0
s ti
b ed
re placementĠ
ation .Ġ
ĠĠĠĠĠĠĠĠĠĠĠĠĠĠĠĠĠĠĠĠĠĠĠĠĠĠĠĠĠĠĠĠ ĠĠĠĠĠĠĠĠĠĠĠĠĠĠĠĠ
e z
Eu ro
Samsun gĠ
id enti
w oodĠ
willĠ notĠ
3 .5
cont in
he atĠ
itt enĠ
en h
yĠ forĠ
all owsĠ
u tionĠ
th ick
HomeĠImprovementĠ-Ġ WallpaperĠMurals
collec tionĠ
2 cmĠ
Chil dr
custom erĠ
f o
es hĠ
In st
k ind
ityĠ ofĠ
a is
c i
ig Ġ
W H
Remov ableĠ
stainlessĠ steelĠ
you .Ġ
ord in
Mod el
C ottonĠ
IG N
off eeĠ
f astĠ
mĠ andĠ
We ightĠ
forĠ youĠtoĠ
por tsĠ
Features :ĠĠ
et yĠofĠ
Compu ter
AT ION
A lumin
H U
L ap
Pro duc
P remiumĠ
op eĠ
ad di
el essĠ
us ableĠ
un Ġ
-Ġ S
lo orĠ
ĠF orĠ
ab sor
vehic leĠ
' Ġ
j ect
kn owĠ
Pro f
h eadĠ
ar y,Ġ
i ev
5 8
P erson
PerfectĠ forĠ
s ystemĠ
Automotive/Automotive/AutomotiveĠReplacementĠParts/ AutomotiveĠ
whichĠ canĠ
1 5Ġ
E :Ġ
it ,Ġ
tra vel
E X
H eadĠ
ic sĠ
sty le
G Ġ
3 7
d om
le yĠ
Water proofĠ
yst alĠ
] Ġ
R et
Th er
re comm
al s,Ġ
N ail
re alĠ
.Ġ AĠ
it or
av or
( L
ep ar
atch ingĠ
St reetĠ
m atĠ
ad justableĠ
Com for
ul atedĠ
V is
um pĠ
howĠ toĠ
cho iceĠ
6 0Ġ
9 .
R ed
Kn ob
G old
do esĠ
Yell ow
.Ġ IfĠyouĠ
f ill
b al
X ĠH
Fit nes
Cur tain
di amet
B ackĠ
ĠĠĠĠĠĠĠĠ ĠĠ
IC TION
: :Ġ
ig italĠ
O W
ĠWallĠ MuralsĠ
Cont rolĠ
b onĠ
int roduc
on icĠ
p ut
ind o
u allyĠ
T ER
e kĠ
Dimension s:Ġ
â ĺ
N ew
l a
H IC
St yl
fin ishĠ
am icĠ
edĠ inĠtheĠ
toc k
b ol
n owĠ
ityĠ andĠ
p ed
atic Ġ
thisĠ bookĠ
ot eĠ
cur r
com esĠ
Â °
g lass
en s,Ġ
L ad
Sm allĠ
n am
O ak
t in
EN S
Or iginalĠ
lu t
sle ev
durableĠ andĠ
4 0Ġ
um ent
t ouchĠ
m icro
soc ialĠ
L ab
2 10
anc e,Ġ
18 Ġ
sĠ&Ġ Outdoor
eg r
comfor tĠ
back groundĠ
a xĠ
Over allĠ
war r
ac tiv
sp ir
aroundĠ theĠ
Fabr icĠ
E d
a ur
all erg
aw ayĠ
ag e,Ġ
1 4Ġ
ag esĠ
ESS OR
toĠ aĠ
ea mĠ
nec kĠ
ĠA llĠ
lit er
f terĠ
S et
n orm
str engthĠ
sĠ ofĠtheĠ
li st
Pl ay
am ondĠ
weĠ willĠ
E ĠB
ToolsĠ&Ġ AutomotiveĠ
ic ateĠ
y earĠ
WallĠ MuralĠ
Sports,Ġ Fitnes
Sports,ĠFitnes sĠ&ĠOutdoor
Cloth ingĠ&Ġ
l ength
ab oveĠ
ÂłĠ ÂłĠ
Beaut y/
D ev
forĠ F
colorĠ ofĠtheĠ
Tran sparentĠ
cle ar
p ri
sel ec
ing ,
Pol yesterĠ
dur ingĠ
s ucc
or alĠ
tim esĠ
,Ġ B
- friendlyĠ
& amp
Industrial|FastenersĠ&ĠHardware| ScrewsĠ&ĠBolts
k esĠ&Ġ
l angu
M er
l im
Des ignĠ
Ex t
M achineĠ
H D
b abyĠ
bec omeĠ
w atchĠ
al s
ĠPart yĠ
K ingĠ
C al
Euro pe
em p
hand leĠ
U pĠ
Col l
c all
A J
g ram
C L
st urd
um in
rib ut
Âł ĠĠ
out ing.Ġ
em bl
MoviesĠ&ĠTV /
butt onĠ
pock etĠ
O fĠ
G er
urnit ureĠ
HealthĠ&Ġ Beaut
n b
G lassĠ
c our
in sĠ
al waysĠ
g ard
man ufactur
Ab outĠ
throughĠ theĠ
row n
c ou
amp leĠ
end edĠ
edĠinĠ aĠ
24 0
ĠB r
p et
es ts
.Ġ PleaseĠNote:ĠSizeĠguideĠimageĠrelatesĠtoĠstandardĠsizesĠonly.ĠBrandĠsizesĠmayĠvary.
N e
moreĠ thanĠ
eng ine
F re
Sports,ĠFitnessĠ&ĠOutdoor s/
toĠ makeĠ
,ĠandĠ theĠ
youĠ areĠ
m ,Ġ
y,Ġ andĠ
es .ĠĠ
Ġ1 00
n erĠ
P adĠ
Th ick
am az
s of
vi ewĠ
m om
r ingsĠ
cm -
ICTION ĠBOOKS
Min i
AB LE
A nĠ
oc i
Sil ver
res ul
Craf t
youn gĠ
Vinyl ,Ġ
nb sp
Detail s:Ġ
ch alleng
byĠ theĠ
ĠC ar
âĢĿ ,Ġ
J ap
comp atibleĠ
co st
ad ap
c areĠ
ag ementĠ
K ing
ond aĠ
ne yĠ
R ingĠ
toge therĠ
es ,
func tion
ir dĠ
ure dĠ
He ightĠ
or dĠ
Sup erĠ
ant s
Rug s
ĠPol yester
cm )Ġ
pl at
shop p
ESSOR IES
s al
T PU
warr ant
C ha
T ur
Z HU
weĠ canĠ
LE D
kn ownĠ
vari etyĠofĠ
Siz e
s qu
ar ch
Sho es/
m erĠ
en e
Br and
WallĠStick ers
m il
piec eĠ
re am
Comp onent
ess entialĠ
all ,Ġ
.Ġ InĠ
Transmis sion
tim ateĠ
str ong
Zo e
4 00
Valent ine
Per form
ec han
aĠ f
Bra kesĠ&Ġ
sec tionĠ
ple ment
VE HIC
eleg antĠ
comple teĠ
:ĠĠ 1xĠQuiltĠCoverĠ
cmĠÂ±Ġ4cmĠĠ 2xĠPillowcasesĠ50cmĠxĠ70
Un itedĠ
ThisĠ bookĠ
I AL
sup pl
L ong
ar nĠ
T R
qu ick
P an
SportingĠGood s|
cus h
ea ther
StretchedĠ&ĠMountedĠ Canvas
er s.Ġ
su itĠ
Susp ension
or kĠ
ĠBl ackĠ
Ch arg
li mĠ
haveĠ beenĠ
2 50
in spi
or s
or nĠ
roc eryĠ
&#39 ;sĠ
d og
forĠ allĠ
lif e
6 1
Do gĠ
chang eĠ
tur alĠ
g n
ab in
ingĠ yourĠ
sil iconeĠ
os sĠ
ha dĠ
6 00
soc i
P L
H el
D oubleĠ
yl onĠ
ad just
z Ġ
l aw
hum anĠ
ti esĠ
L o
s crew
sĠ&Ġ Parts
patter n
h arm
C er
F i
hol id
ear lyĠ
- 20
toĠ ensureĠ
st e
s tickĠ
a ther
me ansĠ
D V
maxim umĠ
profession alĠ
po st
res id
set t
fitĠ yourĠ
O utĠ
G ener
AB SĠ
ĠSt ainlessĠ
9 5
ĠA d
paperĠ (
chang eĠtheĠ
ĠH OM
ol ar
F ig
ener g
proc essĠ
Co st
ĠP l
A sĠ
last ingĠ
su it
is s
st eel
ib il
enjo yĠ
Bri tishĠ
G e
cmĠxĠ2 10
ES IGN
fac tor
ĠP iec
long -
ĠA l
b alĠ
g g
Accessor iesĠ
proc ess
B utt
00 ÃĹ
sol idĠ
en eĠ
rin k
S qu
US A
G lass
y sĠ
sh ouldĠ
dev ic
ation s,Ġ
Ch in
S ystem
dat aĠ
AT ER
adĠ toĠ
k i
andĠ re
,Ġ P
O C
ent edĠ
cont roll
Spor tsĠ
th rottleĠ
p hĠ
e,Ġ theĠ
8 7
F Ġ
person alĠ
O x
tr astĠ
perf ect
g t
tig h
sh owĠ
S and
thatĠ isĠ
9 7
HomeĠ DecorĠ
ott on
B R
saf eĠ
S un
D ay
prec isionĠ
l erĠ
ext rem
t ag
long erĠ
T y
aboutĠ theĠ
st on
tion s,Ġ
ou thĠ
sc ienc
ri endĠ
pol yesterĠ
us e
V eryĠ
h o
D rap
tra -
ToolsĠ&ĠAutomotiveĠ -Ġ
P e
MatĠ Bo
Wh atĠ
wi f
ter s
HomeĠImprovement/ HomeĠImprovement/
wood enĠ
E v
ĠM aterial
Le ad
cm,ĠhaveĠaĠ 2cmĠ
MatteĠPaperĠPrin t,Ġ
cm,ĠhaveĠaĠ2cmĠ widthĠandĠaĠ2.5cmĠdepth
âĢľ StretchedĠ&ĠMountedĠCanvas
gra du
ity :Ġ
spec if
at e
ass istĠ
read ersĠ
St amp
Res ist
B ed
Po pĠ
end ingĠ
- C
styl ishĠ
oo th
l andĠ
incre as
& gt
ed .
car r
ent alĠ
foll ow
y ch
part y,Ġ
im prov
cm (
e quip
/ Men'sĠ
.ĠItĠ isĠ
S A
b ur
Exha ustĠ
br andĠ
toĠ carryĠ
Supplies |
,Ġ L
F oodĠ
sĠ onĠ
individ ualĠ
ĠH igh
b on
re turn
ĠG re
liv ingĠ
1 1Ġ
d ri
se am
s :
ti vi
giv ingĠ
in ser
8 6
Kids' ĠPartyĠ
qu eĠ
i edĠ
Ar mĠ
w ashĠ
fun Ġ
Sty leĠ
ApparelĠ -Ġ
inform ationĠ
ch eckĠ
A ir
s onĠ
arr ant
Mo ther
c sĠ
E M
ain sĠ
s epar
ĠB L
r oundĠ
ĠA Ġ
ZHU A
Ex c
olog yĠ
haveĠ anyĠ
poli ticalĠ
Â ®
cer ti
tre at
anal ys
I r
ĠF rontĠ
st oneĠ
y etĠ
o ther
c ro
esĠ (
rel ation
g s
sh irtĠ
ent s,Ġ
Decor ationĠ
ra d
c ook
withĠ yourĠ
Gu arante
N or
fer enc
g ar
Nec klac
ir lĠ
meth od
Con nec
A IN
w ardĠ
re h
</ b
1 50
Sh eĠ
F u
<b >
5 /
auth or
AR D
m lĠ
s,Ġ Manufacturer:Ġ
E V
craf tedĠ
m atchĠ
s we
u x
av oidĠ
St ation
Accessor iesĠ>
b itĠ
p ot
sk ill
en âĢĻsĠ
7 2
N o-
Ch eckĠ
u beĠ
9 0Ġ
Cle an
thr ough
,Ġ C
f ig
H ondaĠ
ra pĠ
pro veĠ
Tw oĠ
b ul
P inkĠ
Tec hn
edĠ withĠtheĠ
W ood
every dayĠ
Tri mĠ
ĠT O
ob b
dur able,Ġ
ch arm
D u
acc essĠ
t able
St ar
nbsp ;
de epĠ
it orĠ
br and
withĠ anĠ
nec klaceĠ
M em
it ingĠ
e !
ab lyĠ
Dog s/
Sh e
theyĠ areĠ
se eĠ
G ask
d own
canĠ alsoĠ
In di
serv ic
ing le
be achĠ
olog icalĠ
aĠ andĠ
EN T
D A
b ow
ĠW i
CameraĠ &Ġ
e. -Ġ
is edĠ
vol umeĠ
S ideĠ
con cep
all y,Ġ
Dec alĠ
ast erĠ
l ap
su mm
2 ĠHosesĠFullĠStainlessĠSteelĠConstruction,ĠIncludesĠSSĠBoltsĠ&ĠCopperĠCrushĠWashersĠ
N et
â Ļ
c op
WallĠ ArtĠ
tak esĠ
R oseĠ
s it
Gre en
al umin
u dĠ
etc .Ġ
inch es
tex tileĠ
- G
E AS
OEMĠ ReplacementĠ
com pl
ast edĠ
cap ac
S P
Co at
H er
O MĠ
Christm as,Ġ
8 2
ig g
day sĠ
Part sĠ
contin u
R W
P atter
surfac eĠ
c os
.Ġ WeĠ
f ineĠ
ou redĠ
th ough
SĠ &Ġ
b allo
U V
ĠCom p
hi mĠ
at e,Ġ
og n
ĠB lu
B ott
HomeĠ&Ġ GardenĠ
WallĠ MuralsĠ
AC TĠ
i mĠ
S ens
M ic
comp art
al ingĠ
D raw
P lastic
su perĠ
2Ġ xĠ
n et
ti l
c ableĠ
il os
con sid
to oĠ
d augh
AudioĠ CD
proof ,Ġ
p ad
Shir ts
.Ġ ProductĠID:ĠUT
H allow
B estĠ
<brĠ/ >Ġ
me an
S pr
Âł Âł
Spec ialĠ
inĠ thisĠ
3D ĠH
mo ist
con dition
B C
li >
Ann ivers
room ,Ġ
en ch
s !
7 7
d d
ci pl
pop ularĠ
ic allyĠ
stand ard
In struction
h ouseĠ
d riv
sĠ inĠtheĠ
n ov
A g
t ap
c ele
A er
gif t
ĠB ag
it 'sĠ
sel f
/ Ġ1
withĠ thisĠ
w edd
L ugg
S ur
ĠP ound
Light weightĠ
n etĠ
ous lyĠ
man ualĠ
op tim
C am
ĠCol lec
sh or
âĢĻllĠ beĠ
P illowcasesĠ
oll owsĠ
ing,Ġ andĠ
pol ic
HomeĠDecorĠ -Ġ
" ĠxĠ
ver s
G ear
C ONT
off ic
c uff
.Ġ W
lay erĠ
100 Ġ
iesĠ andĠ
tĠ toĠ
Ar m
en sure
cmĠ XĠH
num berĠ
br ingĠ
2 20
QU AL
ma j
> ĠD
yn the
OEM ĠR
le velĠ
high lyĠ
pres entĠ
end erĠ
st art
Col ourĠ
Mod elĠ
E co
ak ingĠ
in ceĠ
M ax
e ),Ġ
wantĠ aĠ
8 8
C UST
HandĠ Tool
al -
war e/
KitĠIncludesĠ 2ĠHosesĠFullĠStainlessĠSteelĠConstruction,ĠIncludesĠSSĠBoltsĠ&ĠCopperĠCrushĠWashersĠ
-ĠF ollowsĠ
-ĠFollowsĠ OEMĠR
-ĠFollowsĠOEMĠR outing.Ġ
OEMĠReplacementĠ BrakeĠLineĠLayoutĠ
-ĠFollowsĠOEMĠRouting.Ġ KitĠIncludesĠ2ĠHosesĠFullĠStainlessĠSteelĠConstruction,ĠIncludesĠSSĠBoltsĠ&ĠCopperĠCrushĠWashersĠ
OEMĠReplacementĠBrakeĠLineĠLayoutĠ -ĠFollowsĠOEMĠRouting.ĠKitĠIncludesĠ2ĠHosesĠFullĠStainlessĠSteelĠConstruction,ĠIncludesĠSSĠBoltsĠ&ĠCopperĠCrushĠWashersĠ
Sh ortĠ
N O
ent ,Ġ
)Ġ xĠ
Tra inĠ
F oo
SĠ -Ġ
yl inderĠ
sc i
fr u
d sĠ
comp reh
ad ditionalĠ
per i
.Ġ T
e. ,
Pur pleĠ
Al l
sel v
haveĠ toĠ
i k
inn ingĠ
RO MĠ
</p> <p>
Clothing,ĠShoesĠ&ĠAccessories/Clothing,ĠShoesĠ&ĠAccessories/Women'sĠFashion/Women'sĠ Jewellery
sti llĠ
B ro
le vel
L EĠ
dis cus
SamsungĠ GalaxyĠ
id ,Ġ
C up
work ,Ġ
Jap an
ĠC o
br aryĠ
A RE
ide alĠ
C ent
ad esĠ
purch as
S :Ġ
ques tionsĠ
imp actĠ
f ur
H istor
aĠ greatĠ
spec ific
anc eĠofĠ
en chĠ
Class icĠ
ou ble
norm alĠ
ĠA R
row nĠ
X XLĠ
v edĠ
9 4
d ra
r ou
f ashionĠ
&amp ;
Vin ylĠ
Ap pro
an im
rim aryĠ
d rop
] ĠĠ
Un iqueĠ
lingĠ SilverĠ
9 6
B eddingĠ
Ad v
X -
freeĠ toĠ
amaz ingĠ
bre athableĠ
art rid
Di amet
ableĠ toĠ
ack etĠ
s ingleĠ
stra pĠ
is tic
ish wash
ever alĠ
e i
Sh ip
,Ġ itĠ
g roceryĠ
Decor ation
wind owĠ
thĠ andĠ
0 .5
Nec klaceĠ
dur able
k yĠ
)Ġ OEMĠReplacementĠBrakeĠLineĠLayoutĠ-ĠFollowsĠOEMĠRouting.ĠKitĠIncludesĠ2ĠHosesĠFullĠStainlessĠSteelĠConstruction,ĠIncludesĠSSĠBoltsĠ&ĠCopperĠCrushĠWashersĠ
Wor k
stor yĠ
ant lyĠ
chooseĠ theĠ
ĠD ESIGN
inn ov
adv ent
orĠ yourĠ
a useĠ
V er
ow ,Ġ
C an
de fin
V it
L eg
cont emporaryĠ
gra d
ĠS P
gra phĠ
ex ampleĠ
Sil iconeĠ
Self-adhesiveĠ Vinyl,Ġ
ACTĠ US
onĠ andĠ
K E
m ain
ĠC aseĠ
Un is
K eyĠ
Clothing,ĠShoesĠ&ĠAccessories/Clothing,ĠShoesĠ&ĠAccessories/Women'sĠFashion/Women'sĠJewellery /Women'sĠ
tion :Ġ
ut ter
G ad
f old
p ow
photo graph
canĠbeĠ us
Art |
ofĠ whatĠ
Electr icalĠ
notĠ onlyĠ
et s,Ġ
us ,Ġ
G B
l es,Ġ
par ti
ĠC O
iv erĠ
CONT ACTĠUS
ĠĠĠĠĠĠĠĠ ĠĠĠĠ
J ustĠ
k itĠ
fl at
Alumin umĠ
Art| ArtĠ
Photo /
B utĠ
ac tivi
k in
ach in
es s,Ġ
en z
WeĠ canĠ
s. ,
eff ic
W ear
prin t
Design :Ġ
we ight:Ġ
In cludes
CameraĠ&Ġ Photo/
mark etĠ
seas on
ĠF ROMĠ
g ripĠ
in forc
un iqu
tra velĠ
18 0
fromĠ aĠ
g /
et ingĠ
B u
Australi a
s ourc
t ast
P S
Post ers
sizeĠ orĠ
It âĢĻsĠ
h ous
wayĠ toĠ
as kĠ
,Ġ D
ver sati
s )
âĺ ħ
( theĠ
.ĠIfĠyouĠ wantĠaĠ
butĠ alsoĠ
book s,Ġ
Y O
ad i
th ickĠ
f illĠ
Ġĉĉ Ġĉĉĉ
F ir
forĠF REE
C us
.Ġ R
construc tionĠ
F OR
s wi
gl adĠtoĠ
customiz eĠtheĠ
ef for
viron mentĠ
te mĠ
eas il
wallpap ersĠ
l er
fi eld
âĢĻ reĠ
Girl s'
h ot
Ch ris
ex amin
âĢ¢ ĠWeĠ
f ashion
esĠ onĠ
f lyĠ
edĠ aĠ
N ON
lo g
f riendĠ
ch ain
+ +
H eavyĠ
sim plyĠ
ĠS p
ot aĠ
M yĠ
gre at
re fun
o k
U C
T ail
c oversĠ
B ul
gr ou
B on
meas urement
hel psĠ
ing s.Ġ
pleas eÂł
butt on
On lyĠ
WH YĠ
ch em
yĠ -Ġ
Dur ableĠ
i al
,Ġ thisĠ
rom eĠ
W ĠxĠ
th ersĠ
b ath
ul ationĠ
you.Ġ [
Wom ensĠ
High -
ĠC as
e âĢĻsĠ
tool Ġ
su m
ĠSh ifterĠ
[ CUST
US ?
-W :Ġ
cmĠXĠH :Ġ
Ref lectiveĠ
le arnĠ
customĠ orderĠ
changeĠtheĠ colorĠofĠtheĠ
âĢĻllĠbeĠ gladĠtoĠ
ĠFROMĠ US?
cor rectĠ
CONTACTĠUS ĠforĠ
qu ickĠ
fitĠyourĠ spaceĠ
backgroundĠ forĠyouĠtoĠ
WeĠcanĠ customizeĠtheĠ
OMĠ ORDER
too thĠ
We âĢĻllĠbeĠgladĠtoĠ
backgroundĠforĠyouĠtoĠ fitĠyourĠspaceĠ
[CUST OMĠORDER
]ĠĠ WeĠcanĠcustomizeĠtheĠ
weĠcanĠ changeĠtheĠcolorĠofĠtheĠ
customĠorderĠ pleaseÂł
WHYĠ ORDER
[CUSTOMĠORDER ]ĠĠWeĠcanĠcustomizeĠtheĠ
WHYĠORDER ĠFROMĠUS?
.ĠIfĠyouĠwantĠaĠ customĠorderĠpleaseÂł
backgroundĠforĠyouĠtoĠfitĠyourĠspaceĠ forĠFREE
backgroundĠforĠyouĠtoĠfitĠyourĠspaceĠforĠFREE .ĠIfĠyouĠwantĠaĠcustomĠorderĠpleaseÂł
you.Ġ[ WHYĠORDERĠFROMĠUS?
weĠcanĠchangeĠtheĠcolorĠofĠtheĠ backgroundĠforĠyouĠtoĠfitĠyourĠspaceĠforĠFREE.ĠIfĠyouĠwantĠaĠcustomĠorderĠpleaseÂł
WeâĢĻllĠbeĠgladĠtoĠ assistĠ
CONTACTĠUSĠforĠ details.Ġ
[CUSTOMĠORDER]ĠĠWeĠcanĠcustomizeĠtheĠ sizeĠorĠ
[CUSTOMĠORDER]ĠĠWeĠcanĠcustomizeĠtheĠsizeĠorĠ weĠcanĠchangeĠtheĠcolorĠofĠtheĠbackgroundĠforĠyouĠtoĠfitĠyourĠspaceĠforĠFREE.ĠIfĠyouĠwantĠaĠcustomĠorderĠpleaseÂł
WeâĢĻllĠbeĠgladĠtoĠassistĠ you.Ġ[WHYĠORDERĠFROMĠUS?
CONTACTĠUSĠforĠdetails.Ġ WeâĢĻllĠbeĠgladĠtoĠassistĠyou.Ġ[WHYĠORDERĠFROMĠUS?
[CUSTOMĠORDER]ĠĠWeĠcanĠcustomizeĠtheĠsizeĠorĠweĠcanĠchangeĠtheĠcolorĠofĠtheĠbackgroundĠforĠyouĠtoĠfitĠyourĠspaceĠforĠFREE.ĠIfĠyouĠwantĠaĠcustomĠorderĠpleaseÂł CONTACTĠUSĠforĠdetails.ĠWeâĢĻllĠbeĠgladĠtoĠassistĠyou.Ġ[WHYĠORDERĠFROMĠUS?
p air
resear ch
T ableĠ
ut eĠ
LE ĠP
Stand ard
cont rol
Comp uterĠ
op en
experienc eĠ
B yĠ
th :Ġ
ma sterĠ
'sĠ Day,Ġ
t onĠ
press ureĠ
design edĠ
m enĠ
for dĠ
effec tiv
bro id
Th e
p ast
allerg en
it y.
fram edĠ
t un
Fabric :Ġ
helpĠ youĠ
NoĠ Fram
8 5
r icĠ
col dĠ
v ingĠ
tim e,Ġ
he art
ide alĠforĠ
s/ AutomotiveĠ
H ar
bl ack
stit ch
l ic
be h
i xĠ
accessor iesĠ
es t,Ġ
P ubl
Art|ArtĠ Posters
c up
mm )
ear ring
&gt ;
h eavyĠ
Typ eĠ
onlyĠ theĠ
25 0Ġ
quis iteĠ
. A
M il
re as
us e,Ġ
9 25
i eveĠ
h em
( ins
CompatibleĠ withĠ
histor icalĠ
d ualĠ
looksĠ likeĠ
fu elĠ
! !
dis playĠ
Com mun
L aw
an ,Ġ
4 1
st ayĠ
de f
d oc
F riend
e fĠ
anc eĠandĠ
cho ic
S ingleĠ
fer enceĠ
develop mentĠ
I tsĠ
du eĠtoĠ
ĠS u
ĠPound s,ĠManufacturer:Ġ
anĠ excellentĠ
HomeĠ&ĠGarden|HomeĠDÃ©cor| WallĠStickers
ĠM et
Off ic
O EĠ
Protec tiveĠ
Equipment /
s everalĠ
at tĠ
ing er
To yĠ
H eat
yourĠ orderĠ
wr ittenĠ
iz edĠ
NewĠ Y
int egr
sel f-
temper atureĠ
Su per
sch olar
comp an
4 3
theĠ b
ĠWallpap erĠ
n ovel
fr ic
fl ow
over n
Perform anceĠ
h old
7 0Ġ
m ess
spec ification
Organ is
mm ,Ġ
ati s
care fullyĠ
P ER
ï¼ ļ
F urnitureĠ
lif e.Ġ
.ĠB utĠ
O ccasion
foo t
LE DĠ
Ch ar
ĠG IF
p >Ġ
ha ir
StainlessĠ SteelĠ
D oĠ
Ġ1 /
includ ed
He alth
look ingĠ
BlackĠ FramedĠ
I temĠ
design edĠforĠ
.Ġ WithĠ
Un der
EC T
edĠbyĠ theĠ
ex erc
es -
P V
.ĠTh eyĠ
un ch
im eĠ
GreatĠ forĠ
you '
technolog yĠ
S ystemĠ
providesĠ aĠ
ag eĠofĠ
i or
is m
ilos oph
lu x
W arrant
yl icĠ
PackageĠ Cont
L ongĠ
fi edĠ
ĠS pec
Electronic s/
en vironmentĠ
3 60
w atch
e 'sĠ
erĠ forĠ
</b >
cent ur
ies |
et t
clo s
de kĠ
addĠ aĠ
bu yĠ
U VĠ
Pl at
ts ,
Sh or
conf id
as c
ĠS up
protec tiveĠ
Suppl iesĠ
Ġ1 .
M e
er tĠ
buil dingĠ
whenĠ youĠ
ĠS etĠ
Z ip
ĠW om
h ereĠ
at trac
DI YĠ
mo b
photo graphĠ
perfect lyĠ
u str
RemovableĠ Self-adhesiveĠ
ur s
needĠ glu
inst allĠ
shap eĠ
Fl owerĠ
needĠglu e),Ġ
paperĠ( needĠglue),Ġ
wantĠ toĠ
M or
H owĠ
R ob
to t
ĠBra idedĠBrakeĠLineĠ(
H Ġ
giv esĠ
he althĠ
CanĠ beĠ
h eat
Engl ishĠ
f ourĠ
ure :Ġ
et teĠ
feat ureĠ
br id
8 0Ġ
pres entsĠ
b oĠ
ar s
E ver
ĠP lu
QUAL ITY
bre ath
ateĠ theĠ
tex tĠ
ĠSh o
oft enĠ
_ _
siz e:Ġ
productĠ imag
d oubleĠ
Europe anĠ
Re qui
Ar eĠ
enc yĠ
ron t
.ĠTh ereĠ
Mod er
o y
cm x
St at
tedĠ toĠ
emb lyĠ
I gn
Cle ar
H A
Hol derĠ
In ĠS
w all
NonĠSlipĠ RugĠ
Ide alĠforĠ
saf etyĠ
ateĠ yourĠ
- 0
Do orĠ
pl an
specific allyĠ
Appl ication
h or
E AT
Person alĠ
C ook
inter nationalĠ
rece iveĠ
inĠtheĠ productĠ
for d
op tion,Ġ
s oundĠ
ing -
in terĠ
s lo
,Ġ orĠ
le ec
clo sureĠ
h otĠ
ag e.Ġ
st udi
mob ileĠ
war mĠ
i -
Jewell eryĠ&Ġ
n extĠ
won der
sec ondĠ
Brand :Ġ
fi eldĠ
i eldĠ
car petĠ
M enĠ
s ensi
St er
lo adĠ
P ink
erĠ isĠ
An g
er se
Ġ K
G S
sĠ fromĠ
don âĢĻtĠ
curr entĠ
is mĠ
It 'sĠ
posi tion
isĠanĠ exampleĠ
dam ageĠ
c irc
outĠ ofĠ
le -
st ain
cmĠxĠ2 10Ġ
c akeĠ
ĠĠĠĠĠĠĠĠĠĠĠĠĠĠĠĠĠĠĠĠĠĠĠĠĠĠĠĠĠĠĠĠĠĠĠĠĠĠĠĠĠĠĠĠĠĠĠĠ ĠĠĠĠĠĠ
specif icĠ
Inter nationalĠ
it âĢĻsĠ
techn iqu
6 4
cm- SizeĠ(FrameĠ/ĠSize:Ġ
t ouch
.Ġ ãĢĲ
m id
Prin tedĠ
Ul traĠ
P artĠ
3 1
ing lyĠ
P ress
Qu een
00 0
2 1Ġ
ed i
weight ,Ġ
sk in
F ac
erĠ toĠ
Al soĠ
ank s
MatĠBo ard
R ubberĠ
sectionĠ aboveĠ
ofĠwhatĠ thisĠ
Computer s/
Station eryĠ&Ġ
inĠtheĠproductĠ imageĠ
func tionĠ
MatteĠPaperĠPrint,Ġ NoĠFram
isĠanĠexampleĠ photographĠ
sectionĠaboveĠ (theĠ
looksĠlikeĠ inĠtheĠproductĠimageĠ
isĠanĠexampleĠphotographĠ ofĠwhatĠthisĠ
looksĠlikeĠinĠtheĠproductĠimageĠ sectionĠaboveĠ(theĠ
isĠanĠexampleĠphotographĠofĠwhatĠthisĠ looksĠlikeĠinĠtheĠproductĠimageĠsectionĠaboveĠ(theĠ
um perĠ
StationeryĠ&Ġ OfficeĠProducts/
feelĠ freeĠtoĠ
Sle eveĠ
contain sĠ
ent s:Ġ
AmericanĠ ShifterĠ
sh owsĠ
re ve
makesĠ itĠ
QuiltĠCoverĠ SetĠ
re plac
unn yĠ
ph ys
ann ivers
M ug
dro pĠ
â Ħ
CameraĠ&ĠPhoto/ Electronics/
us eĠofĠ
un g
Saf etyĠ
- T
sh ortĠ
publ icĠ
( Black
E AR
mon th
Earr ingsĠ
C lo
Fl atĠ
intoĠ aĠ
di eĠ
direc tĠ
h im
s av
f ut
.ĠH eĠ
B irth
r ichĠ
Men'sĠ Fashion
B ear
Clothing,ĠShoesĠ&ĠAccessories/Clothing,ĠShoesĠ&ĠAccessories/ Men'sĠFashion
ag ingĠ
3D ĠP
c amp
water proofĠ
canĠbeĠ usedĠ
forĠ anyĠ
ĠCol or
min dĠ
f ind
ersĠ ofĠ
ĠD is
Lad iesĠ
Z inc
R AND
Fin ish
cush ion
12 5
Table tsĠ&Ġ
ch and
el ,Ġ
DriveĠ TrainĠ
Automotive/Automotive/AutomotiveĠReplacementĠParts/AutomotiveĠReplacementĠ DriveĠTrainĠ
illu str
m illi
at inĠ
st ep
sol eĠ
light lyĠ
6 6
maj orĠ
B M
Prin t
im proveĠ
tsĠ areĠ
multi pleĠ
theĠ mostĠ
cal iperĠ
knowled geĠ
att en
youĠ aĠ
In chĠ
acc oun
identi f
m eshĠ
soĠ youĠcanĠ
H eĠ
s :ĠĠ
ĠD es
Inter iorĠ
ĠT OP
A t
ĠS el
mayĠ beĠ
w Ġ
mer c
ingĠ ofĠ
cre ativeĠ
Ke epĠ
bag sĠareĠ
CareĠ Instruction
coll arĠ
every thingĠ
under standingĠ
C atĠ
ATER IAL
m achineĠ
power fulĠ
l y.Ġ
StationeryĠ&ĠOfficeĠProducts/ OfficeĠProducts/
lead ingĠ
Met al
,Ġ R
</ p>Ġ
bag sĠ
Sol idĠ
es pec
PetĠSupplies/ PetĠSupplies/
madeĠ inĠ
e ti
T ap
M I
not eĠ
C ush
gu id
3DĠH omeĠ
cl im
ent .Ġ
le v
ex am
Gre yĠ
ĠC ottonĠ
itĠ toĠ
Clothing,ĠShoesĠ&ĠAccessories/Clothing,ĠShoesĠ&ĠAccessories/Men'sĠFashion /Men'sĠ
wh er
ei therĠ
r ug
S creenĠ
c orĠ
Br acel
ra tionĠ
guarante eĠ
ol f
R ib
-Ġ Black
acc ur
ro leĠ
J e
Bo xĠ
etc .
E duc
H ouseholdĠ
H ang
Butt onĠ
b ingĠ
T ow
cor ro
th at
F unc
E veryĠ
school Ġ
mem or
y 'sĠ
ic yc
el r
stor iesĠ
ĠS ter
T on
theĠ bestĠ
G o
sp ortĠ
St ud
In s
ĠĠĠĠĠĠĠĠĠĠĠĠĠĠĠĠĠĠĠĠĠĠĠĠĠĠĠĠĠĠĠĠ ĠĠĠĠĠĠĠĠĠĠĠĠĠĠĠĠĠĠĠĠĠĠĠĠĠĠĠĠĠĠĠĠĠĠĠĠĠĠĠĠĠĠĠĠĠĠĠĠĠĠĠĠĠĠ
Automotive/Automotive/AutomotiveĠReplacementĠParts/AutomotiveĠReplacementĠDriveĠTrainĠ Parts/AutomotiveĠ
areĠ notĠ
ĠP er
enc il
6 3
Cha inĠ
pl astic
readyĠtoĠ hang
las ticĠ
reduc eĠ
A A
row Ġ
compreh ensiveĠ
W il
Toy otaĠ
att ach
T- ShirtĠ
2. 0
Watch es|
20 19
o pĠ
Sh owerĠ
Earr ings
b aseĠ
ment sĠ
r alĠ
ul tic
br ush
Exc ellentĠ
5 2
WovenĠ paperĠ(needĠglue),Ġ
F ineĠ
af ter
is ticĠ
li veĠ
ac tiveĠ
Ad ap
buil tĠ
o cc
12 3
fo amĠ
u Ġ
br aceletĠ
B O
of fer
ot orĠ
happ yĠ
m ind
Gad get
poli tic
pro per
ra in
E r
avor iteĠ
ac u
W ideĠ
âĢĵ Ġ1
ion ,Ġ
b atter
gr ound
f lo
ou terĠ
be ach
outĠtheĠ Auth
bl endĠ
esĠ ofĠtheĠ
C and
f erĠ
l ightsĠ
at el
Prof ession
cmĠxĠ210 cmĠÂ±Ġ4cmĠĠ2xĠPillowcasesĠ50cmĠxĠ70
cmĠxĠ210cmĠÂ±Ġ4cmĠĠ2xĠPillowcasesĠ50cmĠxĠ70 cmĠÂ±Ġ4cmĠĠ
wh it
item sĠ
doesĠ notĠ
D av
espec iallyĠ
âĻ ¥
S ew
it ar
contactĠ usĠ
ou t,Ġ
includ edĠ
ĠP remiumĠ
them selv
ma z
3 cmĠ
Equip mentĠ
W atchĠ
.ĠĠ Ġ
sĠ&Ġ Accessories/
patter nĠ
text ureĠ
Garden /
In ser
Car e/
ĠC loth
p en
cor por
ĠA r
on eĠofĠ
er -
pr is
stra p
in tĠ
environment alĠ
Oak âĢĿĠ
âĢľStretchedĠ&ĠMountedĠCanvas âĢĿĠ
ott on,Ġ
gs mĠ
C E
ĠAR T
A fric
1 3Ġ
Craft s|
per spec
super iorĠ
W eddingĠ
Ar tsĠ&Ġ
7 4
b ottomĠ
si bleĠ
ĠT r
stret ch
M A
anc e.Ġ
Or angeĠ
For dĠ
inf lu
chil d
ed geĠ
- resistantĠ
tr u
mon eyĠ
s,ĠH obb
your selfĠ
L oveĠ
WallĠMuralĠ WallpaperĠ
Toy s,ĠHobb
Toys,ĠHobb ies|
ĠS e
t- inĠ
t ub
read ingĠ
ac yĠ
ersĠ toĠ
om et
asĠ anĠ
Chris ti
re turnĠ
k itchenĠ
D ressĠ
ĠP RO
P endantĠ
sign ific
E ss
14 6
S -
ear ringsĠ
sĠ byĠ
S lipĠ
str ument
eas eĠ
Num berĠ
sci enti
ingĠ >
es n
con trastĠ
00 0Ġ
ĠWh iteĠ
w ishĠ
c at
O rĠ
b atteryĠ
:Ġ ThisĠ
comple t
lat estĠ
res t
10 .
ShifterĠ ArmĠ
am boo
)Ġ andĠ
c and
tim berĠ
BeddingĠ SetĠ
ar riveĠ
em entsĠ
.Ġ N
30 4
acc ess
Ap pleĠ
war m
n ailĠ
O verĠ
n ight
hard wareĠ
c las
qu il
ÃĹĠ 0.
wor d
birth day,Ġ
G od
JewelleryĠ&Ġ Watches|
up perĠ
uck leĠ
extrem elyĠ
UL T
ans w
ur ityĠ
P aintingĠ
s ;Ġ
Pl a
stud ent
c od
decor ationĠ
ĠS il
buil dĠ
i anc
AC C
ingĠ orĠ
f ol
.Ġ C
x .Ġ
po allergen
featuresĠ aĠ
b ab
J am
ul t
c ylinderĠ
sec ureĠ
H old
imag in
softĠ andĠ
br ushĠ
fres hĠ
n ation
t ail
theĠ perfectĠ
forĠ easyĠ
beh indĠ
b ear
ĠS eriesĠ
Phon esĠ&Ġ
qual ity
Hallow eenĠ
wi reĠ
ingĠ withĠ
Inst all
han gĠ
I ĠC
br ightĠ
R om
toc kĠ
requi re
setĠ ofĠ
s oft
DV D
E DĠ
toĠ keepĠ
ĠC REATIV
an aĠ
weĠ useĠ
5 6
ĠS IZ
anĠ un
7 9
ies tĠ
saf eĠforĠ
comm onlyĠ
n ar
ToĠ FitĠ
.Ġ G
rang eĠ
. S
pl atedĠ
y âĢĻsĠ
ou ld
hel p
SetĠ ofĠ
b rakeĠ
ent er
Whe els
charg ingĠ
versati leĠ
pres sĠ
blu eĠ
di tionĠ
M ulti-
ER S
Of ĠAllĠ
y- to-
decor ation
es .ĠTheĠ
ĠM on
b all
P et
,Ġ whichĠ
con cer
l owerĠ
W ireĠ
mmĠ xĠ
os enĠ
le av
ord ersĠ
clo thĠ
av our
ingĠ inĠ
g rip
book sĠ
wideĠ rangeĠofĠ
MadeĠofĠ SoftĠ
Engin esĠ&Ġ
MORE ĠBOOKS
y |
z ipĠ
Unis ex
h in
InĠS tock
ĠCREATIV ITY
as ak
IGH T
dur abil
l ad
P illow
ĠMaterial :Ġ
giftĠ forĠyourĠ
EĠB RAND
20 17
st epĠ
F o
authorĠ ofĠ
compatibleĠ withĠ
Cool dekĠ
g las
WovenĠ PolyesterĠ
Material:Ġ QualityĠ
ĠCollec tionsĠ
7 /
CheckĠ OutĠ
EĠC REATIV
andĠm attĠ
Mak e
Pad s
f ad
ĠS le
ĠF ICTIONĠBOOKS
ad em
Di amondĠ
an ksĠ
tr ueĠ
o sĠ
NON ĠFICTIONĠBOOKS
ro Ġ
CheckĠOutĠ Our
OtherĠ 3DĠ
RugĠ carpetĠ
CheckĠOutĠOur ĠCollectionsĠ
OfĠAllĠ OtherĠ3DĠ
ĠCREATIVITY ĠTOP
RugĠcarpetĠ andĠmattĠ
NonĠSlipĠ ProductĠ
RugĠcarpetĠandĠmattĠ InĠStock
AJ ĠCREATIVITYĠTOP
OfĠAllĠOtherĠ3DĠ QualityĠ
CheckĠOutĠOurĠCollectionsĠ OfĠAllĠOtherĠ3DĠQualityĠ
CheckĠOutĠOurĠCollectionsĠOfĠAllĠOtherĠ3DĠQualityĠ RugĠcarpetĠandĠmattĠInĠStock
Material:ĠQualityĠ NonĠSlipĠProductĠ
AJĠCREATIVITYĠTOP ĠHOM
EĠBRAND .
Material:ĠQualityĠNonĠSlipĠProductĠ MadeĠofĠSoftĠ
H ex
Material:ĠQualityĠNonĠSlipĠProductĠMadeĠofĠSoftĠ WovenĠPolyesterĠ
AJĠCREATIVITYĠTOPĠHOM EĠCREATIV
AJĠCREATIVITYĠTOPĠHOMEĠCREATIV EĠBRAND.
thatĠ willĠ
foo tĠ
str ateg
Qu eenĠ
ĠM od
min ut
t uresĠ
ON E
wh eel
A W
c ali
ti lĠ
g ameĠ
f em
2 ĠP
d ens
anc e
fre e,Ġ
An ti
app yĠ
friend ,Ġ
TheyĠ areĠ
d rin
f ood
s ym
fl owĠ
AudioĠCD ,Ġ
Sup portĠ
E W
C ro
EL L
Weight:Ġ 0.
nec ess
Descrip tionĠ
g i
. TheĠ
D on
ĠCon t
A qu
viv idĠ
1Ġ x
craf tĠ
Sup plement
Jo h
succ ess
z u
.Ġ EasyĠtoĠ
ind ustr
QuiltĠCoverĠSetĠ BeddingĠSetĠ
material :Ġ
Serv ic
Comp le
pol y
c lip
ea thĠ
au to
ĠH e
res h
ThisĠ isĠaĠ
Gre y
Text book
all -
oo mĠ
P op
7 8
t um
B rown
Ign itionĠ
Ty res
do esn
P R
h eartĠ
Wor kĠ
i keĠ
K aw
c Ġ
n ick
thoseĠ whoĠ
b ri
requi redĠ
rec yc
Sw itch
ĠT H
t abl
L ev
EnginesĠ&Ġ EngineĠ
ofĠ thisĠ
pol yester
Cover s
ishwash erĠ
ne ticĠ
D O
r ig
ĠS m
st retchedĠ
c ameraĠ
ps ych
th ,Ġ
saf eĠandĠ
purch aseĠ
ed itionĠ
f lex
Kit s
inter es
t y
ch osenĠ
el asticĠ
w el
MadeĠ fromĠ
Ste er
ra inĠ
tern ativeĠ
ToĠFitĠ (ins
wa istĠ
rel ig
ĠĠĠĠ Ġ
& nbsp;
mentĠ andĠ
WallĠMuralsĠ RemovableĠSelf-adhesiveĠ
possi bleĠ
ultic ol
b ests
press ionĠ
incre aseĠ
-Ġ TheĠ
ec k
Univers alĠ
ph ilosoph
h al
br acel
D utyĠ
fun n
M akeĠ
ex ist
e qu
y alĠ
comeĠ withĠ
med i
M ac
p endantĠ
Por tableĠ
C lut
5 9
forĠ everyĠ
ful l
arn ess
ĠA CC
6 8
fac tionĠ
g or
T emper
Sch ool
</ i>
.Ġ PleaseĠ
d utyĠ
spor tsĠ
Lif eĠ
ust -
ag n
Bu yĠ
C O
G ar
stret chĠ
chil dĠ
protec tion
PackĠ ofĠ
n iceĠ
direc tlyĠ
ma ke
coll ar
sĠandĠ theĠ
las h
chand is
us iveĠ
ing erĠ
3D ĠD
install ationĠ
wh yĠ
is ,Ġ
ĠG U
Au toĠ
ï¼ Į
Rev i
activi ti
aĠ S
mm ĠĠ
em pl
quick lyĠ
dev iceĠ
v in
r en
merc ialĠ
cmĠÂ±Ġ4 cmĠ
tion sĠofĠ
A ĠF
3 75
satis fi
H oo
ingĠ fromĠ
re usableĠ
ordin aryĠ
b igĠ
HighĠ qualityĠ
hol derĠ
az z
p at
ing ĠĠ
f a
esĠ orĠ
: Âł
Ph il
G lo
ad dingĠ
Girl sĠ
100 0
ment ,Ġ
i >Ġ
H z
don 'tĠ
Sw eat
ay sĠ
s.Ġ TheseĠ
O per
30 ĠCmĠ
esĠ inĠtheĠ
d imension
e thĠ
e ableĠ
per man
ð Ŀ
ðŁ Ĵ
vehic le
com esĠwithĠ
K ingĠS
VideoĠ Gam
idd leĠ
g overn
cas ualĠ
d ir
âĢĶ âĢĶ
ir con
irr orĠ
sens orĠ
esĠ fromĠ
resist anceĠ
N ut
ati bil
to pic
1 14
m atch
Jack etĠ
f oundĠ
Sty le:Ġ
p ass
dur abilityĠ
tra in
L iv
res tĠ
CDsĠ&ĠVinyl/Music/ PopĠ
Shoes/ Women'sĠ
detail edĠ
br ingsĠ
B al
p adĠ
Ġ4 .
Fir stĠ
Bea uti
ing .ĠĠ
per .Ġ
m ix
Kaw asak
me tic
factor yĠ
Ġ1 2
n ectĠ
re amĠ
D ualĠ
willĠ haveĠ
A -
dis play
</p>Ġ <p>
re qu
ver seĠ
cr is
sĠ&Ġ Drap
ĠR ear
L Y
k gĠ
se qu
um b
Tra in
Cas es,Ġ
Stand ardĠ
Cover sĠ&Ġ
on s
mo sp
ar seĠ
Qu ickĠ
D et
ag ement
man ufacturedĠ
re inforc
R C
ro t
sĠ&ĠDrap es
HomeĠDÃ© corĠ
edĠ fromĠ
to day
h oodĠ
bott leĠ
holid ayĠ
A K
G l
li k
mus icĠ
n ut
designĠ willĠ
ul tra-
C at
ColorĠ :Ġ
Ġ1 99
s inceĠ
ER Ġ
ĠF eat
Fil ter
finish edĠ
any oneĠ
p ag
sle eveĠ
WallĠ Art
our ceĠ
sm ooth
U se
g en
p ear
g ym
os s
KitchenĠ&ĠDining/KitchenĠ&ĠDining/ KitchenĠ
l b
Joh nĠ
S ets
2. 0Ġ
Th anks
US Ġ
c entĠ
D at
s and
200 0
b arĠ
cut tingĠ
w rist
Ever y
Hol der
F am
v o
4 9
keep sĠ
Lap top
stud entsĠ
hom e,Ġ
3 16
B eĠ
col orsĠ
or k
f lexibleĠ
L og
are aĠ
allo yĠ
at ure
nec klac
fl owerĠ
f es
Ġ1 6
An im
book ,Ġ
pl ugĠ
ev ent
ag e:Ġ
andĠ isĠ
r oughĠ
ac cor
HE EL
func tionalĠ
com b
work man
< li>
ac ros
S al
Tra dingĠ
wa ist
gr and
ON IC
sp read
eng ineĠ
ch ap
Sports,Ġ Outdoor
IS T
sĠ&Ġ TravelĠ
f t
Sports,ĠOutdoor sĠ&ĠTravelĠ
g/ m
p as
m en
ther ap
b lock
Home/Home/ HomeĠDÃ©corĠ
F lo
ensure sĠ
P rac
H ardĠ
am ic
aĠ M
f us
sec ond
NewĠY orkĠ
it aryĠ
fir mĠ
j ob
W illĠ
Material s:Ġ
Craf tĠ
s aw
MadeĠ inĠ
per sĠ
le adĠ
B ol
onlyĠ forĠ
y .ĠĠ
sh in
ter s,Ġ
Bag s
</ i>Ġ
20 11
th re
vi br
ag Ġ
Auto m
In kĠ
orĠ aĠ
str ength
sh ock
T it
A maz
M oreĠ
ag edĠ
- R
ĠT yp
ĠT HE
un ivers
D ep
wh e
P iec
ster lingĠ
D C
int ell
le verĠ
am ongĠ
s pl
i erc
R ockĠ
ANT E
ĠHigh Ġ
thereĠ isĠ
An yĠ
s aveĠ
tr umĠ
istĠ ofĠ
20 18
ateg or
piec esĠ
mat terĠ
si veĠ
es ter
P res
cre atedĠ
r u
Al lo
H eartĠ
notĠ easyĠtoĠ
ol lĠ
A cr
T ub
ann erĠ
be ad
f allĠ
Sim pleĠ
Cost um
hang ingĠ
- OverallĠ
Sh ap
âľ Ķ
ÃĹĠ1 .
Bo ys
J our
tim eĠandĠ
F loorĠ
ragr anceĠ
appl icationĠ
L et
Cap ac
em erg
ac tionĠ
Wi th
P end
surfac e,Ġ
f all
- -Ġ
bec auseĠ
B ow
M M
Americ a
par tĠofĠ
ink ,Ġ
L ear
IN E
ĠWallpaperĠ WallĠMuralsĠRemovableĠSelf-adhesiveĠ
B andĠ
pre t
tim e
tĠ theĠ
proble mĠ
wishĠ toĠ
ĠP h
Pro vid
ofĠ ourĠ
s entĠ
IN T
W ar
or ,Ġ
g old
mmĠ (
th ingsĠ
au tom
provid ingĠ
atĠ aĠ
B ab
work sĠ
shap edĠ
madeĠ withĠ
F ECT
pro gram
ip eĠ
kg ĠĠ
it terĠ
Parts/AutomotiveĠ EngineĠ
outĠtheĠAuth orĠ
nov elĠ
* *
D if
ibil ityĠ
sup por
p yĠ
er min
pro mo
t oughĠ
Home/Home/HomeĠDÃ©corĠ Products/
C artrid
ĠS crew
Wheel s,Ġ
V ari
Dr ess
AS E
AR ANTE
inĠ andĠ
cool Ġ
L ittleĠ
we ek
g ent
im in
InĠ theĠ
HandĠTool s/
ey eĠ
5 .5
C yc
H um
ship pedĠ
in struc
P ow
a im
PackageĠ Includ
Br id
loc alĠ
at mosp
m yst
y )
ateĠ forĠ
histor yĠ
Tre at
m echan
tedĠ byĠ
some thingĠ
Br ush
text ure
sp eak
Design edĠtoĠ
Automotive/Automotive/AutomotiveĠReplacementĠParts/AutomotiveĠReplacementĠDriveĠTrainĠParts/AutomotiveĠ Transmission
4 "
RE D
Ass embl
R adi
Ship pingĠ
clo seĠ
collec tionĠofĠ
T ex
n ingĠ
acu umĠ
sec re
andĠ yourĠ
v an
Coll ar
d igitalĠ
6 7
quis it
s cre
Clothing,ĠShoesĠ&ĠAccessories/Clothing,ĠShoesĠ&ĠAccessories/Women'sĠFashion/Women'sĠ Shoes/Women'sĠ
meas uresĠ
ACC ESSORIES
- w
Features -Ġ
canĠalsoĠ beĠ
ch e
ic h
ess orĠ
.Ġ TheseĠ
on yĠ
C offeeĠ
ynthe ticĠ
customerĠ serviceĠ
he ightĠ
cent uryĠ
O G
s lightlyĠ
w eddingĠ
throttleĠ controll
ref lectiveĠ
Fl ow
Au di
ch ,Ġ
Avail able
Br aceletĠ
O Y
un tilĠ
B edĠ
re p
Sle ev
protec tsĠ
Sh op
t ro
st rip
cul turalĠ
3DĠHomeĠ WallpaperĠ
min im
effec tiveĠ
ac r
H al
Automotive/Automotive/AutomotiveĠReplacementĠParts/AutomotiveĠReplacementĠDriveĠTrainĠParts/AutomotiveĠTransmission sĠ&ĠParts
Sports,ĠOutdoorsĠ&ĠTravelĠ -Ġ
dur ingĠtheĠ
con sist
CareĠ Products/
areĠ theĠ
i re
in vol
milli onĠ
stud yĠ
inter iorĠ
20 5
ĠC oll
analys isĠ
Jewell eryĠ
spir it
us esĠ
He ight:Ġ
p astĠ
leec eĠ
co hol
et sĠ&Ġ
a uc
ĠC ur
S wi
ãĢĳ :Ġ
F un
ateĠ andĠ
wallpap erĠ
cut eĠ
A V
Ch ooseĠ
wh eelĠ
U Ġ
n ail
Features:Ġ -
stainlessĠ steel
P ants
friend s,Ġ
Jewellery |
fi berĠ
Whe therĠ
B allo
f lu
C akeĠ
ul aĠ
15 0Ġ
co at
chooseĠ toĠ
m ightĠ
ĠW HEEL
s.Ġ ItĠ
any whereĠ
U D
ad ul
H or
Man ualĠ
if eĠ
ĠF il
Op tionalĠ
ProĠBrakingĠPB F
p in
R us
non-tox icĠ
ĠFrontĠ Bra
H i
F ol
exerc is
Fil terĠ
enti reĠ
ha vi
wonder fulĠ
t eamĠ
a er
ps onĠ
protectĠ yourĠ
Toy s
s ock
are asĠ
d ressĠ
appro achĠ
a hĠ
Beauty/ Beauty/
ragr anc
ph otoĠ
ID E
siz edĠ
jec tsĠ
glo balĠ
,Ġ T
lov edĠ
St rip
tern alĠ
Meas urement
ĠPro ductĠ
pleaseĠ feelĠfreeĠtoĠ
VehicleĠPartsĠ&ĠAccessories| MotorcycleĠ
E lastic
model s.Ġ
wh oleĠ
SĠ (
ĠSt and
inspi redĠ
well -
br ight
L S
vi ol
tr ack
Disc s
Qu al
ĠD i
nat ur
st artĠ
tes tedĠ
shopp ing
ies /
VehicleĠPartsĠ&ĠAccessories|MotorcycleĠ Accessories|
Tr ans
Bo ardĠ
am ond
L ic
Features :
material sĠ
ĠGIF T
Publ ish
Sho es
jour n
hol eĠ
iz eĠ
greatĠ forĠ
p al
,Ġ F
ep end
or igin
ationĠ ofĠtheĠ
whe therĠ
el fĠ
makeĠ yourĠ
im m
y leĠ
pack ageĠ
g all
Tool sĠ
n onĠ
Li braryĠ
ve get
mor e.Ġ
an e
er ousĠ
18 0Ġ
re allyĠ
E ff
toĠ B
st ar
ec orĠ
f arĠ
W OM
cmĠ /Ġ
C lip
EĠ -Ġ
non-tox ic,Ġ
P RO
shop pingĠ
B atteryĠ
S ignĠ
li qu
manualĠ measurement
exc ep
pro p
h op
r un
y.Ġ TheĠ
Automotive/Automotive/ AutomotiveĠ
partĠ ofĠtheĠ
1 10
prin tsĠ
B I
em o
nec k
fi x
S W
Net work
in e,Ġ
N C
t ,
ĠC H
F T
925 ĠSter
ref lec
rec i
atedĠ withĠ
Comfor tableĠ
sp eedĠ
p uzz
arti st
S l
des tĠ
He atĠ
rec ord
e âĢĿĠ
St ret
Su it
14 0
Mat ,Ġ
pro perĠ
v ideoĠ
ĠA L
inv es
Ġĉĉĉ Ġĉĉĉ
d ustĠ
IS OĠ
Cr ystalĠ
âĦ ¢
ub icĠ
r aĠ
V ic
B allĠ
em >
/ NoveltyĠ
ÃĹ 0.
Mer chandis
alumin umĠ
7 3
G odĠ
ĠBlu eĠ
ill ingĠ
Bel tĠ
US AĠ
lin esĠ
appro ach
Fu elĠ
zip perĠ
Y am
Bott leĠ
er âĢĻsĠ
abin etĠ
hand -
! ĠĠ
5 20
publ ish
p ati
ĠĠĠ ĉ
pres erv
B ig
energ yĠ
BrakesĠ&Ġ BrakeĠ
Includes :Ġ
Comple teĠ
EAS Y
g ood
Nav yĠ
inter nalĠ
BrakesĠ&ĠBrakeĠ Parts|
- L
includ ed.Ġ
wor ryĠ
Ex traĠ
m achin
d arkĠ
ex quisiteĠ
Man ufacturedĠ
A s
r ound
Tyres |
W oodĠ
7 00
Wid thĠ
ward ro
lif e,Ġ
aint en
Am y
rel atedĠ
,Ġ butĠ
tic eĠ
betweenĠ theĠ
ic on
VehicleĠPartsĠ&ĠAccessories|CarĠ&ĠTruckĠParts| BrakesĠ&ĠBrakeĠParts|
choiceĠ forĠ
writ ingĠ
poin tĠ
.ĠĠ ĉ
ul timateĠ
ĠĠĠĠ P
m ulti-
typ e:Ġ
to yĠ
ques tion
gard enĠ
ĠFrontĠBra idedĠBrakeĠLineĠ(
c ell
b ell
edĠ onĠ
:Ġ ToĠFitĠ(ins
Post ersĠ&Ġ
C amp
) ).Ġ
las hĠ
Ide alĠ
Do on
ĠS H
6 .5
R ock
wear ingĠ
ĠS w
l oo
m alĠ
StretchedĠ CanvasĠ
under stand
d ang
Material sĠ
RA M
ery -
in aĠ
R ings
Gu ideĠ
offersĠ aĠ
U B
end sĠ
ĠF R
Sh oulderĠ
ch ur
pock etsĠ
makeĠ youĠ
Sk ins
bel tĠ
5 4
wallpap er,Ġ
Component s|
HighĠ QualityĠ
asc in
Ad dĠ
ch estĠ
arriveĠ readyĠtoĠhang
er alĠ
vol um
s on
b anĠ
b or
ou dĠ
p eĠ
in kingĠ
resid ueĠ
P csĠ
technolog yĠandĠ
20 12
L ond
vel op
OM P
SĠ&Ġ ACCESSORIES
mon itorĠ
createĠ aĠ
andĠ otherĠ
11 .
LEĠP ART
I s
m ad
pre -
h on
ot tom
P rec
decor ativeĠ
Qu art
ur g
VEHIC LEĠPART
VEHICLEĠPART SĠ&ĠACCESSORIES
e) .
B aseĠ
A fterĠ
WallĠ PrintĠ
2 .Ġ
ea kĠ
Sports,ĠFitnessĠ&ĠOutdoors/ Sports,ĠFitnessĠ&ĠOutdoors/
gre enĠ
AS S
p ing,Ġ
8 "
Ey eĠ
ro adĠ
bag ,Ġ
oc ialĠ
HomeĠ&ĠGardenĠ >ĠD
makeĠ itĠ
Sign sĠ
Automotive/Automotive/AutomotiveĠReplacementĠParts/AutomotiveĠReplacementĠ EnginesĠ&ĠEngineĠ
S eriesĠ
usin ess
CoversĠ&Ġ Skins
S er
k erĠ
el s,Ġ
Cases,Ġ CoversĠ&ĠSkins
high-qualityĠ material
Description :Ġ
7 5Ġ
sh ad
all y-
Gra du
ienc eĠ
I sl
ud d
bo y
l aĠ
ess enti
Ġ V
rou tingĠ
M el
stor yĠofĠ
m ap
spec trumĠ
R is
tak ingĠ
inĠ anĠ
> ĠR
anyĠ otherĠ
Ch estĠ
ouble -
br illi
ra di
R ac
diamet erĠ
Re usableĠ
P ower
ful ,Ġ
HomeĠ&ĠGardenĠ>ĠD ecorĠ
ĠSpec ification
Ã ĥ
ad justĠ
InĠ thisĠ
orĠ âĢľ
availableĠ asĠaĠ
X S
f e
Ac tionĠ
20 16
sm art
O H
ack et
3D ĠB
T reeĠ
ĠT R
requi red
20 15
fram esĠareĠ
mat teĠ
Str ongĠ
h ook
AvailableĠ inĠ
v it
B athĠ
ĠP R
M ainĠ
pur pos
200 Ġ
)ĠF eat
follow ingĠ
mo ther
G E
al edĠ
F AC
toĠ re
F L
R os
t u
p riv
indo orĠ
M ark
isĠ commonlyĠ
isĠtheĠ perfectĠ
innov ativeĠ
app reci
c offeeĠ
B 1Ġ
: IfĠyouĠ
detail Ġ
B ath
fil terĠ
f ound
R oll
S H
S ocketĠ
Revi ew
wi relessĠ
comm onĠ
wrap pedĠ
Bi keĠ
7 .5
In strument
hour sĠ
ev er,Ġ
ris k
1 ,Ġ
er ,
VehicleĠPartsĠ&ĠAccessories|CarĠ&ĠTruckĠParts| Wheels,Ġ
ul yĠ
VehicleĠPartsĠ&ĠAccessories|CarĠ&ĠTruckĠParts|Wheels,Ġ Tyres|
en erĠ
t estĠ
ic tureĠ
KitchenĠ&ĠDining/KitchenĠ&ĠDining/ Table
woodenĠ fram
friend sĠ
Ar ti
po ol
bec om
school ,Ġ
2 /
ĠT op
PostersĠ&Ġ Prints
CardĠ S
d ig
cri ticalĠ
del icateĠ
al mostĠ
PetĠSupplies/PetĠSupplies/ Dogs/
el tĠ
Cas esĠ&Ġ
bas icĠ
BrakesĠ&Ġ Suspension
Jo hn
an tit
high- endĠ
appro xim
ĠWi thĠ
u itĠ
P ocketĠ
b ersĠ
sturd yĠ
use fulĠ
. -
itĠ willĠbeĠ
Op enĠ
rec ogn
el er
âĢĿ )Ġ
TH EĠ
8 /
Commun ication
.ĠA fterĠ
W a
4. 375
WallpaperĠMural sĠ
T Y
A Y
Be ad
Vol umeĠ
dis cover
Sh eetĠ
| Ġ
"Ġ( 11
differ enc
clean ingĠ
resist ant
/ >
âľ ħ
ed ,ĠandĠ
fir m
Sm oothĠ
Ad hesiveĠ
"Ġ( 50
aliz edĠ
f eetĠ
XL )
ĠP ackĠ
effectiv elyĠ
cm )ĠFeat
yourĠ ownĠ
n ylonĠ
refun dĠ
iv ersĠ
C R
25 4
r ub
Moun tĠ
re di
V el
pr ic
ĠGU ARANTE
to y
fres h
4.375 "Ġ(11
P F
Fl oralĠ
wif e,Ġ
pro mis
masterĠ cylinderĠ
M otorĠ
In nerĠ
8 .5
4Ġ xĠ
erse yĠ
M c
non -Ġ
WĠxĠ H
strengthĠ andĠ
bas isĠ
y ell
us edĠtoĠ
fram e.ĠTheĠ
20 "Ġ(50
E psonĠ
en .Ġ
3Ġ xĠ
1 .Ġ
comp ar
n ow
adv ancedĠ
di dĠ
zu ki
li z
is ion
ain tĠ
G oodĠ
Int roduc
f ish
StationeryĠ&ĠOfficeĠProducts/OfficeĠProducts/ OfficeĠ
20 14
p ill
af ford
overĠ yourĠ
se enĠ
D ri
N am
comple xĠ
ic tĠ
XL Ġ(
Ox fordĠ
Pl atedĠ
wor nĠ
20 13
ti p
h ood
in i
âĢľ Black
En dĠ
el ĠP
sh af
0 6
Vehic leĠ
re us
moist ureĠ
cele br
N Ġ
Or ang
yourĠorderĠ willĠbeĠ
AN Ġ
ArtĠ Prints
chooseĠtoĠ addĠaĠ
tor sĠ
c atĠ
âĢľ White
isĠnotĠ availableĠasĠaĠ
woodenĠfram e.
thĠ productĠimag
âĢľ MatteĠPaperĠPrint,ĠNoĠFram
.ĠThereĠ isĠanĠexampleĠphotographĠofĠwhatĠthisĠlooksĠlikeĠinĠtheĠproductĠimageĠsectionĠaboveĠ(theĠ
matĠ boardĠ
âĢľ FramedĠ
designĠwillĠ fillĠ
D riv
- to-
:Ġ S
ing redi
Mus icĠ
theyĠ willĠ
b ir
P ot
a idĠ
er .
Wi relessĠ
Cas ualĠ
StreetĠ SignsĠ
cali per.Ġ
f an
idd enĠ
t ageĠ
foc usĠ
LineĠ dryĠ
ar iesĠ
E leg
water proof,Ġ
ec h
amin atedĠ
AvailableĠ onlyĠforĠ
dualĠ caliperĠ
fromĠtheĠ masterĠcylinderĠ
fromĠtheĠmasterĠcylinderĠ leverĠ
AvailableĠonlyĠforĠ non-Ġ
routingĠ fromĠtheĠmasterĠcylinderĠleverĠ
ABSĠ dualĠcaliperĠ
AvailableĠonlyĠforĠnon-Ġ ABSĠdualĠcaliperĠ
sc en
AvailableĠonlyĠforĠnon-ĠABSĠdualĠcaliperĠ models.Ġ
toĠ provideĠ
a j
ĠACC ESSORIES
sm all
makeĠ sureĠ
Univers ityĠofĠ
mentĠ ofĠ
iftĠ Knob
O UT
ust ,Ġ
10 -
indo orsĠ
e ;Ġ
fic ialĠ
utter flyĠ
comfortableĠ toĠ
cm )
3 12
acros sĠtheĠ
Fr enchĠ
c lipĠ
langu ageĠ
f yĠ
enc ou
h 2
str actĠ
Del iver
fit ,Ġ
icyc leĠ
CD s
er 'sĠ
D ryĠ
dis cipl
ne tic
he elĠ
- b
designĠ andĠ
B P
lo ad
p ageĠ
E ĠBrakeĠ
Yam ah
learn ingĠ
Cut eĠ
Tool s
iv il
ver sionĠ
ot alĠ
soĠ thatĠ
Gif t
T P
Stick erĠ
pl usĠ
hel dĠ
us eĠandĠ
BrakesĠ&ĠSuspension |
VehicleĠPartsĠ&ĠAccessories|MotorcycleĠParts| BrakesĠ&ĠSuspension|
on esĠ
ĠGre enĠ
<brĠ/ >
complet elyĠ
comfor tĠandĠ
W ashĠ
,Ġ N
an otherĠ
BrakeĠ Pads
Ġ1 9
P ear
m as
hand sĠ
travel ,Ġ
ĠS c
2 "
Ste eringĠ
R aceĠ
12 .
Cre ativeĠ
T eeĠ
on ceĠ
off iceĠ
ĠBag s
P ushĠ
I B
Engin es,Ġ
e an
gif t,Ġ
h us
al ternativeĠ
no is
mark et
in j
V eg
Lugg ag
Appl ianc
Cont ain
rece iv
.Ġ AllĠ
ne edĠforĠ
M ouseĠ
tak enĠ
Eco -friendlyĠ
dif fic
sle ep
L ea
R ecor
2. 4
c upĠ
com eĠtoĠ
VehicleĠPartsĠ&ĠAccessories|CarĠ&ĠTruckĠParts| Engines,Ġ
VehicleĠPartsĠ&ĠAccessories|CarĠ&ĠTruckĠParts|Engines,Ġ Components|
ĠBL ACK
S lip
tain sĠ
H ous
W arĠ
mag neticĠ
thereĠ areĠ
cmĠxĠ 240
Box esĠ&Ġ
finish .
makingĠ itĠ
col ouredĠ
h am
er s/
Wal letĠ
certi fic
Patter nĠ
Requi redĠ
e,Ġ noĠ
rel ax
al sĠandĠ
N eed
wear ,Ġ
W illi
oc ol
isĠ alsoĠ
Du vetĠ
gif tsĠforĠ
IfĠyouĠ haveĠanyĠ
Hand leĠ
Sm artĠ
Moder nĠ
h ookĠ
se atĠ
tr end
summ erĠ
dev el
sw itchĠ
L ist
h2 >
str ingĠ
withĠ ourĠ
min iĠ
toĠ helpĠ
erĠ (
Rem oteĠ
WallĠPrintĠ DecalĠ
hin est
Co il
practic eĠ
ev ol
bests ellingĠ
St rap
S cr
ALL ĠART
F lexibleĠ
knowled g
L O
prof il
Med iumĠ
ĠF ashion
Automotive/ Automotive
Ch apterĠ
as p
TPU Ġ
al istĠ
In form
9 3
Mak ingĠ
PackageĠ Dimensions:Ġ
NoĠ DescriptionĠ
NoĠDescriptionĠ Available
B and
Blue toothĠ
C amer
ĠW IT
spec ial
au xĠ
Mus icalĠ
ann ingĠ
B er
ais onĠ
accor dingĠ
e )Ġ
sho pĠ
oul der
I l
220 cmĠxĠ240
ĠxĠ WĠxĠH
t est
Japan eseĠ
erg art
h un
ĠSel f-adhesiveĠ
abl esĠ
-Ġ TopĠ
cmĠÂ±Ġ4 cm
Eng ine
k enĠ
Gener alĠ
p ens
numberĠ ofĠ
an ch
Or igin
engine er
:Ġ Y
Ro yalĠ
Pol yester
lo goĠ
Lap topĠ
iti esĠ
st amp
aĠ newĠ
F aceĠ
L ow
/ N
âĢĿĠ orĠâĢľ
ed ic
sensi tiveĠ
HeavyĠ DutyĠ
20 8
nes s,Ġ
cour s
KitchenĠ&ĠDining/KitchenĠ&ĠDining/Table ware/
relation shipĠ
produc tionĠ
9 00
HomeĠ&ĠGarden|HomeĠDÃ©cor| PostersĠ&ĠPrints
Sk inĠ
anti Ġ
Tra vel
S ock
inter estĠ
ind ustri
an gĠ
k it
ectĠ theĠ
war e
< BR
OfficeĠ SuppliesĠ
s oldĠ
enc eĠofĠ
val veĠ
cre atingĠ
d yn
en edĠ
IC K
t âĢĿĠ
.Ġ OurĠ
MoviesĠ&ĠTV/ MoviesĠ&ĠTV/
Fl ag
ĠF l
recomm end
posi tionĠ
a -
W ARE
Prin tingĠ
adap tedĠ
it er
St andĠ
/ ĠH
ness :Ġ
-S ub
cor n
mm /
, 000Ġ
in esĠ
material s
f ail
i oĠ
id ingĠ
3 .Ġ
get tingĠ
ge ousĠ
keepĠ yourĠ
itĠ willĠ
school s,Ġ
B uck
glo ss
enoughĠ toĠ
A si
t ell
ant s,Ġ
Th read
16 4
you âĢĻreĠ
cmĠxĠ 100
P at
om m
be y
Pol y
read yĠ
birth day
de gre
deliver yĠandĠ
inves tig
Lif e
:Ġ AĠ
br eĠ
Bed spread
Boys '
ass ageĠ
s topĠ
( S
alongĠ withĠ
F ishingĠ
tiv ityĠ
f ishĠ
h ow
i ble
guarante eĠtheĠ
p inĠ
l over
Size:Ġ AboutĠ
tot alĠ
port un
Ch romeĠ
underĠ theĠ
rec entĠ
sp ark
W el
.Ġ AndĠ
Quil ts,Ġ
tsĠ toĠ
accessĠ toĠ
anal y
O D
ul lyĠ
comp uterĠ
âĢľMatteĠPaperĠPrint,ĠNoĠFram eâĢĿĠ
OakâĢĿĠ isĠnotĠavailableĠasĠaĠ
Ab outĠtheĠAuthorĠ
Yamah aĠ
us edĠforĠ
sĠ >Ġ
] :Ġ
E le
kind sĠofĠ
L ov
Doon as
sm artĠ
15 .
sĠ&Ġ Doonas
Bedspread sĠ&ĠDoonas
Quilts,Ġ BedspreadsĠ&ĠDoonas
ir cul
evenĠ inĠtheĠ
M en
de g
Profession alĠ
&Ġ PersonalĠ
C M
PU Ġ
allowsĠ youĠtoĠ
w asĠaĠ
ĠB uil
G em
keep ingĠ
useĠ theĠ
eelĠ andĠs
e oĠ
G irlĠ
ĠW ind
In doorĠ
mak esĠtheĠ
cro ss
to onĠ
con nectĠ
100 0Ġ
:Ġ A
Stamp s|
f iveĠ
ĠS k
over nightĠ
BL U
3. 0Ġ
addi tionĠtoĠ
con sum
mo therĠ
s top
w il
ium -
ï ¿
id erĠ
ped alĠ
saf et
m old
n dĠ
le aveĠ
e.Ġ ThisĠ
QuiltĠCoverĠSetĠBeddingĠSetĠ PillowcasesĠ
10 2
Ind ic
sol veĠ
System s|
typ esĠofĠ
( 4
Z ipĠ
fit tedĠ
L and
qualityĠ andĠ
up d
alongĠ theĠ
m eĠ
Ch arm
enh anceĠ
3 2Ġ
b s
en tim
PowerĠ ToolsĠ&Ġ
HomeĠImprovement/HomeĠImprovement/ PowerĠToolsĠ&Ġ
des crip
P H
-ĠTopĠ toĠB
P al
tor s
Rug byĠ
ide asĠ
need leĠ
5 x
ĠW e
âĢĿ âĢľ
Tim eĠ
ĠC le
St oneĠ
th oughĠ
en essĠ
mon itor
mo veĠ
ĠCO VER
fre eĠandĠ
re -
Con ven
econom icĠ
r ight
ĠPro tec
ef tĠ
health yĠ
publ ishedĠ
b owĠ
insideĠ theĠ
Ex per
s endĠ
cre atesĠ
ĠWallĠMuralsĠ WallpaperĠMuralsĠ
L arg
Beauti fulĠ
dem on
erĠ thanĠ
Features-Ġ Color:Ġ
ï¿ ½
in struction
fitĠ andĠ
kind ergart
olog y,Ġ
YO UR
ing sĠandĠ
mm )ĠxĠ
bl ad
v iaĠ
el astic
Cont rol
develop ment
trans form
un chĠ
2 ,Ġ
Luggag e|
sit u
Sc rap
rim eĠ
Di rectĠ
edĠ withĠaĠ
VintageĠ PartsĠ
st unningĠ
s tockĠ
M anĠ
pan elĠ
k ing,Ġ
T- Shirts
Organ iz
wood ,Ġ
ĠSle eveĠ
aĠ goodĠ
u ally,Ġ
d y
some timesĠ
Eu rop
hol dingĠ
Pl ayĠ
sh ellĠ
EN G
exam pl
off ice,Ġ
OR T
Spr ingĠ
mov ement
ClothingĠ&Ġ AccessoriesĠ>
e.Ġ ProductĠID:ĠUT
S portĠ
VehicleĠPartsĠ&ĠAccessories|MotorcycleĠAccessories| Luggage|
and ,Ġ
Produc ts
Women &#39;sĠ
ĠP owerĠ
ab Ġ
st re
âĢĻsĠ Day,Ġ
health .
00Ġ ÃĹĠ
k itch
ueĠ toĠtheĠ
k indĠ
12 0Ġ
D F
dep endingĠ
K K
asĠ theyĠ
Sho esĠ
g irlĠ
Vit amin
Ge or
toteĠ bagĠ
ĠPol yesterĠ
andĠ easyĠtoĠ
ing u
Wind owsĠ
al og
IC ONIC
ĠĠĠĠ ĠĠĠ
H isĠ
E A
ĠB o
,ĠH ouseholdĠ
ront /
ar riv
St rapĠ
viv id,Ġ
onom icĠ
am oun
co atedĠ
an imalĠ
pl ug
n av
Bon am
U .S
Cus tom
lux ur
&# 34
low -
9 /
st ri
4 5Ġ
To dd
Gadget s,Ġ
be havi
NO TĠ
Ab sor
HealthĠ&Ġ HouseholdĠ
V -
Care/ HealthĠ&ĠHouseholdĠ
,ĠHouseholdĠ &ĠPersonalĠ
Health ,ĠHouseholdĠ&ĠPersonalĠ
Health,ĠHouseholdĠ&ĠPersonalĠ Care/HealthĠ&ĠHouseholdĠ
Bonam aisonĠ
> ĠM
ĠSiz eĠ
C -
b sĠ
g es
Inch esĠ
T extĠ
Su zuki
edĠbyĠ aĠ
Âł ĠTheĠ
d ream
pre par
man agementĠ
> ĠC
cr ystalĠ
ToysĠ&Ġ VideoĠGam
Gadgets,Ġ ToysĠ&ĠVideoĠGam
mov ementĠ
wom anĠ
au dioĠ
ĠG S
Stick ersĠ
eas ierĠ
3 50
CDsĠ&ĠVinyl/Music/PopĠ Music
Cas es
Curtain sĠ&ĠDrapes
some oneĠ
Plu sĠ
Pol oĠ
m arkĠ
Communication /
MobileĠ PhonesĠ&Ġ
D ist
20 10
ir onĠ
S ub
Wind ow
F ish
mem oryĠ
HomeĠImprovement/HomeĠImprovement/PowerĠToolsĠ&Ġ HandĠTools/
c amer
u tionsĠ
i PadĠ
pairĠ ofĠ
0 5
S ou
N ick
Exha ust
parti es,Ġ
ha v
le xĠ
76 cmĠxĠ100
P aint
CameraĠ&ĠPhoto/Electronics/ MobileĠPhonesĠ&Ġ
ĠM an
pol ishedĠ
( M
ic aĠ
Tail ĠBags
TopĠ BoxesĠ&Ġ
TopĠBoxesĠ&Ġ TailĠBags
plasticĠ bag
tingĠ theĠ
dec ad
ourĠ storeĠ
sh ockĠ
Ġ ofĠ
lov elyĠ
t oneĠ
Cont entsĠ
glas s,Ġ
lif eĠandĠ
afterĠ youĠ
ough tĠ
onlyĠtheĠ highestĠ
VehicleĠPartsĠ&ĠAccessories|MotorcycleĠAccessories|Luggage| TopĠBoxesĠ&ĠTailĠBags
/ C
m ust-
R ound
o onĠ
ular lyĠ
invol v
b att
c otton
Tr ack
20 20Ġ
r unn
CameraĠ&ĠPhoto/Electronics/MobileĠPhonesĠ&Ġ Communication/
remov able,Ġ
ch argeĠ
su ff
I d
op portun
w arĠ
THEĠ ICONIC
) .
hel pingĠ
CameraĠ&ĠPhoto/Electronics/MobileĠPhonesĠ&ĠCommunication/ MobileĠPhoneĠ
erĠ withĠ
u vetĠ
ront/ Rear
ard sĠ
OfficeĠSuppliesĠ -Ġ
Protec torĠ
3 20
.Ġ -Ġ
mo tor
sĠforĠ aĠ
ation sĠofĠ
an i
Cloth ing
W ineĠ
Resist antĠ
year sĠofĠ
craf ts
Susp ensionĠ
Blu -
Gadgets,ĠToysĠ&ĠVideoĠGam esĠ-Ġ
ed -
eelĠandĠs tick
Pl ateĠ
h oo
Siz e:
s yn
E F
som eĠofĠtheĠ
ĠA p
in oĠ
ĠP L
meas ure
with inĠtheĠ
Aer of
s )Ġ
es,Ġ theĠ
,Ġ pleaseĠ
E dition
e ãĢĳ
ĠN oĠ
di tionsĠ
lic ens
b lyĠ
t rip
3 5Ġ
jew elr
ship ,Ġ
Whe elĠ
ai th
Dog ĠColl
ide aĠ
T or
S limĠ
loc kingĠ
-friendlyĠ andĠ
auto moti
ation .
ester nĠ
ĠBl ack
6 9
de b
4 .5
abil ity,Ġ
R ang
L aminatedĠ
m A
e.Ġ ItĠ
ĠCo arseĠ
gener alĠ
ter iorĠ
shouldĠ beĠ
ch apterĠ
ard ,Ġ
).Ġ TheseĠ
et ryĠ
r unningĠ
<BR >
1 .5Ġ
IS H
CameraĠ&ĠPhoto/Electronics/MobileĠPhonesĠ&ĠCommunication/MobileĠPhoneĠ Accessories/
fil mĠ
An imalĠ
erĠ ofĠ
Non- WovenĠ
bea ut
ingĠ onĠ
cul tur
SamsungĠGalaxyĠ S
1 ĠP
c am
atesĠ theĠ
D en
Car petĠ
B all
enjo y
3. 0
trans l
BrakeĠ SystemĠ
s enseĠ
del ic
roll erĠ
39 Ġ
in cludes
W armĠ
g enĠ
8 9
spec iallyĠ
highestĠ gradeĠ
devel opĠ
Cur tainĠ
A f
F unnyĠ
EC OĠ
Mon eyĠ
FreeĠ return
2 2Ġ
s. -Ġ
ies .Ġ
3DĠD uvetĠ
res ol
inĠ theirĠ
b it
Shop pingĠ
ProĠBrakingĠPB K
C S
sc apeĠ
iesĠ ofĠ
ĠwithĠ FreeĠ
Bel owĠ
atĠ THEĠICONIC
atĠTHEĠICONIC ĠwithĠFreeĠ
glu eĠandĠ
deliveryĠandĠ FreeĠreturn
atĠTHEĠICONICĠwithĠFreeĠ overnightĠ
atĠTHEĠICONICĠwithĠFreeĠovernightĠ deliveryĠandĠFreeĠreturn
M uff
Automotive/Automotive/AutomotiveĠReplacementĠParts/AutomotiveĠReplacementĠ BrakeĠSystemĠ
o thersĠ
Gam eĠ
Squ areĠ
z eĠ
eas y-to-
byĠ J
H otĠ
withoutĠ harm
fre qu
ol fĠ
CameraĠ&ĠPhoto/Electronics/MobileĠPhonesĠ&ĠCommunication/MobileĠPhoneĠAccessories/ MobileĠPhoneĠ
âĢ¢ ĠAĠ
ter mĠ
exc l
p ureĠ
comp actĠ
Steer ingĠ&Ġ
eng erĠ
h ear
ĠL ightĠ
res ultĠ
color fulĠ
rec ip
re position
Tool Ġ
acc eler
ass embl
p aint
ation :Ġ
)Ġ Ex
beauti fullyĠ
D S
d en
A tt
For m
ĠM ATERIAL
ĠL eatherĠ
G lov
el imin
On ceĠ
orĠ otherĠ
Model :Ġ
E TĠ
en tic
ic s,Ġ
os aur
Con s
clear ,ĠandĠ
Christi anĠ
Dav idĠ
erĠ P
peop le
) ,
n icĠ
famil y,Ġ
ing .ĠTheĠ
Sign sĠ&Ġ
or e
i th
C T
N ightĠ
for eĠ
techn icalĠ
str ess
ac adem
enc e,Ġ
Cer ti
TabletsĠ&Ġ Network
Computers/ TabletsĠ&ĠNetwork
Computers/TabletsĠ&ĠNetwork ing|
ext ensiveĠ
w eatherĠ
oneĠofĠtheĠ mostĠ
valu ableĠ
toĠ eachĠ
contactĠ us
willĠbeĠ aĠ
pl antĠ
ast er
C G
2 ndĠ
% ĠPolyester
ĠC ap
itĠ fromĠtheĠ
925ĠSter lingĠSilverĠ
stra ightĠ
wom en
i ou
gre aterĠ
environment ally-
e u
ĠC r
P ock
Fr anc
200 6
Protec tionĠ
tin iestĠ
cm):Ġ 76cmĠxĠ100
i tiveĠ
peri od
su stain
W all
el ev
O akĠ
Patter n
c lin
ING Ġ
it tedĠ
Childr en'sĠ
guarante esĠthatĠ
th inkĠ
asĠ youĠ
H ouseĠ
m y
b ornĠ
Tim esĠ
TrimĠ KitĠ
clo sure
likeĠ aĠ
E P
per ,Ġ
Bag sĠ
StorageĠ &Ġ
( withĠtheĠ
texture d,Ġ
recomm endĠ
Thick ,Ġ
whereĠ youĠwillĠ
ign itionĠ
ingĠtheĠ environmentĠ
ĠC oun
enter tain
sil ver
B eachĠ
quisit eĠandĠ
Gam es
H ood
thisĠ isĠ
environment -friendlyĠandĠ
kindergart ens,Ġ
signific antĠ
WOM ENS
Th atĠ
te am
andĠ un
G etĠ
haveĠtoĠ buyĠ
sterlingĠ silverĠ
2 60
cover edĠwithĠtheĠ
OC K
Ev enĠ
N ylonĠ
et er
eff ectĠ
e b
Jam esĠ
non-toxicĠ materials
â Ĺ
eelĠandĠstick ,Ġ
colorĠ contrastĠ
soĠ on
useĠ indoorsĠ
B B
colorĠ spectrumĠ
Pla ques
fur therĠ
anc yĠ
tool sĠ
T OP
comp on
certific ateĠforĠ
the -
new est,Ġ
hot els
ÂłĠ YourĠ
weĠ haveĠ
jo yĠ
S um
moun tĠ
perman ent.Ġ
int end
Home/Home/HomeĠDÃ©corĠProducts/ DecorativeĠ
es tsĠ
SignsĠ&Ġ Plaques
Home/Home/HomeĠDÃ©corĠProducts/DecorativeĠ SignsĠ&ĠPlaques
w ineĠ
isĠ veryĠ
guaranteesĠthatĠ yourĠ
productsĠ areĠ
ĠW ater
s ide
withoutĠharm ingĠtheĠenvironmentĠ
atic allyĠ
specificallyĠ adaptedĠ
J um
pl ateĠ
comfortableĠ andĠ
schools,Ġ kindergartens,Ġ
sub st
willĠhaveĠ anĠexcellentĠ
wallpaperĠ willĠbeĠ
evenĠinĠtheĠ tiniestĠ
Nor thĠ
vis ionĠ
onlyĠtheĠhighestĠ quality
newest,Ġ highestĠgradeĠ
inksĠ (withĠtheĠ
amazingĠ colorĠspectrumĠ
itĠwillĠbeĠ permanent.Ġ
clear,ĠandĠ willĠhaveĠanĠexcellentĠ
environment-friendlyĠandĠ non-toxicĠmaterials
textileĠ guaranteesĠthatĠyourĠ
guaranteeĠ onlyĠtheĠhighestĠquality
âĢ¢ĠWeĠ guaranteeĠonlyĠtheĠhighestĠquality
willĠbeĠ coveredĠwithĠtheĠ
useĠindoorsĠ âĢĵĠ
willĠbeĠcoveredĠwithĠtheĠ originalĠ
certificateĠforĠ useĠindoorsĠâĢĵĠ
âĢ¢ĠWeĠguaranteeĠonlyĠtheĠhighestĠquality ÂłĠTheĠ
schools,Ġkindergartens,Ġ hotels
[CUSTOMĠORDER]ĠĠWeĠcanĠcustomizeĠtheĠsizeĠorĠweĠcanĠchangeĠtheĠcolorĠofĠtheĠbackgroundĠforĠyouĠtoĠfitĠyourĠspaceĠforĠFREE.ĠIfĠyouĠwantĠaĠcustomĠorderĠpleaseÂłCONTACTĠUSĠforĠdetails.ĠWeâĢĻllĠbeĠgladĠtoĠassistĠyou.Ġ[WHYĠORDERĠFROMĠUS? ]Ġ
colorĠcontrastĠ evenĠinĠtheĠtiniestĠ
withoutĠharmingĠtheĠenvironmentĠ orĠyourĠ
environment-friendlyĠandĠnon-toxicĠmaterials ÂłĠYourĠ
schools,Ġkindergartens,Ġhotels ).ĠTheseĠ
whereĠyouĠwillĠ haveĠtoĠbuyĠ
inksĠ(withĠtheĠ ISOĠ
wallpapersĠ willĠbeĠcoveredĠwithĠtheĠoriginalĠ
withoutĠharmingĠtheĠenvironmentĠorĠyourĠ health.
colorĠcontrastĠevenĠinĠtheĠtiniestĠ details.Ġ
schools,Ġkindergartens,Ġhotels).ĠTheseĠ inksĠ
technologyĠandĠ specificallyĠadaptedĠ
âĢ¢ĠWeĠguaranteeĠonlyĠtheĠhighestĠqualityÂłĠTheĠ newest,ĠhighestĠgradeĠ
environment-friendlyĠandĠnon-toxicĠmaterialsÂłĠYourĠ wallpapersĠwillĠbeĠcoveredĠwithĠtheĠoriginalĠ
A th
traditionalĠ wallpaper,Ġ
wallpapersĠ withoutĠharmingĠtheĠenvironmentĠorĠyourĠhealth.
environment-friendlyĠandĠnon-toxicĠmaterialsÂłĠYourĠwallpapersĠwillĠbeĠcoveredĠwithĠtheĠoriginalĠ EpsonĠ
itĠwillĠbeĠpermanent.Ġ âĢ¢ĠWeĠguaranteeĠonlyĠtheĠhighestĠqualityÂłĠTheĠnewest,ĠhighestĠgradeĠ
clear,ĠandĠwillĠhaveĠanĠexcellentĠ colorĠcontrastĠevenĠinĠtheĠtiniestĠdetails.Ġ
certificateĠforĠuseĠindoorsĠâĢĵĠ schools,Ġkindergartens,Ġhotels).ĠTheseĠinksĠ
âĢ¢ĠAĠ high-endĠ
glueĠandĠ itĠwillĠbeĠpermanent.ĠâĢ¢ĠWeĠguaranteeĠonlyĠtheĠhighestĠqualityÂłĠTheĠnewest,ĠhighestĠgradeĠ
guaranteeĠtheĠ amazingĠcolorĠspectrumĠ
ECOĠ inksĠ(withĠtheĠISOĠ
vivid,Ġ clear,ĠandĠwillĠhaveĠanĠexcellentĠcolorĠcontrastĠevenĠinĠtheĠtiniestĠdetails.Ġ
âĢ¢ĠAĠhigh-endĠ traditionalĠwallpaper,Ġ
glueĠandĠitĠwillĠbeĠpermanent.ĠâĢ¢ĠWeĠguaranteeĠonlyĠtheĠhighestĠqualityÂłĠTheĠnewest,ĠhighestĠgradeĠ technologyĠandĠspecificallyĠadaptedĠ
âĢ¢ĠAĠhigh-endĠtraditionalĠwallpaper,Ġ whereĠyouĠwillĠhaveĠtoĠbuyĠ
ECOĠinksĠ(withĠtheĠISOĠ certificateĠforĠuseĠindoorsĠâĢĵĠschools,Ġkindergartens,Ġhotels).ĠTheseĠinksĠ
âĢ¢ĠAĠhigh-endĠtraditionalĠwallpaper,ĠwhereĠyouĠwillĠhaveĠtoĠbuyĠ glueĠandĠitĠwillĠbeĠpermanent.ĠâĢ¢ĠWeĠguaranteeĠonlyĠtheĠhighestĠqualityÂłĠTheĠnewest,ĠhighestĠgradeĠtechnologyĠandĠspecificallyĠadaptedĠ
[CUSTOMĠORDER]ĠĠWeĠcanĠcustomizeĠtheĠsizeĠorĠweĠcanĠchangeĠtheĠcolorĠofĠtheĠbackgroundĠforĠyouĠtoĠfitĠyourĠspaceĠforĠFREE.ĠIfĠyouĠwantĠaĠcustomĠorderĠpleaseÂłCONTACTĠUSĠforĠdetails.ĠWeâĢĻllĠbeĠgladĠtoĠassistĠyou.Ġ[WHYĠORDERĠFROMĠUS?]Ġ âĢ¢ĠAĠhigh-endĠtraditionalĠwallpaper,ĠwhereĠyouĠwillĠhaveĠtoĠbuyĠglueĠandĠitĠwillĠbeĠpermanent.ĠâĢ¢ĠWeĠguaranteeĠonlyĠtheĠhighestĠqualityÂłĠTheĠnewest,ĠhighestĠgradeĠtechnologyĠandĠspecificallyĠadaptedĠ
environment-friendlyĠandĠnon-toxicĠmaterialsÂłĠYourĠwallpapersĠwillĠbeĠcoveredĠwithĠtheĠoriginalĠEpsonĠ ECOĠinksĠ(withĠtheĠISOĠcertificateĠforĠuseĠindoorsĠâĢĵĠschools,Ġkindergartens,Ġhotels).ĠTheseĠinksĠ
guaranteeĠtheĠamazingĠcolorĠspectrumĠ forĠyourĠ
[CUSTOMĠORDER]ĠĠWeĠcanĠcustomizeĠtheĠsizeĠorĠweĠcanĠchangeĠtheĠcolorĠofĠtheĠbackgroundĠforĠyouĠtoĠfitĠyourĠspaceĠforĠFREE.ĠIfĠyouĠwantĠaĠcustomĠorderĠpleaseÂłCONTACTĠUSĠforĠdetails.ĠWeâĢĻllĠbeĠgladĠtoĠassistĠyou.Ġ[WHYĠORDERĠFROMĠUS?]ĠâĢ¢ĠAĠhigh-endĠtraditionalĠwallpaper,ĠwhereĠyouĠwillĠhaveĠtoĠbuyĠglueĠandĠitĠwillĠbeĠpermanent.ĠâĢ¢ĠWeĠguaranteeĠonlyĠtheĠhighestĠqualityÂłĠTheĠnewest,ĠhighestĠgradeĠtechnologyĠandĠspecificallyĠadaptedĠ textileĠguaranteesĠthatĠyourĠ
useĠ environment-friendlyĠandĠnon-toxicĠmaterialsÂłĠYourĠwallpapersĠwillĠbeĠcoveredĠwithĠtheĠoriginalĠEpsonĠECOĠinksĠ(withĠtheĠISOĠcertificateĠforĠuseĠindoorsĠâĢĵĠschools,Ġkindergartens,Ġhotels).ĠTheseĠinksĠ
useĠenvironment-friendlyĠandĠnon-toxicĠmaterialsÂłĠYourĠwallpapersĠwillĠbeĠcoveredĠwithĠtheĠoriginalĠEpsonĠECOĠinksĠ(withĠtheĠISOĠcertificateĠforĠuseĠindoorsĠâĢĵĠschools,Ġkindergartens,Ġhotels).ĠTheseĠinksĠ guaranteeĠtheĠamazingĠcolorĠspectrumĠforĠyourĠ
[CUSTOMĠORDER]ĠĠWeĠcanĠcustomizeĠtheĠsizeĠorĠweĠcanĠchangeĠtheĠcolorĠofĠtheĠbackgroundĠforĠyouĠtoĠfitĠyourĠspaceĠforĠFREE.ĠIfĠyouĠwantĠaĠcustomĠorderĠpleaseÂłCONTACTĠUSĠforĠdetails.ĠWeâĢĻllĠbeĠgladĠtoĠassistĠyou.Ġ[WHYĠORDERĠFROMĠUS?]ĠâĢ¢ĠAĠhigh-endĠtraditionalĠwallpaper,ĠwhereĠyouĠwillĠhaveĠtoĠbuyĠglueĠandĠitĠwillĠbeĠpermanent.ĠâĢ¢ĠWeĠguaranteeĠonlyĠtheĠhighestĠqualityÂłĠTheĠnewest,ĠhighestĠgradeĠtechnologyĠandĠspecificallyĠadaptedĠtextileĠguaranteesĠthatĠyourĠ wallpaperĠwillĠbeĠ
[CUSTOMĠORDER]ĠĠWeĠcanĠcustomizeĠtheĠsizeĠorĠweĠcanĠchangeĠtheĠcolorĠofĠtheĠbackgroundĠforĠyouĠtoĠfitĠyourĠspaceĠforĠFREE.ĠIfĠyouĠwantĠaĠcustomĠorderĠpleaseÂłCONTACTĠUSĠforĠdetails.ĠWeâĢĻllĠbeĠgladĠtoĠassistĠyou.Ġ[WHYĠORDERĠFROMĠUS?]ĠâĢ¢ĠAĠhigh-endĠtraditionalĠwallpaper,ĠwhereĠyouĠwillĠhaveĠtoĠbuyĠglueĠandĠitĠwillĠbeĠpermanent.ĠâĢ¢ĠWeĠguaranteeĠonlyĠtheĠhighestĠqualityÂłĠTheĠnewest,ĠhighestĠgradeĠtechnologyĠandĠspecificallyĠadaptedĠtextileĠguaranteesĠthatĠyourĠwallpaperĠwillĠbeĠ vivid,Ġclear,ĠandĠwillĠhaveĠanĠexcellentĠcolorĠcontrastĠevenĠinĠtheĠtiniestĠdetails.Ġ
useĠenvironment-friendlyĠandĠnon-toxicĠmaterialsÂłĠYourĠwallpapersĠwillĠbeĠcoveredĠwithĠtheĠoriginalĠEpsonĠECOĠinksĠ(withĠtheĠISOĠcertificateĠforĠuseĠindoorsĠâĢĵĠschools,Ġkindergartens,Ġhotels).ĠTheseĠinksĠguaranteeĠtheĠamazingĠcolorĠspectrumĠforĠyourĠ wallpapersĠwithoutĠharmingĠtheĠenvironmentĠorĠyourĠhealth.
âĢ¢ĠWeĠ useĠenvironment-friendlyĠandĠnon-toxicĠmaterialsÂłĠYourĠwallpapersĠwillĠbeĠcoveredĠwithĠtheĠoriginalĠEpsonĠECOĠinksĠ(withĠtheĠISOĠcertificateĠforĠuseĠindoorsĠâĢĵĠschools,Ġkindergartens,Ġhotels).ĠTheseĠinksĠguaranteeĠtheĠamazingĠcolorĠspectrumĠforĠyourĠwallpapersĠwithoutĠharmingĠtheĠenvironmentĠorĠyourĠhealth.
[CUSTOMĠORDER]ĠĠWeĠcanĠcustomizeĠtheĠsizeĠorĠweĠcanĠchangeĠtheĠcolorĠofĠtheĠbackgroundĠforĠyouĠtoĠfitĠyourĠspaceĠforĠFREE.ĠIfĠyouĠwantĠaĠcustomĠorderĠpleaseÂłCONTACTĠUSĠforĠdetails.ĠWeâĢĻllĠbeĠgladĠtoĠassistĠyou.Ġ[WHYĠORDERĠFROMĠUS?]ĠâĢ¢ĠAĠhigh-endĠtraditionalĠwallpaper,ĠwhereĠyouĠwillĠhaveĠtoĠbuyĠglueĠandĠitĠwillĠbeĠpermanent.ĠâĢ¢ĠWeĠguaranteeĠonlyĠtheĠhighestĠqualityÂłĠTheĠnewest,ĠhighestĠgradeĠtechnologyĠandĠspecificallyĠadaptedĠtextileĠguaranteesĠthatĠyourĠwallpaperĠwillĠbeĠvivid,Ġclear,ĠandĠwillĠhaveĠanĠexcellentĠcolorĠcontrastĠevenĠinĠtheĠtiniestĠdetails.Ġ âĢ¢ĠWeĠuseĠenvironment-friendlyĠandĠnon-toxicĠmaterialsÂłĠYourĠwallpapersĠwillĠbeĠcoveredĠwithĠtheĠoriginalĠEpsonĠECOĠinksĠ(withĠtheĠISOĠcertificateĠforĠuseĠindoorsĠâĢĵĠschools,Ġkindergartens,Ġhotels).ĠTheseĠinksĠguaranteeĠtheĠamazingĠcolorĠspectrumĠforĠyourĠwallpapersĠwithoutĠharmingĠtheĠenvironmentĠorĠyourĠhealth.
won 'tĠ
ĠĠĠĠĠĠĠĠ ĠĠĠĠĠĠ
Non-WovenĠ Paper
op tion
pe ac
Top s
y, Âł
c oreĠ
em berĠ
sh ieldĠ
cor dĠ
U G
tedĠ inĠ
ic tion
L ay
th inĠ
p enĠ
ĠComp atibleĠ
ad or
aug eĠ
whenĠ theĠ
Compu tersĠ
FreeĠ ShippingĠ
scr atchĠ
C os
sym bol
environmentally- friendlyĠ
c ast
Automotive/Automotive/AutomotiveĠReplacementĠParts/AutomotiveĠReplacementĠEnginesĠ&ĠEngineĠ Parts/AutomotiveĠEngineĠ
t s.Ġ
R ain
sĠforĠ theĠ
ple ,Ġ
histor yĠofĠ
edĠ AluminumĠ
d ram
M anc
ProĠBrakingĠPB R
NoĠ residueĠ
ch armĠ
b orderĠ
al .Ġ
F ix
buil d
on t
application sĠ
capac ityĠ
9 25Ġ
Laptop sĠ&Ġ
performanc eĠandĠ
t ed,Ġ
Paper back
Non-WovenĠPaper -W:Ġ
B ak
toteĠ bagsĠareĠ
2 25
longĠ handlesĠ
og g
sho eĠ
issu esĠ
8 00
âĢĶ Ġ
comfort ablyĠ
Non- P
bel owĠ
IV E
XX XL
Wood enĠ
c leĠ
your self
au di
36 0Ġ
hum an
/ Girls'
Inser tĠ
thatĠ youĠ
clu t
offerĠ aĠ
> ĠS
. ,ĠManufacturer:Ġ
fabricĠ handlesĠ
SA AS
wh oseĠ
S o
EquipmentĠ &Ġ
R ing
s car
under standĠ
ser veĠ
whichĠcanĠ goĠ
Dev elop
fru it
deg reeĠ
sĠareĠ madeĠofĠ
Allo yĠ
de ep
longĠhandlesĠ whichĠcanĠgoĠ
shoulderĠ toĠcarryĠ
comeĠwithĠ 30ĠCmĠ
comeĠwithĠ30ĠCmĠ longĠhandlesĠwhichĠcanĠgoĠ
ĠAn dĠ
el ement
ed eĠ
Em broid
LaminatedĠ Vinyl
discus s
LaminatedĠVinyl -W:Ġ
forĠ M
Read ingĠ
ĠW he
am inĠ
provid edĠ
.ĠEasyĠtoĠ appl
giv enĠ
oo tĠ
med iaĠ
'sĠ DayĠ
upĠ andĠ
200 8
Pack ag
3 ĠHosesĠFullĠStainlessĠSteelĠConstruction,ĠIncludesĠSSĠBoltsĠ&ĠCopperĠCrushĠWashersĠ
An k
cur tain
bel iev
i a,Ġ
gr ess
tow nĠ
HealthĠ&ĠBeaut yĠ-Ġ
ro b
aĠ P
cmĠxĠ210Ġ cmĠĠ
reposition ableĠ
Pre -P
est abl
HoseĠ&ĠStainlessĠ BlueĠ
o keĠ
Per f
yourĠ phoneĠ
re sĠ
ar tic
re leaseĠ
ĠDes ign
on s,Ġ
c ellĠ
mm )Ġ
removeĠ itĠfromĠtheĠ
ens uringĠ
C utĠ
c u
safeĠforĠ kidsĠ
3DĠ Vis
- freeĠ
fullĠ ofĠ
. âĢĿ
J essĠ
tr actĠ
24Ġ hour
cont ribut
Out erĠ
i ent
Ġ1 Ġ
ĠF IT
meetĠ yourĠ
Thanks givingĠ
wh at
HoseĠ&ĠStainlessĠ RedĠ
ĠA c
fes tiv
T M
arn essĠ
16 cmĠxĠ
pres sĠ&Ġ
you' reĠ
UnitedĠ Stat
fastĠ andĠtheĠ
entĠ andĠ
f ant
slip pingĠ
t allĠ
in /
H am
concer n
warrant yĠ
LaptopsĠ&Ġ ComputersĠ
astedĠ orĠ
us e.
y,Ġ theĠ
kin destĠ
rol lĠ
Ch em
ID Ġ
ink,Ġ non-toxic,Ġ
overĠtheĠ WorldĠ
NoĠresidueĠ leftĠ
] ĠĠĠĠP
MatteĠ finish.
environmentally-friendlyĠ high-qualityĠmaterial
customerĠserviceĠ :
removeĠitĠfromĠtheĠ wallĠ
O ne
MaterialsĠ Eco-friendlyĠ
eelĠandĠstick,Ġ removable,Ġ
astedĠ MaterialsĠEco-friendlyĠ
materialĠ optionĠ
forĠallĠ overĠtheĠWorldĠ
y,Âł Pre-P
astedĠorĠ Non-P
astedĠMaterialsĠEco-friendlyĠ ink,Ġnon-toxic,Ġ
textured,Ġ textileĠ
removeĠitĠfromĠtheĠwallĠ Thick,Ġ
materialĠoptionĠ VeryĠ
kindestĠ customerĠserviceĠ:
fastĠandĠtheĠ kindestĠcustomerĠserviceĠ:
FreeĠShippingĠ forĠallĠoverĠtheĠWorldĠ
astedĠMaterialsĠEco-friendlyĠink,Ġnon-toxic,Ġ safeĠforĠkidsĠ
pressĠ&Ġ FreeĠShippingĠforĠallĠoverĠtheĠWorldĠ
materialĠoptionĠVeryĠ fastĠandĠtheĠkindestĠcustomerĠserviceĠ:
afterĠyouĠ removeĠitĠfromĠtheĠwallĠThick,Ġ
]ĠĠĠĠP eelĠandĠstick,Ġremovable,Ġ
astedĠMaterialsĠEco-friendlyĠink,Ġnon-toxic,ĠsafeĠforĠkidsĠ NoĠresidueĠleftĠ
afterĠyouĠremoveĠitĠfromĠtheĠwallĠThick,Ġ textured,ĠtextileĠ
materialĠoptionĠVeryĠfastĠandĠtheĠkindestĠcustomerĠserviceĠ: )ĠEx
repositionableĠ environmentally-friendlyĠhigh-qualityĠmaterial
y,ÂłPre-P astedĠorĠNon-P
pressĠ&ĠFreeĠShippingĠforĠallĠoverĠtheĠWorldĠ 3DĠVis
ccas ionĠ
basisĠ materialĠoptionĠVeryĠfastĠandĠtheĠkindestĠcustomerĠserviceĠ:)ĠEx
repositionableĠenvironmentally-friendlyĠhigh-qualityĠmaterial .ĠEasyĠtoĠappl
repositionableĠenvironmentally-friendlyĠhigh-qualityĠmaterial.ĠEasyĠtoĠappl y,ÂłPre-PastedĠorĠNon-P
astedĠMaterialsĠEco-friendlyĠink,Ġnon-toxic,ĠsafeĠforĠkidsĠNoĠresidueĠleftĠ afterĠyouĠremoveĠitĠfromĠtheĠwallĠThick,Ġtextured,ĠtextileĠ
pressĠ&ĠFreeĠShippingĠforĠallĠoverĠtheĠWorldĠ3DĠVis ually,Ġ
[CUSTOMĠORDER]ĠĠWeĠcanĠcustomizeĠtheĠsizeĠorĠweĠcanĠchangeĠtheĠcolorĠofĠtheĠbackgroundĠforĠyouĠtoĠfitĠyourĠspaceĠforĠFREE.ĠIfĠyouĠwantĠaĠcustomĠorderĠpleaseÂłCONTACTĠUSĠforĠdetails.ĠWeâĢĻllĠbeĠgladĠtoĠassistĠyou.Ġ[WHYĠORDERĠFROMĠUS? ]ĠĠĠĠPeelĠandĠstick,Ġremovable,Ġ
repositionableĠenvironmentally-friendlyĠhigh-qualityĠmaterial.ĠEasyĠtoĠapply,ÂłPre-PastedĠorĠNon-P astedĠMaterialsĠEco-friendlyĠink,Ġnon-toxic,ĠsafeĠforĠkidsĠNoĠresidueĠleftĠafterĠyouĠremoveĠitĠfromĠtheĠwallĠThick,Ġtextured,ĠtextileĠ
repositionableĠenvironmentally-friendlyĠhigh-qualityĠmaterial.ĠEasyĠtoĠapply,ÂłPre-PastedĠorĠNon-PastedĠMaterialsĠEco-friendlyĠink,Ġnon-toxic,ĠsafeĠforĠkidsĠNoĠresidueĠleftĠafterĠyouĠremoveĠitĠfromĠtheĠwallĠThick,Ġtextured,ĠtextileĠ basisĠmaterialĠoptionĠVeryĠfastĠandĠtheĠkindestĠcustomerĠserviceĠ:)ĠEx
[CUSTOMĠORDER]ĠĠWeĠcanĠcustomizeĠtheĠsizeĠorĠweĠcanĠchangeĠtheĠcolorĠofĠtheĠbackgroundĠforĠyouĠtoĠfitĠyourĠspaceĠforĠFREE.ĠIfĠyouĠwantĠaĠcustomĠorderĠpleaseÂłCONTACTĠUSĠforĠdetails.ĠWeâĢĻllĠbeĠgladĠtoĠassistĠyou.Ġ[WHYĠORDERĠFROMĠUS?]ĠĠĠĠPeelĠandĠstick,Ġremovable,Ġ repositionableĠenvironmentally-friendlyĠhigh-qualityĠmaterial.ĠEasyĠtoĠapply,ÂłPre-PastedĠorĠNon-PastedĠMaterialsĠEco-friendlyĠink,Ġnon-toxic,ĠsafeĠforĠkidsĠNoĠresidueĠleftĠafterĠyouĠremoveĠitĠfromĠtheĠwallĠThick,Ġtextured,ĠtextileĠbasisĠmaterialĠoptionĠVeryĠfastĠandĠtheĠkindestĠcustomerĠserviceĠ:)ĠEx
pressĠ&ĠFreeĠShippingĠforĠallĠoverĠtheĠWorldĠ3DĠVisually,Ġ MatteĠfinish.
[CUSTOMĠORDER]ĠĠWeĠcanĠcustomizeĠtheĠsizeĠorĠweĠcanĠchangeĠtheĠcolorĠofĠtheĠbackgroundĠforĠyouĠtoĠfitĠyourĠspaceĠforĠFREE.ĠIfĠyouĠwantĠaĠcustomĠorderĠpleaseÂłCONTACTĠUSĠforĠdetails.ĠWeâĢĻllĠbeĠgladĠtoĠassistĠyou.Ġ[WHYĠORDERĠFROMĠUS?]ĠĠĠĠPeelĠandĠstick,Ġremovable,ĠrepositionableĠenvironmentally-friendlyĠhigh-qualityĠmaterial.ĠEasyĠtoĠapply,ÂłPre-PastedĠorĠNon-PastedĠMaterialsĠEco-friendlyĠink,Ġnon-toxic,ĠsafeĠforĠkidsĠNoĠresidueĠleftĠafterĠyouĠremoveĠitĠfromĠtheĠwallĠThick,Ġtextured,ĠtextileĠbasisĠmaterialĠoptionĠVeryĠfastĠandĠtheĠkindestĠcustomerĠserviceĠ:)ĠEx pressĠ&ĠFreeĠShippingĠforĠallĠoverĠtheĠWorldĠ3DĠVisually,ĠMatteĠfinish.
s ound
RE N
wor dĠ
foc us
Sh ockĠ
S par
ircon iaĠ
f ascin
F lipĠ
acr ylicĠ
12 -
Cle arĠ
c essĠ
f icĠ
di v
ĠRear ĠBraidedĠBrakeĠLineĠ(
ÂłĠÂłĠ ÂłĠÂłĠ
p ullĠ
(L ĠxĠWĠxĠH
los sĠ
M ix
ĠT oĠ
J un
te en
ric ĠCoarseĠ
r ing,Ġ
corro sionĠ
reg ul
StreetĠ SignĠ
m ugĠ
to eĠ
Sh ock
re view
f eed
ĠPremiumĠ Non-WovenĠPaper-W:Ġ
IN Ġ
Health,ĠHouseholdĠ&ĠPersonalĠCare/HealthĠ&ĠHouseholdĠ CareĠProducts/
:ĠToĠFitĠ(ins )).Ġ
&Ġ P
S we
less lyĠ
at ur
Childr enĠ
fut ureĠ
ĠStainlessĠ SteelĠ
sup portsĠ
co ilĠ
phoneĠ caseĠ
im umĠ
iDRIVEĠ throttleĠcontroll
R ightĠ
M al
KingĠS ingle
tingĠ andĠ
e- c
L eav
Collec tionĠ
StreetĠSignĠ Manc
tim elessĠ
O ldĠ
Feat ure
anĠ andĠ
Con struc
En ter
i er
NonĠSlipĠRugĠ Mat,Ġ
)Ġ atĠTHEĠICONICĠwithĠFreeĠovernightĠdeliveryĠandĠFreeĠreturn
beĠ aĠ
/ S
T ieĠ
cleanĠ andĠ
Ad ul
Decoration s/
ãĢĳ TheĠ
D rag
O v
comesĠ withĠaĠ
r ul
ER Y
compart ment
ĠSelf-adhesiveĠ LaminatedĠVinyl-W:Ġ
i str
f ewĠ
ĠPlu sĠ
ĉĉ ĠĉĉĠĉĉĉ
sof t,Ġ
bas k
ĠL ED
convenientĠ toĠ
str ugg
prev entsĠ
Z Ġ
ach iev
vibr antĠ
H appyĠ
t enĠ
cr ack
con fl
ro pĠ
Mem oryĠ
aĠ B
slip ,Ġ
5 7
cul ture
F ragranc
MusicalĠ Instrument
âĢ¢ Ġ
v oc
edĠ toĠtheĠ
ag u
y mĠ
.Ġ OptionalĠ
ym eĠ
<br >Ġ
P uzz
sh oulder
ĠS tr
as pec
dis coverĠ
ex tra
k topĠ
sty le:Ġ
Con dition
Wh ileĠ
ĠCol our
19 7
Us ingĠ
famil yĠandĠ
ra therĠ
read erĠ
D igitalĠ
larg erĠ
won âĢĻtĠ
CL UD
Black /
m outhĠ
M id
at s
bu y
fullĠ lengthĠ
J es
light weight,Ġ
mm ingĠ
Shoes/ Men'sĠ
O w
res ourc
Valentine 'sĠDay,Ġ
Wid th:Ġ
bre akĠ
ï ¸
anc ientĠ
S C
s/ LadiesĠ
Transmission |
Sh iftĠKnob
th readĠ
h eav
4 /
ob byĠ
208 cmĠxĠ
friend sĠandĠ
C od
L ampĠ
., ãĢĲ
abil ity.Ġ
Organis ation
c el
E LE
remo teĠ
ter m
onl ineĠ
specification sĠ
Ir onĠ
Details:Ġ -
b ac
il ingĠ
relation ship
Black ,Ġ
tor yĠ
attrac tiveĠ
sho esĠ
or tedĠ
ph as
ris kĠ
full -
JessĠ ArtĠ
sp ringĠ
.Ġ SheĠ
5 G
the y
L im
is sĠ
HoseĠ&ĠStainlessĠ GreenĠ
N eckĠ
oun c
St ra
m aĠ
r at
material s,Ġ
LaptopsĠ&ĠComputersĠ -Ġ
automoti veĠ
Ger manĠ
produc eĠ
ic ĠP
Ster lingĠSilverĠ
Fin ishĠ
resist ant,Ġ
sĠ&Ġ ExhaustĠ
w ovenĠ
Exhaust sĠ&ĠExhaustĠ
ExhaustsĠ&ĠExhaustĠ Systems|
:Ġ C
del iversĠ
bookĠ isĠ
u dioĠ
ĠAn imeĠ
Description :ĠĠ
an oĠ
ï¸ ı
AS H
FurnitureĠ >ĠB
Wor ld
19 Ġ
8 3
.Ġ HighĠ
M P
VehicleĠPartsĠ&ĠAccessories|MotorcycleĠParts| ExhaustsĠ&ĠExhaustĠSystems|
ask et
ĠS ingleĠ
ro seĠ
re fl
EAT URE
It ali
! ,
HeightĠ -ĠTopĠtoĠB
Ġĉĉ ĠĉĉĠĉĉĉ
N OT
ĠC er
fac il
notĠ beĠ
.ĠĠ âĢĵ
s ex
R ic
incre di
E U
d riveĠ
We ight
le ak
chang ingĠ
6 2
st ateĠ
nick elĠ
light ,Ġ
g enuineĠ
DuvetĠ CoverĠ
nar ra
em broid
able ,ĠandĠ
HoseĠ&ĠStainlessĠ GoldĠ
ac tion
ThereĠ areĠ
P ool
Im ag
âĢ¢ ĉ
DoĠ notĠ
s ew
feat uringĠ
thatĠ areĠ
toĠ anyĠ
PackageĠCont ents:Ġ
W rap
Eleg antĠ
G olf
art ,Ġ
tra iningĠ
K ar
le tsĠ
su gg
Size :ĠĠ
HoseĠ&ĠStainlessĠ BlackĠ
approxim atelyĠ
dist inc
i ,Ġ
Ch ain
g edĠ
v ic
in osaur
youĠwillĠ receiveĠ
AB S
k aĠ
um entĠ
ToysĠ&ĠGames/ToysĠ&ĠGames/ Kids'ĠPartyĠ
s em
fam ousĠ
ass emblyĠ
5 00Ġ
"Ġ EĠBrakeĠ
Ġ1 8
ank sĠtoĠ
ad dress
ch es
cyc leĠ
avour iteĠ
rec ordĠ
allow ingĠ
YouĠ mayĠ
L ac
howĠ theĠ
En erg
Birth day,Ġ
ic al
Annivers aryĠ
sw eat
:Ġ B
1. 6
grou pĠ
andĠm or
ĠS un
3D ĠF
light ingĠ
p ,Ġ
t apeĠ
wearĠ andĠ
anc esĠ
usedĠ asĠ
CheckĠOutĠOurĠCollectionsĠOfĠAllĠOtherĠ3DĠQualityĠRugĠcarpetĠandĠmattĠInĠStock .ĠĠ
Description:Ġ CheckĠOutĠOurĠCollectionsĠOfĠAllĠOtherĠ3DĠQualityĠRugĠcarpetĠandĠmattĠInĠStock.ĠĠ
Material:ĠQualityĠNonĠSlipĠProductĠMadeĠofĠSoftĠWovenĠPolyesterĠ FabricĠ
Description:ĠCheckĠOutĠOurĠCollectionsĠOfĠAllĠOtherĠ3DĠQualityĠRugĠcarpetĠandĠmattĠInĠStock.ĠĠ Material:ĠQualityĠNonĠSlipĠProductĠMadeĠofĠSoftĠWovenĠPolyesterĠFabricĠ
Description:ĠCheckĠOutĠOurĠCollectionsĠOfĠAllĠOtherĠ3DĠQualityĠRugĠcarpetĠandĠmattĠInĠStock.ĠĠMaterial:ĠQualityĠNonĠSlipĠProductĠMadeĠofĠSoftĠWovenĠPolyesterĠFabricĠ AJĠCREATIVITYĠTOPĠHOMEĠCREATIVEĠBRAND.
toĠ getĠ
Hang ingĠ
dens ityĠ
OL D
Â® Ġ
ish ,Ġ
L ux
R unningĠ
eĠandĠ theĠ
produc t,Ġ
cas tĠ
ri tĠ
gu ardĠ
ad ,Ġ
it ationĠ
le as
longĠ time.Ġ
re ver
ro ofĠ
wi st
expl oreĠ
cmĠxĠ2 19
XXLĠ 312
XXLĠ312 cmĠxĠ219
IN CLUD
sh ownĠ
sec tion
loc ksĠ
87 '')
bath roomĠ
p ouchĠ
ti eĠ
cmĠxĠ2 90
obileĠ PhoneĠ
Foo t
123 ''x
123''x 87'')
.-Ġ Material:Ġ
30 -
bel ong
el -
Ess entialĠ
520 cmĠxĠ290
AL Ġ
cm):Ġ76cmĠxĠ100 cm-SizeĠ(FrameĠ/ĠSize:Ġ
N ationalĠ
Th om
p umpĠ
sec ure
es h
app e
Scrap book
bel ow
N oneĠ
20 20
es ;Ġ
B atter
c lassĠ
ingĠ&Ġ BodyĠ
sc al
im medi
''x 114
del iverĠ
In struc
205 ''x114
205''x114 '')
2- 3Ġ
trans ferĠ
p ushĠ
hy poallergen
phys icalĠ
tim e.
4.375"Ġ(11 cm)Ġ
Rel easeĠ
8 4
wedd ing,Ġ
G IV
cool ingĠ
> ĠH
S outhĠ
ad op
cele bra
WaterproofĠ andĠ
( H
theirĠ ownĠ
dr y
cont rib
th inkingĠ
par ent
: ĠĠĠĠ
Ar ch
pers onĠ
S oĠ
sp eed
ts .
sear chĠ
Styl ingĠ&ĠBodyĠ
Automotive/Automotive/AutomotiveĠReplacementĠParts/AutomotiveĠ StylingĠ&ĠBodyĠ
C rossĠ
ĠWIT H
St art
10 /
vehic lesĠ
XXXL Ġ4
T i
16cmĠxĠ 254
XXXLĠ4 16cmĠxĠ254
m el
ind epend
le y
in aryĠ
V IC
equip mentĠ
20"Ġ(50 cm)ĠFeat
Charg ingĠ
sp e
m ic
Appl icationĠ
Plu g
ĠS C
X Ġ1
re present
100 '')
0 1
164 ''x
164''x 100'')
re lev
tim eĠtoĠ
igh terĠ
arg u
(LĠxĠWĠxĠH ):Ġ
Th readĠ
l oopĠ
Tw inĠ
se alĠ
cmĠÂ±Ġ4cmĠ 2xĠPillowcasesĠ50cmĠxĠ70
orĠ toĠ
hol der
respon seĠ
b urn
t ubeĠ
P ul
makeĠ theĠ
T ip
M echan
24 0Ġ
B ir
cr u
Q tyĠ
Th reeĠ
ac rossĠ
ug s
ofĠ hisĠ
youĠ needĠtoĠ
Te ach
B et
p on
yourĠf avoriteĠ
she etĠ
od or
a us
erĠ -Ġ
canĠbeĠus edĠforĠ
XX XXLĠ
Cont emporaryĠ
D iv
XXXXLĠ 520cmĠxĠ290
Res ear
dri verĠ
s etsĠ
tedĠ fromĠ
pro m
shar pĠ
b athĠ
inch .-Ġ
li dĠ
XLĠ 208cmĠxĠ
XLĠ208cmĠxĠ 146
I E
Mem or
ingĠS ystem
itĠ canĠ
. Âł
5 1
In spi
Mic ha
l ac
a .Ġ
dem and
ĠC L
17 Ġ
weĠ areĠ
atmosp her
tigh tĠ
''x 58
''x58 '')
Gra ph
82 ''x58'')
L ,Ġ
( 2
a un
P arti
p end
sty le,Ġ
eg rad
sh ineĠ
auth orsĠ
H on
N R
sur viv
Fam ilyĠ
Sil enc
Pad sĠ
ar tis
ar aĠ
n ic
7 50
character isticĠ
HoseĠ&ĠStainlessĠ PurpleĠ
D -
Gask etĠ
.ĠĠ TheĠ
b lockĠ
consid er
comm it
it ec
sh owerĠ
wrap p
se em
appl i
F E
e- to-
u leĠ
ĠF ront/Rear
addi tionĠ
h und
WithĠ aĠ
12 /
yourĠ hand
ÃĹ 1.
acc ep
prin tingĠ
s ong
Ex pl
u sĠtoĠ
mo dif
9 2
5 3
gif ts,Ġ
Sc ot
&Ġ OutdoorĠ
in tr
wr istĠ
longerĠ thanĠ
Se atĠ
s tim
F em
p ath
pre vi
outs ideĠ
B od
strong >
YouĠ willĠ
Electr icĠ
out putĠ
reg ularĠ
QuiltĠ Covers
or sĠ&Ġ
kn itĠ
" ,Ġ
)ĠF ullĠ
profession allyĠ
ĠPer fectĠ
Beaut yĠ
- upĠ
onĠ isĠ
f ragranceĠ
Ret ro
F old
OtherĠ Books
el f
ev id
sc ap
crafts man
Univers ityĠ
w indĠ
prin t,Ġ
cas e,Ġ
moneyĠ backĠ
Ther mo
5Ġ xĠ
di amondĠ
card boardĠ
V ers
childr en
co atingĠ
bey ondĠ
ersĠ inĠ
out door
Re plac
F lu
Mov ies
sign alĠ
Not e
w is
demon str
ageĠ andĠ
seriesĠ ofĠ
X ia
XLĠ âĢĵĠ
coun tr
gent leĠ
le gĠ
AreĠ youĠ
o si
Anti- SlipĠ
us i
c allĠ
orĠ theĠ
us edĠinĠ
canvasĠ material
el ect
dam ag
% ĠC
Press ureĠ
k e,Ġ
et ti
ric h
in .Ġ
od egrad
oph istic
p addedĠ
dist ribut
orderĠ toĠ
Nec k
200 5
er veĠ
Sh apeĠ
med icalĠ
Oil ĠP
illu min
g em
AC H
s ou
M eĠ
fir st
Feat ureĠ
ĠAN DĠ
in iti
perf ec
o ic
NoveltyĠ &Ġ
Prof essorĠ
t ankĠ
m atchingĠ
ĠĠĠĠ Size:ĠĠ
stat ementĠ
r unĠ
h at
Hand bag
ĠA U
w /
E G
KitĠIncludesĠ 3ĠHosesĠFullĠStainlessĠSteelĠConstruction,ĠIncludesĠSSĠBoltsĠ&ĠCopperĠCrushĠWashersĠ
Techn olog
typ eĠ
8 mmĠ
partic leĠ
Ke ep
Rec omm
Val veĠ
Cons istĠofĠ
res hĠ
.ĠS im
ers .
car ri
every oneĠ
newĠ andĠ
200 0Ġ
20 21
Un derĠ
thatĠ canĠ
hardwareĠ included.Ġ
beg inn
orĠ asĠaĠ
jour neyĠ
edĠAluminumĠ StreetĠSignĠManc
Mag netic
A tĠ
colours.ĠThisĠisĠsubjectĠtoĠavailabilityĠandĠcanĠbeĠsearchedĠonĠKoganĠusingĠtheĠproductĠID:ĠUT RW
sur pris
Hold enĠ
et r
t leĠ
for wardĠ
StorageĠ&Ġ Organisation
OtherĠ HomeĠDÃ©cor
W edd
le ev
G lit
Dr illĠ
ĠStand ardĠ
b uckleĠ
L ĠS
sh areĠ
rin kĠ
toĠeachĠ individualĠ
8 1
Not eĠ
ierc ingĠ
fabric s,Ġ
Material :
Pro Ġ
twoĠ fullĠlengthĠ
-Ġ ConsistĠofĠ
M AN
eff ect
u sĠandĠ
satis factionĠ
provideĠ aĠ
moder n
tox icĠandĠ
AvailableĠonlyĠforĠnon-ĠABSĠdualĠcaliperĠmodels.Ġ KitĠIncludesĠ3ĠHosesĠFullĠStainlessĠSteelĠConstruction,ĠIncludesĠSSĠBoltsĠ&ĠCopperĠCrushĠWashersĠ
routingĠfromĠtheĠmasterĠcylinderĠleverĠ toĠeachĠindividualĠ
BrakeĠLineĠLayoutĠ -ĠConsistĠofĠ
linesĠ routingĠfromĠtheĠmasterĠcylinderĠleverĠtoĠeachĠindividualĠ
RaceĠ BrakeĠLineĠLayoutĠ-ĠConsistĠofĠ
d eadĠ
LengthĠ RaceĠBrakeĠLineĠLayoutĠ-ĠConsistĠofĠ
LengthĠRaceĠBrakeĠLineĠLayoutĠ-ĠConsistĠofĠ twoĠfullĠlengthĠ
linesĠroutingĠfromĠtheĠmasterĠcylinderĠleverĠtoĠeachĠindividualĠ caliper.Ġ
LengthĠRaceĠBrakeĠLineĠLayoutĠ-ĠConsistĠofĠtwoĠfullĠlengthĠ linesĠroutingĠfromĠtheĠmasterĠcylinderĠleverĠtoĠeachĠindividualĠcaliper.Ġ
LengthĠRaceĠBrakeĠLineĠLayoutĠ-ĠConsistĠofĠtwoĠfullĠlengthĠlinesĠroutingĠfromĠtheĠmasterĠcylinderĠleverĠtoĠeachĠindividualĠcaliper.Ġ RequiredĠ
LengthĠRaceĠBrakeĠLineĠLayoutĠ-ĠConsistĠofĠtwoĠfullĠlengthĠlinesĠroutingĠfromĠtheĠmasterĠcylinderĠleverĠtoĠeachĠindividualĠcaliper.ĠRequiredĠ hardwareĠincluded.Ġ
ot sĠ
LengthĠRaceĠBrakeĠLineĠLayoutĠ-ĠConsistĠofĠtwoĠfullĠlengthĠlinesĠroutingĠfromĠtheĠmasterĠcylinderĠleverĠtoĠeachĠindividualĠcaliper.ĠRequiredĠhardwareĠincluded.Ġ AvailableĠonlyĠforĠnon-ĠABSĠdualĠcaliperĠmodels.ĠKitĠIncludesĠ3ĠHosesĠFullĠStainlessĠSteelĠConstruction,ĠIncludesĠSSĠBoltsĠ&ĠCopperĠCrushĠWashersĠ
cre ativ
Hol id
fitĠ forĠ
p ayĠ
fram e.Ġ
intoĠ yourĠ
Th roughĠ
ĠCh arg
Coat ing
200 7
iperĠ Bl
ĠD oubleĠ
ShortĠ SleeveĠ
ed .ĠThisĠ
Ã Ĥ
Sho eĠ
MoviesĠ&ĠTV/MoviesĠ&ĠTV/ Movies
Im p
acc id
Cus tomĠ
ĠColor :Ġ
con ver
)ĠFullĠ LengthĠRaceĠBrakeĠLineĠLayoutĠ-ĠConsistĠofĠtwoĠfullĠlengthĠlinesĠroutingĠfromĠtheĠmasterĠcylinderĠleverĠtoĠeachĠindividualĠcaliper.ĠRequiredĠhardwareĠincluded.ĠAvailableĠonlyĠforĠnon-ĠABSĠdualĠcaliperĠmodels.ĠKitĠIncludesĠ3ĠHosesĠFullĠStainlessĠSteelĠConstruction,ĠIncludesĠSSĠBoltsĠ&ĠCopperĠCrushĠWashersĠ
fram ew
au lĠ
ch ip
rang ingĠfromĠ
go esĠ
ĠS ER
leg alĠ
ed .ĠTheĠ
qu o
Ch armĠ
daugh ter,Ġ
D ip
i ef
PhoneĠ Cases,ĠCoversĠ&ĠSkins
Parts/ AutomotiveĠReplacementĠ
th or
Boo ts
through outĠtheĠ
( W
PC S
foll owĠ
JessĠArtĠ DecorationĠ
B ad
GS MĠ
s yntheticĠ
di umĠ
vin ylĠ
TheĠ L
,Ġ G
lab elĠ
( 1
T ag
c ak
necess aryĠ
ent :Ġ
e um
b en
inĠ ourĠ
ToysĠ&ĠGames/ToysĠ&ĠGames/Kids'ĠPartyĠ Supplies/
ĠM adeĠ
b est
er oĠ
it tingĠ
m ur
l ensĠ
It al
d ateĠ
Treat ment
g sm
port ableĠ
siz e,Ġ
Vic tor
quil tĠ
mis s
cr yst
ool Ġ
ToysĠ&ĠGames/ToysĠ&ĠGames/Kids'ĠPartyĠSupplies/ Kids'ĠPartyĠ
Ad ultĠ
Com esĠ
ES T
b an
Gr and
UnitedĠ St
grow ingĠ
ĠA b
con s
ation s.Ġ
w ast
t ac
L eather
th es
tr ulyĠ
Pl an
er ryĠ
up ,Ġ
Cush ion
offĠ theĠ
ĠC ableĠ
pan elsĠ
Finish :Ġ
appl yĠ
ĠS tra
on e-
.Ġ Material:Ġ
part sĠ
w eld
Equipment |
MuralsĠ WallĠPrintĠDecalĠ
long- lastingĠ
C irc
comp anyĠ
id e,Ġ
mis sionĠ
ĠS n
r ustĠ
Di rec
.. .
Saf eĠ
R Y
B akingĠ
giftĠ box
E con
cost um
integr atedĠ
shopp ing,Ġ
P RE
d aĠ
isĠ suitableĠforĠ
j us
form at
po int
200 9
Publish er:Ġ
describ esĠtheĠ
G all
0 -
Fragranc es
sim il
ti bleĠ
Cush ionĠ
ActionĠ Fig
intell ig
toĠ ourĠ
vis ualĠ
CareĠInstruction :ĠĠ
urs eryĠ
worldĠ ofĠ
H aveĠ
ĠS ol
L owĠ
Ger man
x i
A 3Ġ
scienc eĠ
re ,Ġ
ach ieveĠ
& r
ior |
wom en,Ġ
piec eĠofĠ
must- haveĠ
sĠandĠ otherĠ
t- shir
ĠL ight
12 x
asĠ itĠ
of -
enti l
sw itch
soci et
por tra
access ibleĠ
Ch r
theor e
comp ut
It em
Make upĠ
Gask et
reg ard
n eĠ
b er:Ġ
cmĠÂ±Ġ4cmĠĠ2xĠPillowcasesĠ50cmĠxĠ70 cmĠÂ±Ġ4cm
ĠĠĠĠSize:ĠĠ KingĠSingle
CareĠInstruction:ĠĠ LineĠdryĠ
cmĠxĠ210cmĠÂ±Ġ4cmĠĠ2xĠPillowcasesĠ50cmĠxĠ70cmĠÂ±Ġ4cmĠĠ Queen
220cmĠxĠ240 cmĠÂ±Ġ4cmĠĠ2xĠPillowcasesĠ50cmĠxĠ70cmĠÂ±Ġ4cm
King :ĠĠ1xĠQuiltĠCoverĠ
160 cmĠxĠ210cmĠÂ±Ġ4cmĠĠ2xĠPillowcasesĠ50cmĠxĠ70cmĠÂ±Ġ4cmĠĠQueen
210 cmĠxĠ210cmĠÂ±Ġ4cmĠĠ2xĠPillowcasesĠ50cmĠxĠ70cmĠÂ±Ġ4cmĠĠ
0 2
160cmĠxĠ210cmĠÂ±Ġ4cmĠĠ2xĠPillowcasesĠ50cmĠxĠ70cmĠÂ±Ġ4cmĠĠQueen :ĠĠ1xĠQuiltĠCoverĠ
210cmĠxĠ210cmĠÂ±Ġ4cmĠĠ2xĠPillowcasesĠ50cmĠxĠ70cmĠÂ±Ġ4cmĠĠ King:ĠĠ1xĠQuiltĠCoverĠ
160cmĠxĠ210cmĠÂ±Ġ4cmĠĠ2xĠPillowcasesĠ50cmĠxĠ70cmĠÂ±Ġ4cmĠĠQueen:ĠĠ1xĠQuiltĠCoverĠ 210cmĠxĠ210cmĠÂ±Ġ4cmĠĠ2xĠPillowcasesĠ50cmĠxĠ70cmĠÂ±Ġ4cmĠĠKing:ĠĠ1xĠQuiltĠCoverĠ
160cmĠxĠ210cmĠÂ±Ġ4cmĠĠ2xĠPillowcasesĠ50cmĠxĠ70cmĠÂ±Ġ4cmĠĠQueen:ĠĠ1xĠQuiltĠCoverĠ210cmĠxĠ210cmĠÂ±Ġ4cmĠĠ2xĠPillowcasesĠ50cmĠxĠ70cmĠÂ±Ġ4cmĠĠKing:ĠĠ1xĠQuiltĠCoverĠ 220cmĠxĠ240cmĠÂ±Ġ4cmĠĠ2xĠPillowcasesĠ50cmĠxĠ70cmĠÂ±Ġ4cm
:ĠĠ1xĠQuiltĠCoverĠ 160cmĠxĠ210cmĠÂ±Ġ4cmĠĠ2xĠPillowcasesĠ50cmĠxĠ70cmĠÂ±Ġ4cmĠĠQueen:ĠĠ1xĠQuiltĠCoverĠ210cmĠxĠ210cmĠÂ±Ġ4cmĠĠ2xĠPillowcasesĠ50cmĠxĠ70cmĠÂ±Ġ4cmĠĠKing:ĠĠ1xĠQuiltĠCoverĠ220cmĠxĠ240cmĠÂ±Ġ4cmĠĠ2xĠPillowcasesĠ50cmĠxĠ70cmĠÂ±Ġ4cm
ĠĠĠĠSize:ĠĠKingĠSingle :ĠĠ1xĠQuiltĠCoverĠ160cmĠxĠ210cmĠÂ±Ġ4cmĠĠ2xĠPillowcasesĠ50cmĠxĠ70cmĠÂ±Ġ4cmĠĠQueen:ĠĠ1xĠQuiltĠCoverĠ210cmĠxĠ210cmĠÂ±Ġ4cmĠĠ2xĠPillowcasesĠ50cmĠxĠ70cmĠÂ±Ġ4cmĠĠKing:ĠĠ1xĠQuiltĠCoverĠ220cmĠxĠ240cmĠÂ±Ġ4cmĠĠ2xĠPillowcasesĠ50cmĠxĠ70cmĠÂ±Ġ4cm
ĠPolyester ĠĠĠĠSize:ĠĠKingĠSingle:ĠĠ1xĠQuiltĠCoverĠ160cmĠxĠ210cmĠÂ±Ġ4cmĠĠ2xĠPillowcasesĠ50cmĠxĠ70cmĠÂ±Ġ4cmĠĠQueen:ĠĠ1xĠQuiltĠCoverĠ210cmĠxĠ210cmĠÂ±Ġ4cmĠĠ2xĠPillowcasesĠ50cmĠxĠ70cmĠÂ±Ġ4cmĠĠKing:ĠĠ1xĠQuiltĠCoverĠ220cmĠxĠ240cmĠÂ±Ġ4cmĠĠ2xĠPillowcasesĠ50cmĠxĠ70cmĠÂ±Ġ4cm
CareĠInstruction:ĠĠLineĠdryĠ ĠPolyesterĠĠĠĠSize:ĠĠKingĠSingle:ĠĠ1xĠQuiltĠCoverĠ160cmĠxĠ210cmĠÂ±Ġ4cmĠĠ2xĠPillowcasesĠ50cmĠxĠ70cmĠÂ±Ġ4cmĠĠQueen:ĠĠ1xĠQuiltĠCoverĠ210cmĠxĠ210cmĠÂ±Ġ4cmĠĠ2xĠPillowcasesĠ50cmĠxĠ70cmĠÂ±Ġ4cmĠĠKing:ĠĠ1xĠQuiltĠCoverĠ220cmĠxĠ240cmĠÂ±Ġ4cmĠĠ2xĠPillowcasesĠ50cmĠxĠ70cmĠÂ±Ġ4cm
isĠ madeĠfromĠ
possi ble
ch ron
ĠR edĠ
C ul
st ableĠ
appro pri
comeĠ withĠaĠ
sup port
for ceĠ
<br />
Com mercialĠ
iti z
- M
ersĠ forĠ
mar ri
XXLĠ312cmĠxĠ219 cmĠ(WxH)(
XXLĠ312cmĠxĠ219cmĠ(WxH)( 123''x87'')
st uff
comp eti
backĠ toĠ
pic ture
? ?
,Ġ withĠ
ill erĠ
Car ol
p ul
f adeĠ
bl adeĠ
isĠ perfectĠforĠ
styl esĠ
cmĠ(WxH)( 205''x114'')
XXXXLĠ520cmĠxĠ290 cmĠ(WxH)(205''x114'')
oilĠ pan
F ICTIONĠBOOKS
ĠS te
high erĠ
moun tingĠ
on e.Ġ
Ġ âĢĵĠ
1 :
p ick
cl ar
To eĠ
us ingĠaĠ
sĠ> ĠT
cmĠ(WxH)( 164''x100'')
XXXLĠ416cmĠxĠ254 cmĠ(WxH)(164''x100'')
Cro ss
partic ularĠ
TV Ġ
andĠ A
Suit ableĠ
T al
comp onent
Mother 'sĠDay,Ġ
Col dĠ
oun dingĠ
nut ri
ristm asĠ
re vol
Fl or
make upĠ
b ure
theĠ sameĠ
Sc oo
ĠC anĠ
fer entĠ
it .Ġ
An d
coun tri
ag ueĠ
i ĠM
-P rimaryĠ
L ĠĠĠĠ
PushĠ ButtonĠ
k oĠ
larg estĠ
t ualĠ
H ookĠ
es the
perspec tiveĠ
" )
Br ightĠ
g lov
struc tureĠ
problem sĠ
ClothingĠ&Ġ Accessories
L ensĠ
Ass emblyĠ
it arĠ
lo stĠ
sel f-ad
Pl ainĠ
so onĠ
4 ,Ġ
V an
sĠ&Ġ S
C uff
Xia om
4 20
Sn ow
ed:Ġ No-
ReflectiveĠ Coating
pr iseĠ
f inger
se e
Muff ler
a it
4 8Ġ
i eld
Cost umeĠ
T AIN
w interĠ
aĠ life
Collec tabl
sol utionĠ
whichĠ areĠ
SizeĠ(FrameĠ/ĠSize:Ġ BlackĠFramedĠ
< em>
in fl
nonĠ slipĠ
Produc tsĠ
< P
EN TS
dueĠtoĠ manualĠmeasurement
con st
makeĠ aĠ
on e,Ġ
CameraĠ&ĠPhoto/Electronics/MobileĠPhonesĠ&ĠCommunication/MobileĠPhoneĠAccessories/MobileĠPhoneĠ CasesĠ&Ġ
ĠS tick
vis ibleĠ
a qu
workĠ isĠ
Garden/ Garden/
ass em
veget abl
re arĠ
afford ableĠ
weight:Ġ 0.0
absor b
ĠPiec eĠ
h ur
Dis playĠ
t ear
XLĠ208cmĠxĠ146 cmĠ(WxH)(
XLĠ208cmĠxĠ146cmĠ(WxH)( 82''x58'')
F ro
f itt
inĠ 19
ĠWallĠMuralsĠ WovenĠpaperĠ(needĠglue),Ġ
Home/Home/ ArtsĠ&Ġ
univers alĠ
' llĠ
ins tit
ation sĠandĠ
__ __
BlackĠ StreetĠSignsĠ
Automotive/Automotive/AutomotiveĠReplacementĠParts/AutomotiveĠ SteeringĠ&Ġ
Automotive/Automotive/AutomotiveĠReplacementĠParts/AutomotiveĠSteeringĠ&Ġ Suspension
A ĠB
AB LEĠ
Cas e
L amp
Th em
tiv e,Ġ
requ ireĠ
m etĠ
organ icĠ
Ex quisiteĠandĠ
langu ag
sle epĠ
environment allyĠ
ĠM A
suit ableĠ
beach ,Ġ
Sm all
<br> <br>
W ell
g ro
Appro x.Ġ
ass ess
IN ST
um bl
L ockĠ
tion .
am entĠ
jour ne
it .
E ditionĠ
Ext ensionĠ
a ut
cul tureĠ
thick ,Ġ
ĠWallpaperĠWallĠMuralsĠRemovableĠSelf-adhesiveĠ Amy
oo Ġ
easil yĠandĠ
bed roomĠ
AG E
Ins ulatedĠ
per ialĠ
gor geousĠ
R otor
ass oci
:Ġ theĠ
M )
ec o-
glass esĠ
- B
wor ri
basedĠ onĠ
enz ymeĠ
decor ations,Ġ
w etĠ
re achĠ
ra z
st arĠ
/ AutomotiveĠ
ach ableĠ
og aĠ
3. 6
W C
75 0Ġ
Comfor tĠ
le .Ġ
Sm art
aff les
ĠS oftĠ
feat ur
EN D
orĠ exc
add sĠ
ev en
3 6Ġ
s' Ġ
fabr ic,Ġ
Nav y
edĠ asĠ
L )
bl adesĠ
ne g
med iumĠ
Silenc ers,Ġ
n ameĠ
fromĠ slippingĠ
V acuumĠ
dep thĠ
t arn
sĠ&ĠB affles
Muffler sĠ&ĠBaffles
Silencers,Ġ MufflersĠ&ĠBaffles
phon e,Ġ
oo s
giv esĠtheĠ
pur s
swe etĠ
StorageĠ&ĠOrganisation /
whiteĠ borderĠ
RA FT
ec tiveĠ
lin k
forĠ you
p ull
electr icĠ
75 cmĠ
ĠWallĠMuralsĠ Self-adhesiveĠVinyl,Ġ
peri odĠ
re ferenceĠ
He ight
ĠT OĠ
Pl antĠ
wh il
Craf tsĠ
ĠM ar
VehicleĠPartsĠ&ĠAccessories|MotorcycleĠParts|ExhaustsĠ&ĠExhaustĠSystems| Silencers,ĠMufflersĠ&ĠBaffles
brilli antĠ
re alis
byĠ M
reli ableĠ
el ementsĠ
IC ATION
AT CH
Sp rayĠ
tran smis
S of
Offic ialĠ
E g
AS T
selec tedĠ
ĠS pe
liter aryĠ
h ou
En joyĠ
cer amicĠ
Flow ersĠ
ĠA irĠ
band ,Ġ
ing ingĠ
H IGH
CaseĠ forĠ
ALL OY
ĠD o
Ul timateĠ
great lyĠ
self-ad hes
VehicleĠPartsĠ&ĠAccessories|CarĠ&ĠTruckĠParts|Wheels,ĠTyres| Wheels
colour sĠ
ĠS tor
a 'sĠ
aw ard
lin edĠ
90 -
RO W
h ab
ĠP leaseĠ
uniqu eĠandĠ
ed omĠ
I ceĠ
b ene
ĠF ram
âĢĿ .Ġ
,Ġ 2
nessĠ andĠ
bl end
ent s
In c
pl if
Chin eseĠ
EV AĠ
- s
v ide
Pro tectĠ
spirit ualĠ
H ook
ĠM O
<br>Ġ <br>
UnitedĠSt atesĠ
isĠ easyĠtoĠ
.ĠItĠ isĠaĠ
AT IS
ra is
sĠtoĠ beĠ
in essĠ
St udĠ
Ã ¢
Black .ĠProductĠID:ĠUT
sens eĠofĠ
val ueĠ
W interĠ
al dĠ
R u
0 7
ec tsĠ
Coun tr
increas edĠ
b ud
posi tiveĠ
J ackĠ
-F riend
es omeĠ
>ĠR ugs
Diamet er:Ġ
I A
3 00Ġ
pan el
W rist
Automotive/Automotive/AutomotiveĠ Accessories/
lea ther
Light ingĠ
9 1
vel vetĠ
sec urityĠ
edĠ GlassĠ
BritishĠ LibraryĠ
pic tur
erĠ inĠ
Te aĠ
lab el
wash able
y r
ĠCloth ingĠ>
F astĠ
world âĢĻsĠ
treat mentĠ
chap tersĠ
" x
t ailĠ
measure mentĠ
G rip
buil t-inĠ
dec orĠ
toĠ preventĠ
v ac
prin cipl
PleaseĠ noteĠ
LengthĠ :Ġ
ter r
ly .ĠĠ
&Ġ S
water ,Ġ
sĠandĠ aĠ
T EC
e ?
entim et
u ro
Kawasak iĠ
tic sĠ
Med ium
.Ġ EachĠ
T ouch
play ingĠ
g/m 2
tag e:Ġ
ag ainĠ
Cyc lingĠ
ĠW or
Con f
P antsĠ
pl ainĠ
att emp
up onĠ
B endĠ
ĠW ar
anti- slip,Ġ
det ermin
UN C
tast elessĠ
car bonĠ
ĠC lass
vividĠ imag
2 10Ġ
bi ograph
9 .5
ma them
D ish
characteristicĠ ofĠ
pain tĠ
Ton erĠ
ĠG oldĠ
ins ul
M as
ottomĠ (
sĠ onĠtheĠ
TypeĠ :Ġ
G O
res s,Ġ
rem ark
M ostĠ
po pĠ
ÃĹ Ġ4
B ur
ĠH and
edg e.Ġ
n er
0 8
ALLOY ĠWHEEL
row aveĠ
pain tedĠ
St udi
form atĠ
Wh yĠ
Phon es,Ġ
an tedĠ
B ec
olog yĠandĠ
C ou
Rus si
ox id
modelĠ isĠ
ĠP rin
Econ om
worryĠ aboutĠ
- Material:Ġ
Wr istĠ
pro ject
l or
Cover s/
( P
protec torĠ
) ;
Flo atingĠ
High lyĠ
col le
block outĠ
NoneĠ -Ġ
anc ialĠ
call edĠ
slip ping,Ġ
ing sĠofĠ
WxH )Ġ
Review sĠ
cont ainĠ
Christm as
'' xĠ
s| OtherĠ
effor t
ex pos
arness esĠ&Ġ
ĠĠ PackageĠ
ic kingĠ
Industri alĠ
set tingĠ
Ab stractĠ
findĠ theĠ
cont entĠ
p tionĠ
Key boardĠ
CH W
14 0Ġ
performanc e.Ġ
feat ure
Nail s,Ġ
businessĠ daysĠ
Y ĠB
&#34 ;
Bas icĠ
' reĠ
doesn âĢĻtĠ
PV C
p inkĠ
st ro
F anĠ
ca usingĠ
we b
bel ieveĠ
RE AR
h iddenĠ
Design edĠforĠ
non toxicĠandĠ
top ,Ġ
success fulĠ
ad hesiveĠ
6 /
iz ingĠ
Cool ingĠ&Ġ
AU Ġ
Install ationĠ
WallĠ Dec
do mĠ
clean ,Ġ
R educ
myst er
er ĠĠ
histor y,Ġ
Lugg ageĠ
risk .
ðĿ Ĳ
ab or
arnessesĠ&Ġ Lead
isĠ toĠ
Women s/LadiesĠ
Thick ness:Ġ
Computers/ Computer
resul tsĠ
Leav esĠ
PER FECT
ĠC OL
H P
Collar s,ĠH
l esĠandĠ
10 1
( 3
girl sĠ
HomeĠDecorĠ-Ġ Rugs
Collars,ĠH arnessesĠ&ĠLead
useĠ itĠ
HomeĠ&ĠGardenĠ>ĠDecorĠ >ĠRugs
H ow
ation ,ĠandĠ
e.Ġ WeĠ
Spor ts
ti tion
in corpor
girl friend,Ġ
th ous
pl ay,Ġ
ric ul
S E
encou rag
G M
pl ant
D ownĠ
Text ure,Ġ
100% ĠC
exp and
Ġ1 5
forĠ D
C upĠ
ĠG u
meansĠ thatĠ
Provid esĠ
Blu- rayĠ
at sĠ
Reg ularĠ
C abinetĠ
enc oun
fun dam
P r
ElectricalĠ EquipmentĠ&Ġ
.Ġ ForĠ
ap erĠ
j u
p ip
res ourceĠ
B usinessĠ
Char co
o adĠ
Computers/Computer sĠ&ĠAccessories/
Pol i
cm( WxH)Ġ
pec tedĠ
gif tsĠ
hal fĠ
ĠS ET
)ĠatĠTHEĠICONICĠwithĠFreeĠovernightĠdeliveryĠandĠFreeĠreturn s!
high- quality,Ġ
prof ileĠ
Car e
ĠP o
AP ER
ĠM ensĠ
Fit tedĠ
AN V
ist sĠ
L at
Drap es,Ġ
sizeĠ (LĠxĠWĠxĠH):Ġ
fil m
comfort able,Ġ
jew ell
eĠofĠ aĠ
H un
e,Ġ thisĠ
Br it
te aĠ
C UR
ut terĠ
F S
mathem atic
ĠStainlessĠ Steel
S eas
at oryĠ
workman shipĠ
= Ġ
al sĠ&Ġ
kgĠĠ ĠPackageĠ
In sideĠ
Th ickĠ
bitĠ ofĠ
st udĠ
enc eĠandĠ
k inĠ
hom e.Ġ
.Ġ.Ġ .Ġ
F R
upĠ theĠ
0 9
g otĠ
ĠFront/Rear ĠBraidedĠBrakeĠLineĠ(
Cartrid ges
y genĠ
tr ackĠ
PleaseĠ allowĠ
Siz es:Ġ
.Ġ Fabric:Ġ
m al
ab ul
Screw sĠ&Ġ
W on
lin ingĠ
ti ve
iz ationĠ
effic ienc
p aintingĠ
Collectabl es|
ic ĠC
.ĠHighĠ precisionĠ
ĠHighĠ precisionĠ
Foo tĠ
li br
grad e,Ġ
M eshĠ
waterproof,Ġ antiĠ
essenti al
M ad
OverĠ theĠ
inĠ anyĠ
De epĠ
12 00
ĠA reĠ
AdhesiveĠ backĠ
ic ian
ĠPiec esĠ
ar iumĠ
nonĠslipĠ textureĠ
printĠ out,Ġ
PhotoĠ PrintingĠ
nontoxicĠandĠ tastelessĠ
D oc
P CĠ
c ircul
aĠ (
Texture,Ġ GreatĠ
preventĠ fromĠslippingĠ
self-adhes ion,Ġ
avoidĠ slipping,Ġ
WaterproofĠandĠ Anti-SlipĠ
250 g/m2
Standard .ĠHighĠprecisionĠ
AdhesiveĠbackĠ surface,Ġ
WaterproofĠandĠAnti-SlipĠ Texture,ĠGreatĠ
Standard.ĠHighĠprecisionĠ printĠout,Ġ
ĠHighĠprecisionĠ blockoutĠ
enzymeĠ preventĠfromĠslippingĠ
Standard.ĠHighĠprecisionĠprintĠout,Ġ ExquisiteĠandĠ
e,ĠnoĠ particleĠ
WaterproofĠandĠAnti-SlipĠTexture,ĠGreatĠ characteristicĠofĠ
avoidĠslipping,Ġ nontoxicĠandĠtastelessĠ
Standard.ĠHighĠprecisionĠprintĠout,ĠExquisiteĠandĠ vividĠimag
e,ĠnoĠparticleĠ senseĠ
enzymeĠpreventĠfromĠslippingĠ risk.
self-adhesion,Ġ nonĠslipĠtextureĠ
AdhesiveĠbackĠsurface,Ġ self-adhesion,ĠnonĠslipĠtextureĠ
fabrics,Ġ AdhesiveĠbackĠsurface,Ġself-adhesion,ĠnonĠslipĠtextureĠ
WaterproofĠandĠAnti-SlipĠTexture,ĠGreatĠcharacteristicĠofĠ anti-slip,Ġ
AustraliaĠ PhotoĠPrintingĠ
waterproof,ĠantiĠ enzymeĠpreventĠfromĠslippingĠrisk.
Standard.ĠHighĠprecisionĠprintĠout,ĠExquisiteĠandĠvividĠimag e,ĠnoĠparticleĠsenseĠ
250g/m2 ĠHighĠprecisionĠblockoutĠ
250g/m2ĠHighĠprecisionĠblockoutĠ fabrics,ĠAdhesiveĠbackĠsurface,Ġself-adhesion,ĠnonĠslipĠtextureĠ
WaterproofĠandĠAnti-SlipĠTexture,ĠGreatĠcharacteristicĠofĠanti-slip,Ġ waterproof,ĠantiĠenzymeĠpreventĠfromĠslippingĠrisk.
AustraliaĠPhotoĠPrintingĠ Standard.ĠHighĠprecisionĠprintĠout,ĠExquisiteĠandĠvividĠimage,ĠnoĠparticleĠsenseĠ
250g/m2ĠHighĠprecisionĠblockoutĠfabrics,ĠAdhesiveĠbackĠsurface,Ġself-adhesion,ĠnonĠslipĠtextureĠ avoidĠslipping,ĠnontoxicĠandĠtastelessĠ
custom ersĠ
gu ard
.Ġ YouĠcanĠ
j acketĠ
if icationĠ
Bath roomĠ
PackageĠInclud ed
great estĠ
g etsĠ
Re alĠ
HowĠ toĠ
Sh ar
Nails,Ġ ScrewsĠ&Ġ
H orn
a âĢĻsĠ
19 98
lip sĠ
th usĠ
explor esĠtheĠ
bl ank
For mat
wash ableĠ
si xĠ
Ġ O
bo yĠ
Afric anĠ
iz z
T otalĠ
l aterĠ
abl esĠ-Ġ
id sĠ
P s
wind ow,Ġ
16 .
S tit
s ;
ĠE X
cl us
off e
ma ster
reas on
annivers ary,Ġ
theĠ firstĠ
byĠ aĠ
Eas ilyĠ
prec iseĠ
Necklac es
ro ad
th usi
re ferenc
if orn
âĢĻ veĠ
ill edĠ
ab sol
Car pet
Ath le
or t
andĠ durableĠ
ĠBol tĠ
D yn
co ordin
L u
isĠaĠ greatĠ
U r
wal letĠ
P encil
3 mmĠ
1 30
y.Ġ ProductĠID:ĠUT
giveĠ youĠ
Sp ir
erc ed
R oomĠ
B S
ThisĠ itemĠ
anc e:Ġ
S av
ca us
PaperĠ MuralsĠWallĠPrintĠDecalĠ
wr iteĠ
ATIS FAC
proc k
Acr ylicĠ
.Ġ WhenĠ
14 .
ment alĠ
P c
Br ushĠ
w inter
tw ent
00 cm/
b our
read yĠforĠ
200 4
year s,Ġ
main tainĠ
se al
appear anceĠ
T apeĠ
dur abilityĠandĠ
Gu itar
Includes:Ġ 1ĠxĠ
A IR
Ro adĠ
ure th
on e
IL L
v esĠ
An al
Se aĠ
forĠ WomenĠ
AN G
T ubeĠ
h ip
ar y
D anceĠ
im press
ĠDis c
Ġ âĢĵ
tr ust
Un ic
Re pairĠ
themĠ toĠ
improv edĠ
om e
possi bil
Phones,Ġ TabletsĠ&Ġ
Phones,ĠTabletsĠ&Ġ Wear
es cap
L iqu
ersĠ (
SpecialĠ Use
Clothing,ĠShoesĠ&ĠAccessories/Clothing,ĠShoesĠ&ĠAccessories/ NoveltyĠ&Ġ
Clothing,ĠShoesĠ&ĠAccessories/Clothing,ĠShoesĠ&ĠAccessories/NoveltyĠ&Ġ SpecialĠUse
Phones,ĠTabletsĠ&ĠWear ablesĠ-Ġ
d s
all icĠ
b uck
Cut tingĠ
ian oĠ
D oll
mo ther,Ġ
Craft s/
C all
G i
inĠ whichĠ
Bracel ets
print ing,Ġ
Toy sĠ
bothĠ sid
ubicĠ Z
Home/Home/ArtsĠ&Ġ Crafts/
Er g
eĠofĠ yourĠ
optim alĠ
Nam e:Ġ
Ġ QUALITY
M irr
<P >
pl ic
b um
</ li>
pro jectĠ
Plu gĠ
ch air
th read
Cre w
cris pĠ
pl ushĠ
1 3.
through outĠ
ati gu
Adap ters
Cl ampĠ
R od
.ĠThisĠ bookĠ
.Ġ OneĠ
partic ip
holdĠ yourĠ
1 *
Com pressionĠ
edg eĠofĠtheĠ
K g
In gre
ew ear
sĠ&Ġ Accessories
Quart z
at ingĠtheĠ
bea utyĠ
d itĠ
Ingre di
ANV AS
lo t
recyc l
C our
comp ress
it y-
ĠR es
upd atedĠ
KitchenĠ&ĠDining/KitchenĠ&ĠDining/KitchenĠ StorageĠ&ĠOrganisation/
v ent
abr as
s usp
il leĠ
cod eĠ
tw areĠ
w ay,Ġ
Squ ar
d ishwasherĠ
HA UST
l ampĠ
ed ,
OO D
a ver
card sĠ
ber ryĠ
connec tionĠ
excep tionalĠ
TOP S
. âĢĿĠ
beg anĠ
r up
youĠ haveĠaĠ
gym ,Ġ
- onĠ
InteriorĠ TrimĠ
spor t
Rec re
theore ticalĠ
mus eum
mo torĠ
ATISFAC TION
tion sĠandĠ
C lu
WeĠ useĠ
1. 8
ĠS UP
l ateĠ
en ticĠ
liter atureĠ
includesĠ aĠ
ex ternalĠ
-S IL
illustr atedĠ
orĠ ofĠ
Moun t
bag .Ġ
en om
ca useĠ
Card s
me etsĠ
charac terĠ
ãĢĳ Ġ
sp arkĠ
L CD
High- qualityĠ
Clothing,ĠShoesĠ&ĠAccessories/Clothing,ĠShoesĠ&ĠAccessories/NoveltyĠ&ĠSpecialĠUse /NoveltyĠ
arg oĠ
100% ĠCottonĠ
Inter nalĠ
ea th
N A
ĠP AR
1. 2
di amond
ask etĠ
L ock
ur Ġ
ĠAND ĠH
ÃĹĠ 2.
Tra iningĠ
E mer
reduc eĠtheĠ
bac ter
longĠ lastingĠ
Vitamin sĠ&Ġ
comp lex
3 ,Ġ
exist ingĠ
Stick ers
Adv ent
air yĠ
M asterĠ
&amp; nbsp;
p edĠwithĠ
Automotive/Automotive/AutomotiveĠReplacementĠParts/ InteriorĠTrimĠ
Photo graph
ro of
d ouble-
S oci
R G
ynthe tic
lo tĠ
L eftĠ
HeightĠ :Ġ
S IZ
h ug
H ER
ple x
ad m
100% ĠS
Feat ure:Ġ
them eĠ
1Ġ inchĠ
reg ion
ĠWallĠ ArtĠ
tit ud
designĠ aĠ
imension s:Ġ
inĠtheĠ USA
Gear /
elect ro
carr y,Ġ
includ ingĠtheĠ
a ve
-S H
To il
net workĠ
ationĠ forĠ
T om
cush ionĠ
di verseĠ
BendĠ ShifterĠArmĠ
D ropĠ
friend ly,Ġ
Automotive/Automotive/AutomotiveĠReplacementĠParts/AutomotiveĠSteeringĠ&ĠSuspension /AutomotiveĠ
Audi o
lim itedĠ
Clo thĠ
Itali anĠ
Ex erc
H erĠ
V ir
20 10Ġ
com ingĠ
s eat
b irdĠ
ĠFeat ures
T akeĠ
En velop
allĠ yourĠ
ĠM ax
MotorcycleĠPart s
Bag Ġ
I O
OtherĠ MotorcycleĠParts
Wh oĠ
l ens
âĢĿâĢľ Ġ
c otton,Ġ
n 'tĠ
J EW
tĠofĠ yourĠ
cou ri
.Ġ NoĠ
iss anĠ
siz e
partic ularlyĠ
qu ir
D em
Willi amĠ
CUR TAIN
proper ti
differ enceĠ
ĠB R
optionĠ forĠ
0 4
agn os
Com m
b ossĠ
st andĠtheĠ
fi breĠ
scienti ficĠ
ðŁ İ
sol ution
madeĠinĠ AustraliaĠ
sĠ isĠ
ĠST E
lin e:Ġ
Diamet erĠ
w antsĠ
ey e-c
H obbyĠ
ocol ateĠ
sid edĠ
ur banĠ
cm,ĠhaveĠaĠ2cmĠwidthĠandĠaĠ2.5cmĠdepth .
cm,ĠhaveĠaĠ2cmĠwidthĠandĠaĠ2.5cmĠdepth .A
extra ordinaryĠ
f loorĠ
ĠB allo
beforeĠ youĠ
s limĠ
ÃĹĠ 3.
publ ic
esĠ&Ġ Accessories/
Long ĠSleeveĠ
lap topĠ
es tedĠ
ad apterĠ
y d
sun Ġ
H u
tre as
bi odegrad
mil itaryĠ
bl oodĠ
ques tionĠ
f anĠ
t ellĠ
bracel et
GIV IĠC
any thingĠ
n ap
Year sĠ
M T
n âĢĻtĠ
product s.Ġ
Weight:Ġ 0.0
atibil ityĠ
ra tionalĠ
âĢ¦ Ġ
Buil t-inĠ
op eningĠ
Pillow caseĠ
He art
Specification s:Ġ
M anyĠ
L iter
K L
wal kingĠ
remov ableĠ
c ock
,ĠandĠ aĠ
ationĠ toĠ
ser ies
lo tĠofĠ
Autom atic
ra geĠ
ist onĠ
"ĠEĠBrakeĠ CableĠ
ĠPR INT
PV CĠ
- basedĠ
Eco -Friend
comp u
esĠ B
G R
Str at
ĠM oun
ballo on
protectĠ theĠ
pro jec
II I
un kĠ
Class icalĠ
Po si
ĠAl l
ex actĠ
o ccasionĠ
product s,Ġ
F ishĠ
5 25
ĠC overĠ
us e.-Ġ
ÂłĠ Âł
Qu antit
Ch ip
alternativeĠ toĠ
selec tionĠofĠ
Stret ch
ov edĠ
C ityĠ
her o
Styl ishĠ
MaterialĠ :Ġ
outs ol
I IĠ
f ictionĠ
0 ÃĹ
zip per
fit tingĠ
feel ingĠ
in alĠ
enc ilĠ
Ġ ãĢĲ
S id
Ch ang
th yĠ
Dev ic
sĠ asĠ
c opperĠ
satisfi edĠwithĠ
D own
holid ay
ograph icĠ
lightĠ andĠ
betweenĠ aĠ
p ouch
liqu idĠ
allowĠ youĠtoĠ
Clean ingĠ
? ĠWh
Sp eak
KitchenĠ&ĠDining/KitchenĠ&ĠDining/Tableware/ Glass
and -
Application :Ġ
1/ 2
Conven ientĠ
craf ts,Ġ
Sew ingĠ
,Ġ A
20"Ġ(50cm)ĠFeat ureĠ
design .ĠTheĠ
aw Ġ
an th
tran si
5 cm
W esternĠ
b ub
s âĢĻĠ
lo ss
Do esĠ
Fast en
P illowcas
F ullyĠ
su redĠ
OF F
toĠ order
squ areĠ
aĠ perfectĠ
AM A
ateĠ withĠ
Earr ing
ĠP O
pot entialĠ
relig iousĠ
in ),Ġ
it sub
ĠF L
ĠD IS
Fo amĠ
Pro c
AN C
daugh terĠ
adv ant
;Ġ theĠ
edĠ atĠ
Clothing,ĠShoesĠ&ĠAccessories/Clothing,ĠShoesĠ&ĠAccessories/Men'sĠFashion/Men'sĠ Shoes/Men'sĠ
ĠG enuineĠ
ar ea
advent ureĠ
( C
screw Ġ
Rec yc
. ,Ġ
Sp ray
Pur ple
itsub ish
pl ann
1 cmĠ
co atĠ
er aĠ
e -Ġ
sĠ toĠtheĠ
ðŁ Į
or ousĠ
Di eĠ
describ edĠ
sureĠ toĠ
Ad apterĠ
u k
Nails,ĠScrewsĠ&Ġ Fastener
Ġ1 98
ï¿½ ï¿½
rem eĠ
CameraĠ&ĠPhoto/Electronics/MobileĠPhonesĠ&ĠCommunication/MobileĠPhoneĠAccessories/MobileĠPhoneĠCasesĠ&Ġ Covers/
se eĠtheĠ
ti pĠ
h oseĠ
Rob ertĠ
P ick
at orsĠ
âĢĿ Ġ(
po orĠ
Im port
Cle anĠ
b er,Ġ
ind ing:Ġ
activ ityĠ
vi bra
Bag ,Ġ
comp os
ap prov
G MĠ
te enĠ
R en
cri tic
ell aĠ
abl es
e ;
V EL
4 50
CoolingĠ&Ġ Heat
SteeringĠ Wheel
l ayĠ
es ticĠ
ingĠ isĠ
u eĠtoĠ
guideĠ toĠ
inser tedĠ
Reg ular
Dis neyĠ
high-qualityĠ andĠ
polic yĠ
packag edĠ
b ever
V ests
8 ,Ġ
alis edĠ
fin estĠ
prac tition
ou d
require ment
IL T
ateĠ toĠ
f rom
ux eĠ
mon e
gra mĠ
esĠ byĠ
at es,Ġ
ĠPro f
t aĠ
K -
it s
AC T
Lab el
con ditionsĠ
P P
v intageĠ
set ,Ġ
ĠSt amp
AC E
Gif tsĠ
car bon
industri alĠ
inĠ hisĠ
ĠN O
re ach
sĠ&Ġ Carpet
go ingĠ
Cr u
id asĠ
Z e
lyĠ andĠ
aroundĠ aĠ
ul p
wid elyĠ
po em
sun kĠ
Op tim
d ic
d oneĠ
a esthe
whatĠ youĠ
t ens
enh ancedĠ
ra tion
al ,ĠandĠ
th -
Bas ic
yell owĠ
em phas
amboo Ġ
conven ienc
a ul
sk i
Con trastĠ
c rossĠ
outs oleĠ
youĠ andĠyourĠ
Inform ationĠ
ĠTr an
Wr itingĠ
ar rang
ind ic
-Ġ Paperback
Pend ants
doesn 'tĠ
exc itingĠ
Â ²
pop ular
rest aur
ell erĠ
exp ect
UVĠ protec
dra ul
KitchenĠ&ĠDining/KitchenĠ&ĠDining/KitchenĠ ToolsĠ&Ġ
ĠAr tĠ
-Ġ BlackĠ
p atch
vol tageĠ
Y L
d iningĠ
VEHIC LE
uc tionĠ
Make up
person aliz
sizesĠ areĠ
Design edĠ
C ategor
ARD WARE
D ies
it r
Fr anceĠ
you âĢĻllĠ
exper im
grou p
mess ageĠ
Moun ts
Im perialĠ
de form
tran sparentĠ
3D ĠG
M eth
in em
L angu
bec ameĠ
A ĠC
Fabric ĠĠ
c entimet
removeĠ theĠ
m iddleĠ
ĠP ER
Car bonĠ
ject :Ġ
GiftĠ forĠ
N E
.Ġ ToĠ
g loveĠ
Sk yĠ
th ir
M S
Hand madeĠ
Y S
p ig
otherĠ thanĠ
B arĠ
ist s,Ġ
y. ,
ste eringĠ
Model ĠBuil
amoun tĠofĠ
effic ientĠ
pap er,Ġ
pol ish
J azz
longĠ timeĠ
R ack
Bl ank
comfort able
Bol tĠ
understandingĠ ofĠ
Pear lĠ
g elĠ
h ers
M ap
Ro dĠ
G oĠ
year s.Ġ
lastĠ aĠlife
Mug s
is erĠ
SĠ âĢĵĠ
ĠS he
cour seĠ
ev entĠ
med ic
ter sunkĠ
lightweightĠ andĠ
Automotive/Automotive/AutomotiveĠReplacementĠParts/InteriorĠTrimĠ Products/
2.5 Ġ
materialĠ forĠ
j ean
thĠ centur
cor rec
fun ĠandĠ
S pl
colours.ĠThisĠisĠsubjectĠtoĠavailabilityĠandĠcanĠbeĠsearchedĠonĠKoganĠusingĠtheĠproductĠID:ĠUT BC
deliver yĠ
length :Ġ
drin kĠ
shaf tĠ
orĠ anyĠ
m b
tsĠ theĠ
B rownĠ
highĠ performanceĠ
arriveĠreadyĠtoĠhang .
des kĠ
m ug
s en
Des kĠ
/ Ġ4
cor d
O UR
outĠ ofĠtheĠ
.ĠF romĠ
cap Ġ
O b
empl oy
M axĠ
M art
Wr ittenĠ
h oopĠ
mustĠ beĠ
G 304
iPhoneĠ 12
h ar
Li keĠ
La ur
side )Ġ
AR R
Chil dĠ
H ub
S oft
awayĠ fromĠ
Gradu ationĠ
Serv ingĠ
a tom
g anĠ
32 ÃĹ
3 ĠM
diffic ultĠ
Ac tiv
secre tĠ
up pyĠ
ideĠ toĠ
ing tonĠ
1 12
cent r
issu eĠ
th anksĠ
fem aleĠ
upĠ yourĠ
t earĠ
Enter tain
al ĠĠ
isĠ madeĠ
Col orsĠ
vis ion
Auth or
Girls' ĠFashion
Clothing,ĠShoesĠ&ĠAccessories/Clothing,ĠShoesĠ&ĠAccessories/ Girls'ĠFashion
haveĠ theĠ
onĠ theirĠ
c ivil
e- Type:Ġ
Siz esĠ
G earĠ
D ailyĠ
ationĠ inĠ
appro x
Sn eak
:Ġ ReflectiveĠCoating
aĠ b
cent ralĠ
m ixĠ
te inĠ
urnit ure
lookingĠ forĠaĠ
h os
perspec tiv
decor ation,Ġ
Log oĠ
OfĠ TheĠ
Vi ol
simpleĠ andĠ
ques tions,Ġ
ther e
m irrorĠ
B ibleĠ
industr yĠ
Blu-rayĠ Discs
mo deĠ
re leas
sĠinĠ yourĠ
ey el
L aceĠ
D Y
4 .Ġ
M ENS
checkĠ theĠ
nat ureĠ
roc kĠ
C lipĠ
t wist
need s.Ġ
specialĠ occasion
sĠ&Ġ Blu-rayĠDiscs
Indi anĠ
DVD sĠ&ĠBlu-rayĠDiscs
HeightĠ-ĠTopĠtoĠB ottomĠ(
Ch ev
design edĠwithĠ
2Ġ x
ĠP csĠ
T er
ityĠ toĠ
G ripĠ
stra inĠ
ĠH OL
YellowĠ HeightĠ:Ġ
Recre ationĠ
canĠ fitĠ
byĠ handĠ
ag g
HealthĠ&ĠBeaut y|
fl oralĠ
ra isedĠ
man ag
S )
ist erĠ
YellowĠHeightĠ:Ġ 4.375"Ġ(11cm)Ġ
m ingĠ
E th
VehicleĠPartsĠ&ĠAccessories|MotorcycleĠParts| OtherĠMotorcycleĠParts
lin kĠ
ankĠ youĠ
an iumĠ
1 pc
at ed,Ġ
recyc ledĠ
TheĠ imagesĠonĠtheĠpictureĠisĠforĠillustrationĠpurposeĠonly,ĠpleaseĠreferĠtoĠtheĠactualĠsizeĠsheet.
Ac tiveĠ
100%ĠNatural,ĠEnvironmentalĠandĠBreathableĠ TheĠimagesĠonĠtheĠpictureĠisĠforĠillustrationĠpurposeĠonly,ĠpleaseĠreferĠtoĠtheĠactualĠsizeĠsheet.
non- slipĠ
styleĠ andĠ
St urd
rib Ġ
scre en
keepĠ themĠ
ofĠ theseĠ
cost umeĠ
d eathĠ
Le agueĠ
ApparelĠ &Ġ
re placeĠ
.ĠM adeĠofĠ
w w
cent erĠ
col on
thereĠ willĠbeĠaĠ
Amaz onĠ
ur nĠ
AS EĠ
break ageĠ
P en
Americ aĠ
design sĠ
W estĠ
isĠ andĠ
ter nat
relev antĠ
S K
5 mmĠ
.ĠTheyĠ areĠ
he ight
or s,Ġ
resistantĠ toĠ
2 3Ġ
at uresĠ
20"Ġ(50cm)ĠFeatureĠ :ĠReflectiveĠCoating
YellowĠHeightĠ:Ġ4.375"Ġ(11cm)Ġ LengthĠ:Ġ
YellowĠHeightĠ:Ġ4.375"Ġ(11cm)ĠLengthĠ:Ġ 20"Ġ(50cm)ĠFeatureĠ:ĠReflectiveĠCoating
kindĠ ofĠ
them edĠ
fa therĠ
.ĠA sĠ
ĠSt y
keepĠ theĠ
ish ment
show ingĠtheĠ
m ill
iv alĠ
respon s
mo st
K IT
Sp ac
Prin terĠ
fem in
re produc
fast en
ig saw
er s,ĠandĠ
i efĠ
A ,Ġ
H oll
card s,Ġ
edĠ onĠtheĠ
co -
ifĠyouĠ haveĠanyĠ
combin ationĠofĠ
sup plyĠ
ch airĠ
ex ic
1Ġ X
Jew elr
se aĠ
Rel ig
ĠB CHW
ufac ture
Sp eedĠ
( 200
.Ġ 100%Ġ
Lev elĠ
S ingle
sal esĠ
no thingĠ
isĠ designedĠtoĠ
enom en
ex ha
ĠT ra
10 4
accessor yĠ
E -
th ink
NumberĠ ofĠ
againstĠ theĠ
op tionĠtoĠ
al cohol
useĠ withĠ
WallĠStick erĠ
after marketĠ
. </p><p>
qu iteĠ
Description:ĠĠ CheckĠOutĠOurĠCollectionsĠOfĠAllĠOtherĠ3DĠQualityĠRugĠcarpetĠandĠmattĠInĠStock
Material:ĠQualityĠNonĠSlipĠProductĠMadeĠofĠSoftĠWovenĠPolyesterĠ FabricĠĠ
.Ġ GreatĠforĠ
.ĠĠĠĠ Material:ĠQualityĠNonĠSlipĠProductĠMadeĠofĠSoftĠWovenĠPolyesterĠFabricĠĠ
.ĠĠĠĠMaterial:ĠQualityĠNonĠSlipĠProductĠMadeĠofĠSoftĠWovenĠPolyesterĠFabricĠĠ AJĠCREATIVITYĠTOPĠHOMEĠCREATIVEĠBRAND.
Description:ĠĠCheckĠOutĠOurĠCollectionsĠOfĠAllĠOtherĠ3DĠQualityĠRugĠcarpetĠandĠmattĠInĠStock .ĠĠĠĠMaterial:ĠQualityĠNonĠSlipĠProductĠMadeĠofĠSoftĠWovenĠPolyesterĠFabricĠĠAJĠCREATIVITYĠTOPĠHOMEĠCREATIVEĠBRAND.
to mer
haveĠ yourĠ
the oryĠ
clu b
sol arĠ
time.Ġ ThisĠ
andĠm oun
li braryĠ
t ab
st reetĠ
H air
accessor ies
out fit
E ther
ingĠ Supplies/
designĠ withĠ
c anc
RE S
P atch
an tic
O X
form ulaĠ
Hi kingĠ
con c
you' llĠ
M B
od sĠ
Hand le
? ĠF
fin alĠ
ob serv
th anksĠtoĠ
.Ġ In
adjustĠ theĠ
Includ edĠ
sc aleĠ
highĠ quality,Ġ
ofĠ allĠ
cl usiveĠ
Prin t,Ġ
mm ,
avail able
d irtĠ
Clut chĠ
2 30
ColorĠ:Ġ BlackĠStreetĠSignsĠ
ColorĠ:ĠBlackĠStreetĠSignsĠ ColorĠ:Ġ
J ul
TextĠ ColorĠ:ĠBlackĠStreetĠSignsĠColorĠ:Ġ
exper tĠ
Energ yĠ
OH C
r ugĠ
durable ,ĠandĠ
ĠCaseĠ forĠ
cer tainĠ
tsĠ (
dis eas
Or nam
siz eĠandĠ
excl usiveĠ
L eadĠ
Ad just
black ,Ġ
m ensĠ
withinĠ 24Ġhour
l es.Ġ
Func tionĠ
T- Shir
esĠandĠ areĠ
compl im
handĠ (
YouĠcanĠ chooseĠ
s.Ġ TheyĠareĠ
atĠ homeĠ
hand le
ther nĠ
P addedĠ
L -
ĠHe ad
Cont ainsĠ
ag enĠ
Fit nessĠ
ĠL in
Educ ationalĠ
PaperĠ PrintĠ
alis mĠ
H DĠ
year -
Class ic
coun tryĠ
k esĠ
appro x.Ġ
SoftĠ andĠ
fill edĠwithĠ
re al
,Ġ youĠcanĠ
C B
W D
7 1
Y ST
Features:Ġ- Materials:Ġ
ulticol orĠ
Merchandis e
.ĠM adeĠ
ho st
mainĠ compart
Su itĠ
ar di
anc ingĠ
circ um
gall ery-
N owĠ
r ust
pr ession
sle ekĠ
Material ãĢĳ
designĠ isĠ
new sp
electr onicĠ
sĠforĠ Dogs/
conven tionalĠ
.Ġ âľ¿
saf e,Ġ
Sw itchĠ
O c
madeĠinĠAustraliaĠ toĠorder
m askĠ
though t
ins ulationĠ
re pairĠ
cover ageĠ
lif e.
over allĠ
as erĠ
oo g
ib er
hinest oneĠ
struc ture
ĠANDĠH ARDWARE
highestĠ qualityĠ
ĠC ON
clin icalĠ
R ackĠ
res inĠ
dro idĠ
rem ain
app ingĠ
t ing,Ġ
flat -
slightlyĠ differentĠ
whileĠ inĠ
Multi pleĠ
Adv ancedĠ
raf tĠ
ĠB e
as sist
ir on
oĠ notĠ
Format :Ġ
-Ġ M
bi o
ĠH D
Z O
TextĠColorĠ:ĠBlackĠStreetĠSignsĠColorĠ:Ġ YellowĠHeightĠ:Ġ4.375"Ġ(11cm)ĠLengthĠ:Ġ20"Ġ(50cm)ĠFeatureĠ:ĠReflectiveĠCoating
Lond onĠ
LightĠ Oak
edĠ PillowcasesĠ
ev entsĠ
IL D
sĠ ĠĠ
areĠ availableĠinĠ
Stra ightĠ
Pe op
KitchenĠ&ĠDining/KitchenĠ&ĠDining/Tableware/Glass ware/
H en
Capac ity:Ġ
S ocialĠ
P ACK
HomeĠ&ĠGarden|BuildingĠMaterialsĠ&ĠDIY| Nails,ĠScrewsĠ&ĠFastener
.Ġ K
Pl ushĠ
fru itĠ
arti ficialĠ
ex act
O l
cm *
gu estĠ
toĠyourĠ order
ic sĠandĠ
Dip stickĠ
TradingĠ Card
ch ool
W ALLĠART
c abin
ProductĠColour:ĠĠ Black.ĠProductĠID:ĠUT
li eĠ
sheet s.Ġ
dep end
IT E
R unn
a .
s,Ġ theyĠ
L L
B usiness
ar en
Gre etingĠ
Serv iceĠ
Y oun
wi p
ful fil
Ġ1 4
prem ium-
D ishwasherĠ
stra psĠ
fascin atingĠ
Ch amp
M ask
reus able,Ġ
;Ġ andĠ
heĠ wasĠ
expl ain
Bo ysĠ
refun d
inser tĠ
iz ont
back pack
oper atingĠ
Buil tĠ
Em p
Sh ad
educ ationalĠ
F resh
doc ument
Us e:Ġ
IR TS
fer redĠ
!Ġ ThisĠ
spac iousĠ
R ingsĠ
R ap
++ ++
bro ad
â ĸ
w eather
Clut ch
Kawasak i
cl aim
Acr yl
sĠ suchĠasĠ
sec ur
law Ġ
main tain
harm fulĠ
Part sĠ&ĠAccessories|
sp rayĠ
beautifulĠ andĠ
squ o
Sle ep
S L
anĠ in
ch eck
leĠ ofĠ
ĠF RAM
M ATERIAL
i entlyĠ
explor esĠ
ou sĠandĠ
âĢľ DarkĠ
Tra il
atis factionĠ
.Ġ Design:Ġ
separ atel
Co in
R ub
R est
-b y-
et aryĠ
t reeĠ
identif icationĠ
ĠMod elĠ
Fram ed
r aceĠ
o ch
anĠ importantĠ
fram e-
Whit e/
FitsĠ HondaĠ
Ch am
v entil
fi xĠ
U.S .Ġ
1/ 4
plex ig
PetĠSupplies/PetĠSupplies/Dogs/ Collars,ĠHarnessesĠ&ĠLead
f our
sc rip
P T
Un ion
! ĠTheĠ
OM FOR
Gold enĠ
Feat uringĠ
influ enc
s,Ġ thisĠ
Histor icalĠ
M askĠ
dependingĠ onĠ
developmentĠ ofĠ
comp il
T ankĠ
t y,Ġ
er shipĠ
refl ectĠtheĠ
experienc e.Ġ
Strat coĠ
mm) ĠMet
Ab ov
ha vingĠ
wal k
3DĠP rin
Sp an
glo s
ĠBr andĠ
yourĠf eetĠ
Mov ieĠ
For estĠ
es.Ġ TheyĠ
isĠaĠ perfectĠ
ĠP et
Zip perĠ
FloorĠ Rugs
thĠ ofĠ
Fitt ing
h atĠ
pic nicĠ
del ight
bed room,Ġ
Br assĠ
to ldĠ
&Ġ Saf
B en
dur able.Ġ
thisĠ designĠ
autom aticallyĠ
ĠWhe therĠ
atĠtheĠ sameĠ
ari anĠ
offer ingĠ
er ,ĠandĠ
s ?
extrem eĠ
27 0Ġ
no iseĠ
F lex
mag n
16 ĠxĠ
ofĠ ContentsĠ
NewĠYorkĠ TimesĠ
ĠH E
turn sĠ
Ex quisiteĠ
61 ÃĹ
est yleĠ
ai mĠ
2 30Ġ
toĠtheĠ sameĠ
qu art
dist rib
Pow derĠ
sp ireĠ
R ect
forĠ anĠ
sturd yĠandĠ
A ĠM
K N
technolog y,Ġ
abilityĠ toĠ
D or
accur ateĠ
b li
bow l
recomm endedĠ
includes :Ġ
Pro v
separ ateĠ
waterĠ andĠ
Wal le
In putĠ
ForĠ YourĠ
meansĠ thatĠtheĠ
pret tyĠ
moti v
TradingĠCard s|
war ov
hasĠ theĠ
B utterflyĠ
d ou
keepĠ youĠ
r y
hand madeĠ
ic al,Ġ
ins ightsĠ
serv ingĠ
G L
prop yl
d ust
Â ¡
a we
H aw
M IĠ
OO L
itĠ withĠ
M achin
likeĠ theĠ
am aĠ
T ab
Chem icalĠ
cont ex
Ass ortedĠ
Sc ienc
.ĠA nĠ
.ĠH isĠ
E astĠ
ad ultĠ
in yĠ
whileĠ theĠ
weĠuseĠ areĠ
PetĠSupplies/PetĠSupplies/Dogs/Collars,ĠHarnessesĠ&ĠLead sĠforĠDogs/
ed.Ġ OurĠ
min i
funn yĠ
Color fulĠ
aspec tsĠofĠ
detail sĠ
it selfĠ
t enn
G EN
wind ow
20 3
toge ther
reduc ingĠ
youn g
ThereĠ isĠanĠ
Wor ksĠ
T urn
chem icalĠ
ĠP or
it z
Thom asĠ
ord ersĠareĠ
tow el
areĠ goodĠ
op tion.Ġ
D UC
call edĠaĠ
Vi ew
tow n
notĠ included
m illĠ
Moun tainĠ
subst anti
v Ġ
glo b
s ophistic
um entsĠ
eĠtoĠ useĠ
material sĠandĠ
- D
Â ¢
kn owsĠ
Vit aminĠ
N issanĠ
Hol eĠ
j erseyĠ
y al
Ass oci
ĠW ALL
withĠ itsĠ
en thusi
mayĠ notĠ
insertedĠ intoĠtheĠ
ofĠ high-qualityĠ
Styl ingĠ
FineĠ Jewellery|
canv as,Ġ
JewelleryĠ&ĠWatches| FineĠJewellery|
ãĢĳ ĠĠ
form erĠ
ĠWom en'sĠ
L atinĠ
U E
Af ter
Engl ish
b y
ballo onĠ
menĠ andĠ
allĠ dayĠ
ob jec
su itsĠ
ati oĠ
wash ingĠ
isĠ aboutĠ
Can ad
couldĠ beĠ
Measurement s:
F eed
Electronic sĠ>
p iteĠ
2 mmĠ
f avoriteĠ
P ortĠ
Glit terĠ
3/ 8
Or derĠ
I UM
In cre
bag s,Ġ
atĠ anyĠ
No .Ġ
am bi
if iedĠ
R earĠ
c artrid
M irrorĠ
stud yĠofĠ
devic esĠ
ArtsĠ&Ġ CraftsĠ
strongĠ andĠ
W E
t en
FromĠ theĠ
h il
M is
Em b
finishedĠ productĠ
44 ÃĹ
pic kĠ
ĠC re
Cre amĠ
num erousĠ
sĠforĠ yourĠ
u al,Ġ
Ed geĠ
ShowerĠ Curtain
Annivers ary,Ġ
X XL
P ed
bri dĠ
l amp
durabil ity.Ġ
o iceĠ
Lic enseĠ
Dat e:Ġ
ĠT w
ins id
ToĠ preventĠ
ig inĠ
6 mmĠ
agement ,Ġ
&Ġ non-
M iddleĠ
ing les
( 5
FitsĠ Suzuki
d atingĠ
i arĠ
wrapp ed,Ġ
WallĠDec oĠ
rop icalĠ
f lash
MadeĠ withĠ
need sĠ
over viewĠ
ill sĠ
P APER
ch ann
fig ureĠ
thoseĠwhoĠ wishĠtoĠ
inĠ itsĠ
fil ter
Guarante eĠ
luxur iousĠ
ĠCas es
roll edĠinĠ
plexig lass
oz Ġ
n utĠ
hy dr
c row
S D
aith fulĠ
<brĠ/>Ġ <brĠ/>Ġ
grad edĠ
Birth day
m ainten
Whit e,Ġ
C ast
Sp aceĠ
w ant
6 50Ġ
p ump
doĠ noĠ
Offic iallyĠ
ĠSil verĠ
inĠ SingleĠ
ĠC AR
LE S
s ul
Electr onicĠ
childr enâĢĻsĠ
Ang el
Re p
St arĠ
n oseĠ
sc rap
Vari ousĠ
him selfĠ
fram eĠtheĠ
AirĠ In
th rowĠ
describ edĠinĠtheĠ
pl i
U Z
Y earĠ
m L
an o
ĠB ox
cook ingĠ
wallĠ m
la im
ĠH owĠ
chooseĠ thisĠ
edg e-to-
t arg
trans it,Ġ
M atch
any wher
driv ingĠ
er y,Ġ
A pr
100% ĠPolyester
EĠ &Ġ
simil arĠ
Geor geĠ
li >Ġ
break ingĠ
T rip
b ottom
abil iti
G en
p rimaryĠ
O ce
l ing
chosenĠ byĠ
fromĠ scratch
Not es
tre atedĠ
ĠWh it
ĠW Ġ
includ e:Ġ
QU ILT
land scap
ON G
stud entĠ
/ ĠS
Hoo di
phon es,Ġ
J ac
Mo ist
theĠ frameĠ
brid geĠ
ject orĠ
Mechan icalĠ
g asĠ
sn eak
ce il
yĠandĠ theĠ
Clothing,ĠShoesĠ&ĠAccessories/Clothing,ĠShoesĠ&ĠAccessories/Women'sĠFashion/Women'sĠJewellery/Women'sĠ Earrings
al s.Ġ
g ather
Every thingĠ
ĠG am
Clothing,ĠShoesĠ&ĠAccessories/Clothing,ĠShoesĠ&ĠAccessories/Girls'ĠFashion /Girls'
n in
charac tersĠ
y) .ĠTheĠ
HomeĠ&ĠGarden|BuildingĠMaterialsĠ&ĠDIY|Nails,ĠScrewsĠ&ĠFastener s|
glassĠ windowĠ
upĠtoĠ 10Ġ
c ityĠ
20 21Ġ
YO U
s,Ġ suchĠasĠ
out standingĠ
sh ell
StretchedĠ Canvas
wid th
InĠ TheĠ
canvasĠ material,Ġ
ri dĠ
toĠ printĠ
L ine
dem oc
inĠ oneĠ
framedĠ prin
ul tim
cus tomer
ToysĠ&ĠGames/ToysĠ&ĠGames/ ArtsĠ&ĠCraftsĠ
electr icalĠ
ig ur
certi fiedĠ
ĠS im
er o
M ess
S M
F al
is m,Ġ
Canvas :
En h
G iv
id esĠ
non- reflectiveĠ
- quality,Ġ
Bo thĠ
F ound
pos tĠ
y ardĠ
OneĠ Siz
Wor kingĠ
Sim plyĠ
sh oo
-w inningĠ
introduc tionĠ
ĉĉ ĉĉ
ĠSte eringĠ
-SH IRTS
s ayĠ
GenuineĠ HondaĠ
fir eĠ
ha mĠ
Th row
world 'sĠ
professionallyĠ fram
fulfil mentĠ
AustraliaĠ Post
e ballĠ
5 .Ġ
Cloth ing/
ent sĠandĠ
wrapped,Ġ stretchedĠ
cri min
re pl
s evenĠ
Cal iforn
lim it
amp oo
graph icĠ
optionĠ isĠ
Sel f
m ol
smoothĠ andĠ
ers ,
Gif tsĠforĠ
al u
ON Ġ
colour s.Ġ
pos ableĠ
d ark
OO K
tor ,Ġ
ĠCh il
ĉĉĉ ĠĉĉĉĠĉĉĉ
stre et
charm ingĠ
F leeceĠ
ultra- toughĠ
eed sĠ
IsĠ iDRIVEĠ
arti stĠ
ingsĠ orĠ
lastĠaĠlife time.ĠThisĠ
A ĠL
S car
d edĠ
1 15
Dif ferentĠ
andĠm uchĠ
b igg
ati ve
A IL
andĠmoun tedĠ
al ign
Squar e-
C ant
too th
250Ġ GSMĠ
ĠSpe edĠ
P aulĠ
commun ityĠ
inch ,Ġ
paperĠ weĠuseĠ
p otĠ
f eltĠ
WeightĠ ProductĠ
usedĠ asĠaĠ
coun ter
Il lu
canvasĠmaterial .
ali ti
ĠA CH
35 0Ġ
teach ingĠ
ColourĠ (
cmĠÂ±Ġ4cmĠ2xĠPillowcasesĠ50cmĠxĠ70 cmĠÂ±Ġ4cmĠ
cmĠxĠ210 cmĠÂ±Ġ4cmĠ2xĠPillowcasesĠ50cmĠxĠ70cmĠÂ±Ġ4cmĠ
pan sionĠ
OutdoorĠ RecreationĠ
- 19
-Sub jectĠ
flex ibil
deliver edĠ
ĠB ar
dr y.Ġ
com mercialĠ
sentĠ withĠ
couri ersĠ
Moder n
ext endĠ
72 cmĠxĠ
88 cmĠxĠ
e,Ġ showingĠtheĠ
TradingĠCards| TradingĠ
f ersĠ
frameĠ aroundĠtheĠ
de e
calledĠaĠ âĢľ
to dd
( thisĠisĠ
Int egr
al readyĠ
whiteĠ colouredĠ
-SubjectĠ Details:Ġ-
v ill
framesĠareĠ madeĠfromĠ
OT T
shippedĠ flatĠ
50 mmĠ
sur g
museum -quality,Ġ
ing .,
y. -Ġ
thick,Ġ durable,Ġ
Micha elĠ
glass,Ġ notĠ
b ump
UVĠprotec ted,Ġ
time fram
2 xĠ
L ip
MatĠBo ardĠ
,ĠitĠ meansĠthatĠtheĠ
everĠ youĠ
matĠ board
edg edĠandĠ
360 gsmĠ
g rin
res tsĠ
IfĠyouĠ chooseĠtheĠ
DarkĠ OakĠ
promo teĠ
- H
eng ra
takeĠ 2-3Ġ
G otĠ
premium- grade,Ġ
u ch
es.Ġ ThisĠ
wrappedĠ onĠaĠ
ourĠ normalĠ
toĠtheĠsameĠ specificationsĠ
Organ icĠ
Comp actĠ
sh own
YouĠcanĠchooseĠ betweenĠaĠ
theseĠ framesĠareĠ
3cmĠ deepĠ
eas yĠandĠ
&r squo
insideĠ edgeĠofĠtheĠ
largeĠ tub
bro kenĠ
+ ĠP
ne eĠ
youĠwillĠreceiveĠ anĠun
v isĠ
describedĠ below
: BelowĠ
FramedĠ Print,Ġ
wood,Ġ areĠ
8 x
.ĠAfterĠ printing,Ġ
givesĠtheĠ designĠaĠ
Y AMA
fram ed.ĠThisĠ
extremelyĠ care
alongĠtheĠ insideĠedgeĠofĠtheĠ
weĠwillĠ printĠ
areĠavailableĠinĠ eitherĠ
thisĠdesignĠ asĠaĠ
designĠ themselv
Neck line:Ġ
32ÃĹ 44
Gall ery-
ThereĠisĠanĠ optionĠtoĠ
ElectricalĠEquipmentĠ&Ġ Supplies|
2ndĠ productĠimag
printedĠ ofĠhigh-qualityĠ
AllĠ framesĠ
sho es,Ġ
matteĠ paperĠ(
Industrial| ElectricalĠEquipmentĠ&ĠSupplies|
ToĠpreventĠ breakageĠ
shippedĠ carefullyĠ
whileĠinĠ transit,Ġ
yourĠorderĠ toĠtheĠsameĠspecificationsĠ
glassĠwindowĠ (thisĠisĠ
88cmĠxĠ 125
âĢľFramedĠ PaperĠPrin
high-qualityĠandĠ UVĠprotected,Ġ
doĠnoĠ chooseĠtoĠaddĠaĠ
MatĠBoard ,ĠitĠmeansĠthatĠtheĠ
rolledĠinĠ largeĠtub
gallery- wrapped,ĠstretchedĠ
aroundĠaĠ woodenĠframe.
andĠA 0Ġ
ed.ĠOurĠ framesĠareĠmadeĠfromĠ
A3Ġ framesĠmeasureĠ
wrappedĠonĠaĠ 3cmĠdeepĠ
realĠ glass,ĠnotĠ
isĠcommonlyĠ chosenĠbyĠ
7 thĠproductĠimag
theseĠframesĠareĠ packagedĠ
frame.Ġ âĢľ
StretchedĠ&ĠMountedĠ CanvasĠ
widthĠandĠaĠ2.5cmĠdepth .A
edge.Ġ ThereĠ
StretchedĠCanvas ).Ġ
insertedĠintoĠtheĠ frame.ĠTheĠ
onlyĠtheĠ windowĠ
chosenĠ design.ĠTheĠ
timefram esĠandĠareĠ
B1Ġ framesĠmeasureĠ
thereĠwillĠbeĠaĠ high-quality,Ġ
StretchedĠ&ĠMountedĠCanvasĠ orĠasĠaĠ
edge.ĠThereĠ isĠanĠexampleĠphotographĠofĠwhatĠthisĠlooksĠlikeĠinĠtheĠproductĠimageĠsectionĠaboveĠ(theĠ
fulfilmentĠ timeframesĠandĠareĠ
plexiglass ).Ġ
chooseĠtoĠaddĠaĠ MatĠBoardĠ
shippedĠflatĠ betweenĠ
sometimesĠ sentĠwithĠ
thoseĠwhoĠwishĠtoĠ frameĠtheĠ
sheets.Ġ B1Ġ
FrameĠ Measurements:
32ÃĹ44 cm,ĠhaveĠaĠ
insertedĠintoĠtheĠframe.ĠTheĠ matĠboardĠ
StretchedĠCanvasĠ ordersĠ
EachĠ optionĠisĠ
wood,ĠareĠ flat-
B1ĠframesĠmeasureĠ 72cmĠxĠ
44ÃĹ 61
cm,ĠhaveĠaĠ2cmĠwidthĠandĠaĠ2.5cmĠdepth.A 1Ġ
gallery-wrapped,ĠstretchedĠ andĠmountedĠ
Framed :IfĠyouĠ
MatteĠPaperĠPrint,Ġ Framed:IfĠyouĠ
chooseĠtoĠaddĠaĠMatĠBoardĠ toĠyourĠorder
isĠcommonlyĠchosenĠbyĠ thoseĠwhoĠwishĠtoĠframeĠtheĠ
EachĠoptionĠisĠ describedĠbelow
FramedĠPrint,Ġ StretchedĠ&ĠMountedĠCanvasĠorĠasĠaĠ
edge.ĠThereĠisĠanĠexampleĠphotographĠofĠwhatĠthisĠlooksĠlikeĠinĠtheĠproductĠimageĠsectionĠaboveĠ(theĠ 2ndĠproductĠimag
gloss y).ĠTheĠ
yourĠorderĠwillĠbeĠ professionallyĠfram
finishedĠproductĠ ifĠyouĠ
e). IfĠyouĠ
edge-to- edge.ĠThereĠisĠanĠexampleĠphotographĠofĠwhatĠthisĠlooksĠlikeĠinĠtheĠproductĠimageĠsectionĠaboveĠ(theĠ2ndĠproductĠimag
&Ġnon- glossy).ĠTheĠ
chooseĠtoĠaddĠaĠMatĠBoardĠtoĠyourĠorder :
isĠcommonlyĠchosenĠbyĠthoseĠwhoĠwishĠtoĠframeĠtheĠ designĠthemselv
e).IfĠyouĠ doĠnoĠchooseĠtoĠaddĠaĠ
cm,ĠhaveĠaĠ2cmĠwidthĠandĠaĠ2.5cmĠdepth.A1Ġ framesĠmeasureĠ
0Ġ framesĠmeasureĠ
premium-grade,Ġ 360gsmĠ
widthĠandĠaĠ2.5cmĠdepth.A 2Ġ
cardboardĠ sheets.ĠB1Ġ
colourĠ optionĠforĠ
purchaseĠ thisĠdesignĠasĠaĠ
youĠwillĠreceiveĠanĠun framedĠprin
framed.ĠThisĠ isĠcommonlyĠ
non-reflectiveĠ &Ġnon-glossy).ĠTheĠ
purchaseĠthisĠdesignĠasĠaĠ FramedĠPrint,ĠStretchedĠ&ĠMountedĠCanvasĠorĠasĠaĠ
2.5cmĠ widthĠandĠaĠ2.5cmĠdepth.A2Ġ
WeĠuseĠ premium-grade,Ġ360gsmĠ
shippedĠflatĠbetweenĠ ultra-toughĠ
44ÃĹ61 cm,ĠhaveĠaĠ2cmĠwidthĠandĠaĠ2.5cmĠdepth.A1ĠframesĠmeasureĠ
window,Ġ edge-to-edge.ĠThereĠisĠanĠexampleĠphotographĠofĠwhatĠthisĠlooksĠlikeĠinĠtheĠproductĠimageĠsectionĠaboveĠ(theĠ2ndĠproductĠimag
fulfilmentĠtimeframesĠandĠareĠ sometimesĠsentĠwithĠ
finishedĠproductĠifĠyouĠ chooseĠtoĠaddĠaĠMatĠBoardĠtoĠyourĠorder:
e).IfĠyouĠdoĠnoĠchooseĠtoĠaddĠaĠ MatĠBoard,ĠitĠmeansĠthatĠtheĠ
matteĠpaperĠ( non-reflectiveĠ&Ġnon-glossy).ĠTheĠ
ordersĠ takeĠ2-3Ġ
section .ĠAfterĠprinting,Ġ
onlyĠtheĠwindowĠ insideĠtheĠ
ordersĠtakeĠ2-3Ġ businessĠdaysĠ
purchaseĠthisĠdesignĠasĠaĠFramedĠPrint,ĠStretchedĠ&ĠMountedĠCanvasĠorĠasĠaĠ MatteĠPaperĠPrin
e).IfĠyouĠdoĠnoĠchooseĠtoĠaddĠaĠMatĠBoard,ĠitĠmeansĠthatĠtheĠ designĠwillĠfillĠ
framesĠmeasureĠ 44ÃĹ61cm,ĠhaveĠaĠ2cmĠwidthĠandĠaĠ2.5cmĠdepth.A1ĠframesĠmeasureĠ
thick,Ġdurable,Ġ matteĠpaperĠ(non-reflectiveĠ&Ġnon-glossy).ĠTheĠ
0ĠframesĠmeasureĠ 88cmĠxĠ125
describesĠtheĠ finishedĠproductĠifĠyouĠchooseĠtoĠaddĠaĠMatĠBoardĠtoĠyourĠorder:
givesĠtheĠdesignĠaĠ whiteĠborderĠ
printedĠofĠhigh-qualityĠ canvasĠmaterial,Ġ
woodenĠframe. StretchedĠCanvasĠordersĠ
yourĠorderĠtoĠtheĠsameĠspecificationsĠ describedĠinĠtheĠ
wood,ĠareĠflat- edgedĠandĠ
paperĠweĠuseĠ toĠprintĠ
optionĠ isĠcommonlyĠchosenĠbyĠthoseĠwhoĠwishĠtoĠframeĠtheĠdesignĠthemselv
aroundĠaĠwoodenĠframe. WeĠuseĠpremium-grade,Ġ360gsmĠ
aroundĠaĠwoodenĠframe.WeĠuseĠpremium-grade,Ġ360gsmĠ canvasĠmaterial.
ordersĠtakeĠ2-3ĠbusinessĠdaysĠ longerĠthanĠ
museum-quality,Ġ thick,Ġdurable,ĠmatteĠpaperĠ(non-reflectiveĠ&Ġnon-glossy).ĠTheĠ
YouĠmayĠ purchaseĠthisĠdesignĠasĠaĠFramedĠPrint,ĠStretchedĠ&ĠMountedĠCanvasĠorĠasĠaĠMatteĠPaperĠPrin
yourĠorderĠwillĠbeĠ printedĠofĠhigh-qualityĠcanvasĠmaterial,Ġ
e).IfĠyouĠdoĠnoĠchooseĠtoĠaddĠaĠMatĠBoard,ĠitĠmeansĠthatĠtheĠdesignĠwillĠfillĠ theĠframeĠ
otherĠthanĠ AustraliaĠPost
86 cm,ĠhaveĠaĠ2cmĠwidthĠandĠaĠ2.5cmĠdepth.
thĠproductĠimag e).IfĠyouĠdoĠnoĠchooseĠtoĠaddĠaĠMatĠBoard,ĠitĠmeansĠthatĠtheĠdesignĠwillĠfillĠtheĠframeĠ
museum-quality,Ġthick,Ġdurable,ĠmatteĠpaperĠ(non-reflectiveĠ&Ġnon-glossy).ĠTheĠ inksĠ
aroundĠaĠwoodenĠframe.WeĠuseĠpremium-grade,Ġ360gsmĠcanvasĠmaterial. Gallery-
chosenĠdesign.ĠTheĠ paperĠweĠuseĠtoĠprintĠ
matĠboardĠ insertedĠintoĠtheĠframe.ĠTheĠmatĠboardĠ
weĠwillĠprintĠ yourĠorderĠtoĠtheĠsameĠspecificationsĠdescribedĠinĠtheĠ
WithĠ MatĠBoard
250ĠGSMĠ museum-quality,Ġthick,Ġdurable,ĠmatteĠpaperĠ(non-reflectiveĠ&Ġnon-glossy).ĠTheĠinksĠ
option,Ġ weĠwillĠprintĠyourĠorderĠtoĠtheĠsameĠspecificationsĠdescribedĠinĠtheĠ
chosenĠdesign.ĠTheĠpaperĠweĠuseĠtoĠprintĠ onĠisĠ
thĠproductĠimage).IfĠyouĠdoĠnoĠchooseĠtoĠaddĠaĠMatĠBoard,ĠitĠmeansĠthatĠtheĠdesignĠwillĠfillĠtheĠframeĠ window,Ġedge-to-edge.ĠThereĠisĠanĠexampleĠphotographĠofĠwhatĠthisĠlooksĠlikeĠinĠtheĠproductĠimageĠsectionĠaboveĠ(theĠ2ndĠproductĠimag
aroundĠaĠwoodenĠframe.WeĠuseĠpremium-grade,Ġ360gsmĠcanvasĠmaterial.Gallery- wrappedĠonĠaĠ3cmĠdeepĠ
couriersĠ otherĠthanĠAustraliaĠPost
matĠboardĠinsertedĠintoĠtheĠframe.ĠTheĠmatĠboardĠ givesĠtheĠdesignĠaĠwhiteĠborderĠ
section.ĠAfterĠprinting,Ġ yourĠorderĠwillĠbeĠprofessionallyĠfram
shippedĠflatĠbetweenĠultra-toughĠ cardboardĠsheets.ĠB1Ġ
gallery-wrapped,ĠstretchedĠandĠmountedĠ aroundĠaĠwoodenĠframe.WeĠuseĠpremium-grade,Ġ360gsmĠcanvasĠmaterial.Gallery-wrappedĠonĠaĠ3cmĠdeepĠ
matĠboardĠinsertedĠintoĠtheĠframe.ĠTheĠmatĠboardĠgivesĠtheĠdesignĠaĠwhiteĠborderĠ alongĠtheĠinsideĠedgeĠofĠtheĠ
ordersĠareĠ shippedĠflatĠbetweenĠultra-toughĠcardboardĠsheets.ĠB1Ġ
gallery-wrapped,ĠstretchedĠandĠmountedĠaroundĠaĠwoodenĠframe.WeĠuseĠpremium-grade,Ġ360gsmĠcanvasĠmaterial.Gallery-wrappedĠonĠaĠ3cmĠdeepĠ woodenĠframe.StretchedĠCanvasĠordersĠ
250ĠGSMĠmuseum-quality,Ġthick,Ġdurable,ĠmatteĠpaperĠ(non-reflectiveĠ&Ġnon-glossy).ĠTheĠinksĠ weĠuseĠareĠ
thĠproductĠimage).IfĠyouĠdoĠnoĠchooseĠtoĠaddĠaĠMatĠBoard,ĠitĠmeansĠthatĠtheĠdesignĠwillĠfillĠtheĠframeĠwindow,Ġedge-to-edge.ĠThereĠisĠanĠexampleĠphotographĠofĠwhatĠthisĠlooksĠlikeĠinĠtheĠproductĠimageĠsectionĠaboveĠ(theĠ2ndĠproductĠimag e).
option,ĠweĠwillĠprintĠyourĠorderĠtoĠtheĠsameĠspecificationsĠdescribedĠinĠtheĠ âĢľ
realĠglass,ĠnotĠ plexiglass).Ġ
youĠwillĠreceiveĠanĠunframedĠprin tĠofĠyourĠ
andĠA0Ġ sizesĠareĠ
thĠproductĠimage).IfĠyouĠdoĠnoĠchooseĠtoĠaddĠaĠMatĠBoard,ĠitĠmeansĠthatĠtheĠdesignĠwillĠfillĠtheĠframeĠwindow,Ġedge-to-edge.ĠThereĠisĠanĠexampleĠphotographĠofĠwhatĠthisĠlooksĠlikeĠinĠtheĠproductĠimageĠsectionĠaboveĠ(theĠ2ndĠproductĠimage). AllĠframesĠ
250ĠGSMĠmuseum-quality,Ġthick,Ġdurable,ĠmatteĠpaperĠ(non-reflectiveĠ&Ġnon-glossy).ĠTheĠinksĠweĠuseĠareĠ high-qualityĠandĠUVĠprotected,Ġ
andĠA0ĠsizesĠareĠ shippedĠcarefullyĠ
youĠwillĠreceiveĠanĠunframedĠprintĠofĠyourĠ chosenĠdesign.ĠTheĠpaperĠweĠuseĠtoĠprintĠonĠisĠ
Canvas: ThereĠisĠanĠoptionĠtoĠ
e,ĠshowingĠtheĠ DarkĠOakĠ
yourĠorderĠwillĠbeĠprintedĠofĠhigh-qualityĠcanvasĠmaterial,Ġ gallery-wrapped,ĠstretchedĠandĠmountedĠaroundĠaĠwoodenĠframe.WeĠuseĠpremium-grade,Ġ360gsmĠcanvasĠmaterial.Gallery-wrappedĠonĠaĠ3cmĠdeepĠwoodenĠframe.StretchedĠCanvasĠordersĠ
2.5cmĠwidthĠandĠaĠ2.5cmĠdepth.A2Ġ framesĠmeasureĠ44ÃĹ61cm,ĠhaveĠaĠ2cmĠwidthĠandĠaĠ2.5cmĠdepth.A1ĠframesĠmeasureĠ
:IfĠyouĠ chooseĠtheĠ
youĠwillĠreceiveĠanĠunframedĠprintĠofĠyourĠchosenĠdesign.ĠTheĠpaperĠweĠuseĠtoĠprintĠonĠisĠ 250ĠGSMĠmuseum-quality,Ġthick,Ġdurable,ĠmatteĠpaperĠ(non-reflectiveĠ&Ġnon-glossy).ĠTheĠinksĠweĠuseĠareĠhigh-qualityĠandĠUVĠprotected,Ġ
7thĠproductĠimag e,ĠshowingĠtheĠDarkĠOakĠ
phon esĠ
86cm,ĠhaveĠaĠ2cmĠwidthĠandĠaĠ2.5cmĠdepth. B1ĠframesĠmeasureĠ72cmĠxĠ
whiteĠcolouredĠ matĠboardĠinsertedĠintoĠtheĠframe.ĠTheĠmatĠboardĠgivesĠtheĠdesignĠaĠwhiteĠborderĠalongĠtheĠinsideĠedgeĠofĠtheĠ
andĠA0ĠsizesĠareĠshippedĠcarefullyĠ rolledĠinĠlargeĠtub
youĠwillĠreceiveĠanĠunframedĠprintĠofĠyourĠchosenĠdesign.ĠTheĠpaperĠweĠuseĠtoĠprintĠonĠisĠ250ĠGSMĠmuseum-quality,Ġthick,Ġdurable,ĠmatteĠpaperĠ(non-reflectiveĠ&Ġnon-glossy).ĠTheĠinksĠweĠuseĠareĠhigh-qualityĠandĠUVĠprotected,Ġ theyĠwillĠ
.ĠThereĠisĠanĠexampleĠphotographĠofĠwhatĠthisĠlooksĠlikeĠinĠtheĠproductĠimageĠsectionĠaboveĠ(theĠ 7thĠproductĠimage,ĠshowingĠtheĠDarkĠOakĠ
32ÃĹ44cm,ĠhaveĠaĠ 2.5cmĠwidthĠandĠaĠ2.5cmĠdepth.A2ĠframesĠmeasureĠ44ÃĹ61cm,ĠhaveĠaĠ2cmĠwidthĠandĠaĠ2.5cmĠdepth.A1ĠframesĠmeasureĠ
FramedĠ Canvas:ThereĠisĠanĠoptionĠtoĠ
framed.ĠThisĠisĠcommonlyĠ calledĠaĠâĢľ
frame.ĠTheĠ designĠwillĠfillĠ
StretchedĠCanvas).Ġ YouĠcanĠchooseĠbetweenĠaĠ
theseĠframesĠareĠpackagedĠ extremelyĠcare
ToĠpreventĠbreakageĠ whileĠinĠtransit,Ġ
meansĠthatĠ thereĠwillĠbeĠaĠhigh-quality,Ġ
youĠwillĠreceiveĠanĠunframedĠprintĠofĠyourĠchosenĠdesign.ĠTheĠpaperĠweĠuseĠtoĠprintĠonĠisĠ250ĠGSMĠmuseum-quality,Ġthick,Ġdurable,ĠmatteĠpaperĠ(non-reflectiveĠ&Ġnon-glossy).ĠTheĠinksĠweĠuseĠareĠhigh-qualityĠandĠUVĠprotected,ĠtheyĠwillĠ lastĠaĠlifetime.ĠThisĠ
frame.ĠTheĠdesignĠwillĠfillĠ onlyĠtheĠwindowĠinsideĠtheĠ
ordersĠareĠshippedĠflatĠbetweenĠultra-toughĠcardboardĠsheets.ĠB1Ġ andĠA0ĠsizesĠareĠshippedĠcarefullyĠrolledĠinĠlargeĠtub
realĠglass,ĠnotĠplexiglass).Ġ ToĠpreventĠbreakageĠwhileĠinĠtransit,Ġ
86cm,ĠhaveĠaĠ2cmĠwidthĠandĠaĠ2.5cmĠdepth.B1ĠframesĠmeasureĠ72cmĠxĠ 102
.ĠThereĠisĠanĠexampleĠphotographĠofĠwhatĠthisĠlooksĠlikeĠinĠtheĠproductĠimageĠsectionĠaboveĠ(theĠ7thĠproductĠimage,ĠshowingĠtheĠDarkĠOakĠ frameĠaroundĠtheĠ
A3ĠframesĠmeasureĠ 32ÃĹ44cm,ĠhaveĠaĠ2.5cmĠwidthĠandĠaĠ2.5cmĠdepth.A2ĠframesĠmeasureĠ44ÃĹ61cm,ĠhaveĠaĠ2cmĠwidthĠandĠaĠ2.5cmĠdepth.A1ĠframesĠmeasureĠ
glassĠwindowĠ(thisĠisĠ realĠglass,ĠnotĠplexiglass).ĠToĠpreventĠbreakageĠwhileĠinĠtransit,Ġ
frame.ĠTheĠdesignĠwillĠfillĠonlyĠtheĠwindowĠinsideĠtheĠ matĠboard
youĠwillĠreceiveĠanĠunframedĠprintĠofĠyourĠchosenĠdesign.ĠTheĠpaperĠweĠuseĠtoĠprintĠonĠisĠ250ĠGSMĠmuseum-quality,Ġthick,Ġdurable,ĠmatteĠpaperĠ(non-reflectiveĠ&Ġnon-glossy).ĠTheĠinksĠweĠuseĠareĠhigh-qualityĠandĠUVĠprotected,ĠtheyĠwillĠlastĠaĠlifetime.ĠThisĠ optionĠisĠcommonlyĠchosenĠbyĠthoseĠwhoĠwishĠtoĠframeĠtheĠdesignĠthemselv
FrameĠMeasurements: A3ĠframesĠmeasureĠ32ÃĹ44cm,ĠhaveĠaĠ2.5cmĠwidthĠandĠaĠ2.5cmĠdepth.A2ĠframesĠmeasureĠ44ÃĹ61cm,ĠhaveĠaĠ2cmĠwidthĠandĠaĠ2.5cmĠdepth.A1ĠframesĠmeasureĠ
.ĠThereĠisĠanĠexampleĠphotographĠofĠwhatĠthisĠlooksĠlikeĠinĠtheĠproductĠimageĠsectionĠaboveĠ(theĠ7thĠproductĠimage,ĠshowingĠtheĠDarkĠOakĠframeĠaroundĠtheĠ StretchedĠCanvas).ĠYouĠcanĠchooseĠbetweenĠaĠ
whiteĠcolouredĠmatĠboardĠinsertedĠintoĠtheĠframe.ĠTheĠmatĠboardĠgivesĠtheĠdesignĠaĠwhiteĠborderĠalongĠtheĠinsideĠedgeĠofĠtheĠ frame.ĠTheĠdesignĠwillĠfillĠonlyĠtheĠwindowĠinsideĠtheĠmatĠboard
option,Ġ youĠwillĠreceiveĠanĠunframedĠprintĠofĠyourĠchosenĠdesign.ĠTheĠpaperĠweĠuseĠtoĠprintĠonĠisĠ250ĠGSMĠmuseum-quality,Ġthick,Ġdurable,ĠmatteĠpaperĠ(non-reflectiveĠ&Ġnon-glossy).ĠTheĠinksĠweĠuseĠareĠhigh-qualityĠandĠUVĠprotected,ĠtheyĠwillĠlastĠaĠlifetime.ĠThisĠoptionĠisĠcommonlyĠchosenĠbyĠthoseĠwhoĠwishĠtoĠframeĠtheĠdesignĠthemselv
61ÃĹ 86cm,ĠhaveĠaĠ2cmĠwidthĠandĠaĠ2.5cmĠdepth.B1ĠframesĠmeasureĠ72cmĠxĠ102
meansĠthatĠthereĠwillĠbeĠaĠhigh-quality,Ġ whiteĠcolouredĠmatĠboardĠinsertedĠintoĠtheĠframe.ĠTheĠmatĠboardĠgivesĠtheĠdesignĠaĠwhiteĠborderĠalongĠtheĠinsideĠedgeĠofĠtheĠframe.ĠTheĠdesignĠwillĠfillĠonlyĠtheĠwindowĠinsideĠtheĠmatĠboard
FramedĠCanvas:ThereĠisĠanĠoptionĠtoĠ haveĠyourĠ
FrameĠMeasurements:A3ĠframesĠmeasureĠ32ÃĹ44cm,ĠhaveĠaĠ2.5cmĠwidthĠandĠaĠ2.5cmĠdepth.A2ĠframesĠmeasureĠ44ÃĹ61cm,ĠhaveĠaĠ2cmĠwidthĠandĠaĠ2.5cmĠdepth.A1ĠframesĠmeasureĠ 61ÃĹ86cm,ĠhaveĠaĠ2cmĠwidthĠandĠaĠ2.5cmĠdepth.B1ĠframesĠmeasureĠ72cmĠxĠ102
FloatingĠ Canvas
fulfilmentĠtimeframesĠandĠareĠsometimesĠsentĠwithĠ couriersĠotherĠthanĠAustraliaĠPost
MatĠBoard :BelowĠ
colourĠ frame.ĠâĢľ
MatteĠPaperĠPrint,ĠFramed:IfĠyouĠ chooseĠthisĠ
.ĠThereĠisĠanĠexampleĠphotographĠofĠwhatĠthisĠlooksĠlikeĠinĠtheĠproductĠimageĠsectionĠaboveĠ(theĠ 5
section.ĠAfterĠprinting,ĠyourĠorderĠwillĠbeĠprofessionallyĠfram ed.ĠOurĠframesĠareĠmadeĠfromĠ
MatĠBoard:BelowĠ describesĠtheĠfinishedĠproductĠifĠyouĠchooseĠtoĠaddĠaĠMatĠBoardĠtoĠyourĠorder:
meansĠthatĠthereĠwillĠbeĠaĠhigh-quality,ĠwhiteĠcolouredĠmatĠboardĠinsertedĠintoĠtheĠframe.ĠTheĠmatĠboardĠgivesĠtheĠdesignĠaĠwhiteĠborderĠalongĠtheĠinsideĠedgeĠofĠtheĠframe.ĠTheĠdesignĠwillĠfillĠonlyĠtheĠwindowĠinsideĠtheĠmatĠboard .ĠThereĠisĠanĠexampleĠphotographĠofĠwhatĠthisĠlooksĠlikeĠinĠtheĠproductĠimageĠsectionĠaboveĠ(theĠ5
ourĠnormalĠ fulfilmentĠtimeframesĠandĠareĠsometimesĠsentĠwithĠcouriersĠotherĠthanĠAustraliaĠPost
MatteĠPaperĠPrint,ĠFramed:IfĠyouĠchooseĠthisĠ option,ĠweĠwillĠprintĠyourĠorderĠtoĠtheĠsameĠspecificationsĠdescribedĠinĠtheĠâĢľ
comeĠwithĠaĠ glassĠwindowĠ(thisĠisĠrealĠglass,ĠnotĠplexiglass).ĠToĠpreventĠbreakageĠwhileĠinĠtransit,Ġ
comeĠwithĠaĠglassĠwindowĠ(thisĠisĠrealĠglass,ĠnotĠplexiglass).ĠToĠpreventĠbreakageĠwhileĠinĠtransit,Ġ theseĠframesĠareĠpackagedĠextremelyĠcare
meansĠthatĠthereĠwillĠbeĠaĠhigh-quality,ĠwhiteĠcolouredĠmatĠboardĠinsertedĠintoĠtheĠframe.ĠTheĠmatĠboardĠgivesĠtheĠdesignĠaĠwhiteĠborderĠalongĠtheĠinsideĠedgeĠofĠtheĠframe.ĠTheĠdesignĠwillĠfillĠonlyĠtheĠwindowĠinsideĠtheĠmatĠboard.ĠThereĠisĠanĠexampleĠphotographĠofĠwhatĠthisĠlooksĠlikeĠinĠtheĠproductĠimageĠsectionĠaboveĠ(theĠ5 thĠproductĠimage).IfĠyouĠdoĠnoĠchooseĠtoĠaddĠaĠMatĠBoard,ĠitĠmeansĠthatĠtheĠdesignĠwillĠfillĠtheĠframeĠwindow,Ġedge-to-edge.ĠThereĠisĠanĠexampleĠphotographĠofĠwhatĠthisĠlooksĠlikeĠinĠtheĠproductĠimageĠsectionĠaboveĠ(theĠ2ndĠproductĠimage).AllĠframesĠ
wood,ĠareĠflat-edgedĠandĠ comeĠwithĠaĠglassĠwindowĠ(thisĠisĠrealĠglass,ĠnotĠplexiglass).ĠToĠpreventĠbreakageĠwhileĠinĠtransit,ĠtheseĠframesĠareĠpackagedĠextremelyĠcare
ordersĠtakeĠ2-3ĠbusinessĠdaysĠlongerĠthanĠ ourĠnormalĠfulfilmentĠtimeframesĠandĠareĠsometimesĠsentĠwithĠcouriersĠotherĠthanĠAustraliaĠPost
section.ĠAfterĠprinting,ĠyourĠorderĠwillĠbeĠprofessionallyĠframed.ĠOurĠframesĠareĠmadeĠfromĠ wood,ĠareĠflat-edgedĠandĠcomeĠwithĠaĠglassĠwindowĠ(thisĠisĠrealĠglass,ĠnotĠplexiglass).ĠToĠpreventĠbreakageĠwhileĠinĠtransit,ĠtheseĠframesĠareĠpackagedĠextremelyĠcare
option.Ġ MatteĠPaperĠPrint,ĠNoĠFram
style .ĠThereĠisĠanĠexampleĠphotographĠofĠwhatĠthisĠlooksĠlikeĠinĠtheĠproductĠimageĠsectionĠaboveĠ(theĠ7thĠproductĠimage,ĠshowingĠtheĠDarkĠOakĠframeĠaroundĠtheĠStretchedĠCanvas).ĠYouĠcanĠchooseĠbetweenĠaĠ
âĢľFramedĠ Prints
option,Ġ yourĠorderĠwillĠbeĠprintedĠofĠhigh-qualityĠcanvasĠmaterial,Ġgallery-wrapped,ĠstretchedĠandĠmountedĠaroundĠaĠwoodenĠframe.WeĠuseĠpremium-grade,Ġ360gsmĠcanvasĠmaterial.Gallery-wrappedĠonĠaĠ3cmĠdeepĠwoodenĠframe.StretchedĠCanvasĠordersĠ
F ood
stit ut
p rim
puzz leĠ
Ul tra-
Eco-Friend lyĠ
X R
Abov e-
v entĠ
Todd lerĠ
. 00ÃĹ
v es
f ishingĠ
Key chainĠ
ĠF loorĠ
quiltĠ coverĠ
M i
ts :Ġ
C OMP
annivers aryĠ
edĠ orĠ
TradingĠCards|TradingĠ CardĠS
TradingĠCards|TradingĠCardĠS ingles
Let terĠ
Bracel et
T-ShirtĠ (
ph enomen
Max imumĠ
Li br
Se alĠ
Tow el
DÃ© cor
ourĠ bestĠ
al oneĠ
Lic ens
ĠT ur
w ea
ins ol
poin tsĠ
atten tionĠ
fr ictionĠ
St ateĠ
ModelĠBuil d
us crip
cmĠ( 5
.Ġ E
mov ingĠ
H oopĠ
ĠPack ag
Clothing,ĠShoesĠ&ĠAccessories/Clothing,ĠShoesĠ&ĠAccessories/NoveltyĠ&ĠSpecialĠUse/NoveltyĠ Jewellery
fieldĠ ofĠ
Min iĠ
c onĠ
StainlessĠ steelĠ
vis ibilityĠ
andĠ hisĠ
ant aĠ
sĠofĠ aĠ
ĠW aterĠ
PleaseĠnoteĠ thatĠ
P inĠ
Ps ych
youĠ needĠforĠ
ĠR oundĠ
T -SHIRTS
find sĠ
C el
od yn
ãĢĳ -Ġ
inc eĠtheĠ
m ouseĠ
stand sĠ
sn apĠ
E coĠ
asĠ weĠ
Law nĠ
- 40
qual ity.Ġ
ou s,Ġ
though tĠ
2 6Ġ
Fil ters
can âĢĻtĠ
, 000
TH E
? ĠTheĠ
eng in
Meas uresĠ
,Ġ noĠ
c ylĠ
ScreenĠ Protec
esĠandĠ theĠ
N ap
ad oĠ
Round /
H atĠ
f arm
/Ġ 6
L ook
C orn
A ĠS
xĠ W
Jack ets
J os
sist er,Ġ
Cook ingĠ
natur allyĠ
ĠSup erĠ
F ather
P rimaryĠ
inĠSingleĠ BendĠShifterĠArmĠ
earring sĠareĠ
< h2>
b ellĠ
serv ice,Ġ
carr yingĠ
ic onicĠ
childr en,Ġ
Ġ100 %
B ann
ies ,ĠandĠ
P iercingĠ
R iv
C op
Appl ic
packag ingĠ
designĠ forĠ
fre e.Ġ
d ess
4 ĠM
pl ent
canĠbeĠus edĠtoĠ
op r
HealthĠ&ĠBeaut yĠ
do ingĠ
appropri ateĠ
for e
youĠ donâĢĻtĠ
j ack
Eg yp
46 cmĠxĠ
Life timeĠ
VehicleĠPartsĠ&ĠAccessories|CarĠ&ĠTruckĠParts|BrakesĠ&ĠBrakeĠParts| Discs
With outĠ
? ĠĠ
ĠCer ti
ec hĠ
ch icĠ
enc e.Ġ
U MĠ
WithĠ theĠ
Â° C
T E
mo sĠ
res il
if i
roleĠ ofĠ
clut chĠ
A geĠ
P ump
P ain
B irdĠ
200 3
remark ableĠ
f ather
at ingĠandĠ
F EATURE
ersĠ withĠ
re vis
Com esĠwithĠ
- 10
ol derĠ
ro man
out put
andĠ areĠ
Fr uitĠ
ĠC ool
ĠS creenĠ
2 8Ġ
ĠSe atĠ
meas uringĠ
colours.ĠThisĠisĠsubjectĠtoĠavailabilityĠandĠcanĠbeĠsearchedĠonĠKoganĠusingĠtheĠproductĠID:ĠUT PC
R ot
ĠF UL
p ainĠ
C ubicĠZ
he el
6 Ġ(
protec tion,Ġ
tes tingĠ
Y es-
lov e,Ġ
allĠ ofĠ
augh tĠ
cre am
is onĠ
3DĠDuvetĠ cover
pocket s.Ġ
QuiltĠCoverĠSetĠBeddingĠSetĠPillowcasesĠ 3DĠDuvetĠcover
mo bil
Cre am
Rac ingĠ
MaterialĠ Details:Ġ
edĠtoĠ beĠ
ew earĠ
e !Ġ
( 10
si p
w rapĠ
Instruc tionsĠ
Kn ifeĠ
h opeĠ
W ayĠ
AC Del
fre elyĠ
0 3
L oc
J erseyĠ
toĠ fitĠ
model sĠ
ToysĠ&ĠGames/ToysĠ&ĠGames/ArtsĠ&ĠCraftsĠ Supplies/
enjoyĠ theĠ
ĠCh ristmasĠ
s to
he mĠ
collectionĠ includesĠ
ins ulatedĠ
Ġ1 ĠxĠ
P ureĠ
A lex
Pan els
a iĠ
h itĠ
th irdĠ
Includ ed:Ġ
R F
ra mĠ
fin ancialĠ
ĠWallpaperĠWallĠMuralsĠRemovableĠSelf-adhesiveĠ Zoe
D er
ud g
N onĠ
im ensionĠ
Gr ou
st ream
â Ĥ
P ic
appl ic
M enâĢĻsĠ
ity,Ġ andĠ
nav ig
StationeryĠ&ĠOfficeĠProducts/OfficeĠProducts/OfficeĠ PaperĠ
OMFOR T
life timeĠ
,Ġ 3
1 x
Sens orĠ
BM W
sh el
hold sĠ
StationeryĠ&ĠOfficeĠProducts/OfficeĠProducts/OfficeĠPaperĠ Products/
thre at
K itch
4 00Ġ
E SĠ
ution aryĠ
Hor seĠ
R ollĠ
pr iceĠ
y ;Ġ
bel ovedĠ
ra ti
6 5Ġ
D am
âĤ ¬
s am
ext endedĠ
beauti ful
framedĠ paperĠ
A ĠP
ComputerĠ Accessories/
V D
M ER
design .Ġ
Prac ticalĠ
if yĠ
ĠF or
e en,Ġ
p anĠ
si x
ar om
respon si
w ill
Ro ofĠ
Super iorĠ
1 )
aff ec
ureth aneĠ
i etĠ
2 ĠS
ple mentĠ
workĠ ofĠ
wheel sĠ
ble ach
connec torĠ
rink leĠ
sĠ AndĠ
St re
3/ 4
.Ġ Sh
Ether netĠ
succ essĠ
Accessor yĠ
an -
att achĠ
ador ableĠ
toĠ findĠ
pow derĠ
es )
Tec hĠ
Un itĠ
AT ED
P etsĠ
adv iceĠ
wi de
EasyĠ ToĠ
bur g
b adĠ
ic ureĠ
i thĠ
dom esticĠ
Em bell
ĠHOL DER
b usiness
Be foreĠ
rec over
D eg
m sĠ
s lightĠ
Temper atureĠ
aĠf ewĠ
46cmĠxĠ 75
ĠP artĠ
sĠareĠ design
dec om
carryĠ yourĠ
Aerof lowĠ
V ide
withoutĠ causingĠ
%Ġ polyester
Protec tion
prec is
P airĠ
VehicleĠPartsĠ&ĠAccessories|MotorcycleĠParts|BrakesĠ&ĠSuspension| BrakeĠPads
tion s.Ġ
Table tĠ
1. 0
R ever
Sand als
Liv ingĠ
ĠR em
sp ot
mA hĠ
2 80
VEHIC LEĠ
v e,Ġ
ev alu
so ap
s ),Ġ
CameraĠ&ĠPhoto/Electronics/MobileĠPhonesĠ&ĠCommunication/MobileĠPhoneĠAccessories/MobileĠPhoneĠCasesĠ&ĠCovers/ MobileĠPhoneĠ
dec ision
CoverĠ withĠ
Component sĠ&Ġ
br aĠ
:Ġ D
V anĠ
ÂłÂł ÂłÂł
nĠ andĠ
g ear
for g
âĦ¢ Ġ
Wash ableĠ
ar ies,Ġ
aĠ littleĠ
examin esĠtheĠ
B il
Indic ator
Th rottleĠ
b ann
ear ringĠ
L ookĠ
Fl at
f oilĠ
Holder s
red ,Ġ
feel sĠ
Wind shieldĠ
&amp ;Ġ
st sĠ
text uredĠ
Hy poallergen
on es
Bo y
IT S
6 50
n earlyĠ
ai thĠ
a e
ClothingĠ&ĠAccessoriesĠ> ĠClothingĠ>
ve yĠ
at e.Ġ
ineĠ andĠ
world ,Ġ
Imp actĠ
Includ ed
f if
KitchenĠ -Ġ
vehic le,Ġ
ĠB oo
withĠ herĠ
t able,Ġ
A x
s,Ġ orĠ
tra dition
0. 9
sĠforĠ maximumĠ
B edd
m irr
:Ġ M
and sĠofĠ
i ĠP
âĢĵĠ TheĠ
withĠ theseĠ
alumin iumĠ
f atigu
customiz ableĠ
MusicalĠInstrument s|
Aer oĠ
Sum merĠ
, Âł
compon entsĠ
PackageĠCont entsĠ
ĠP ictureĠ
Num ber:Ġ
st ressĠ
Tra yĠ
qu ot
s,Ġ includingĠ
shir ts,
i DriveĠ
gl itterĠ
P ri
tr uc
F oil
ĠWi relessĠ
St epĠ
+ ĠS
priv ateĠ
instruc tionsĠ
Hom e
W earĠ
canĠbeĠ easilyĠ
Ch ur
bothĠ theĠ
b eddingĠ
5 50
Buck le-
abil ity
o on
becomeĠ aĠ
form ,Ġ
OR Ġ
J an
2. 2
f urnitureĠ
fromĠ yourĠ
thick nessĠ
Round/ Square-
12 V
</ h2>
addi tion,Ġ
Boo tsĠ
mus ic
un itĠ
con ce
P ressĠ
handlesĠ areĠ
W iperĠBl
T ig
C oreĠ
ShifterĠ armĠ
ĠD I
pleaseĠfeelĠfreeĠtoĠ contactĠ
2 70
Pre -
Clothing,ĠShoesĠ&ĠAccessories/Clothing,ĠShoesĠ&ĠAccessories/NoveltyĠ&ĠSpecialĠUse/NoveltyĠJewellery /NoveltyĠ
Vers ati
you .
Ch arac
wardro be
b ust
tw o-
ne igh
ToysĠ&ĠGames/ToysĠ&ĠGames/Kids'ĠPartyĠSupplies/Kids'ĠPartyĠ Decorations/
reduc esĠ
hour sĠofĠ
cou pl
ot an
Ex p
man uscrip
z enĠ
Specification sĠ
um ,Ġ
d ash
^ -
Parti esĠ&Ġ
No tic
SuperĠ KingĠ
sleev esĠ
Rug sĠ&ĠCarpet
( D
Int ell
^- ^
HomeĠ&ĠGarden| RugsĠ&ĠCarpet
19 0
app leĠ
incredi bleĠ
reas onĠ
up per
HomeĠ&ĠGarden|RugsĠ&ĠCarpet s|
ch romeĠ
Recyc ledĠ
b ind
whit e,Ġ
~ ^-^
appl iedĠ
Lin kĠ
f leeceĠ
wel dingĠ
P rem
Ank leĠ
EN Ġ
Connec torĠ
ĠMet alĠ
shir t,Ġ
PartiesĠ&Ġ Occasion
isĠtheĠ bestĠ
DIY ,Ġ
ut elyĠ
Fem aleĠ
end er
ĠGre atĠ
g al
In k
publish edĠinĠ
optim umĠ
sk in-
ĠBCHW ĠWallĠMuralsĠWallpaperĠMuralsĠ
comfor t,Ġ
HomeĠ&ĠGarden|RugsĠ&ĠCarpets| FloorĠRugs
F ur
a str
c ov
ĠBlu e
D uc
Alumin iumĠ
P lasticĠ
2 ĠM
CanĠbeĠ usedĠasĠ
prin c
Reg ul
b oldĠ
sav ingĠ
BlackĠ Knob
UR N
10 mmĠ
edic atedĠ
prov enĠ
- inĠ
TheĠ S
ĠP an
theĠ rightĠ
wouldĠ beĠ
T ouchĠ
ĠA v
n o-
ĠF ullĠ
ed roomĠ
ĠG AM
Improv edĠ
ex pectedĠ
âĢĿ,Ġ âĢľBlack
C SĠ
.-Ġ Size:Ġ
accessor ies,Ġ
MatteĠPaperĠPrint,ĠFramed:IfĠyouĠchooseĠthisĠoption,ĠweĠwillĠprintĠyourĠorderĠtoĠtheĠsameĠspecificationsĠdescribedĠinĠtheĠâĢľ MatteĠPaperĠPrin
colourĠoptionĠforĠ âĢľStretchedĠ&ĠMountedĠCanvas
âĢľBlack âĢĿ,Ġ
âĢľBlackâĢĿ,Ġ âĢľWhite
OakâĢĿĠisĠnotĠavailableĠasĠaĠ âĢľFramedĠPaperĠPrin
ordersĠtakeĠ2-3ĠbusinessĠdaysĠlongerĠthanĠourĠnormalĠfulfilmentĠtimeframesĠandĠareĠsometimesĠsentĠwithĠcouriersĠotherĠthanĠAustraliaĠPost .
meansĠthatĠthereĠwillĠbeĠaĠhigh-quality,ĠwhiteĠcolouredĠmatĠboardĠinsertedĠintoĠtheĠframe.ĠTheĠmatĠboardĠgivesĠtheĠdesignĠaĠwhiteĠborderĠalongĠtheĠinsideĠedgeĠofĠtheĠframe.ĠTheĠdesignĠwillĠfillĠonlyĠtheĠwindowĠinsideĠtheĠmatĠboard.ĠThereĠisĠanĠexampleĠphotographĠofĠwhatĠthisĠlooksĠlikeĠinĠtheĠproductĠimageĠsectionĠaboveĠ(theĠ5thĠproductĠimage).IfĠyouĠdoĠnoĠchooseĠtoĠaddĠaĠMatĠBoard,ĠitĠmeansĠthatĠtheĠdesignĠwillĠfillĠtheĠframeĠwindow,Ġedge-to-edge.ĠThereĠisĠanĠexampleĠphotographĠofĠwhatĠthisĠlooksĠlikeĠinĠtheĠproductĠimageĠsectionĠaboveĠ(theĠ2ndĠproductĠimage).AllĠframesĠ arriveĠreadyĠtoĠhang.
âĢĿĠ style.ĠThereĠisĠanĠexampleĠphotographĠofĠwhatĠthisĠlooksĠlikeĠinĠtheĠproductĠimageĠsectionĠaboveĠ(theĠ7thĠproductĠimage,ĠshowingĠtheĠDarkĠOakĠframeĠaroundĠtheĠStretchedĠCanvas).ĠYouĠcanĠchooseĠbetweenĠaĠ
âĢĿ,ĠâĢľBlack âĢĿĠorĠâĢľ
FloatingĠCanvas âĢĿĠstyle.ĠThereĠisĠanĠexampleĠphotographĠofĠwhatĠthisĠlooksĠlikeĠinĠtheĠproductĠimageĠsectionĠaboveĠ(theĠ7thĠproductĠimage,ĠshowingĠtheĠDarkĠOakĠframeĠaroundĠtheĠStretchedĠCanvas).ĠYouĠcanĠchooseĠbetweenĠaĠ
OakâĢĿĠisĠnotĠavailableĠasĠaĠ colourĠoptionĠforĠâĢľStretchedĠ&ĠMountedĠCanvas
WithĠMatĠBoard âĢĿĠ
IfĠyouĠchooseĠtheĠ âĢľMatteĠPaperĠPrint,ĠNoĠFrameâĢĿĠ
:IfĠyouĠchooseĠtheĠ âĢľStretchedĠ&ĠMountedĠCanvasâĢĿĠ
framed.ĠThisĠisĠcommonlyĠcalledĠaĠâĢľ FloatingĠCanvasâĢĿĠstyle.ĠThereĠisĠanĠexampleĠphotographĠofĠwhatĠthisĠlooksĠlikeĠinĠtheĠproductĠimageĠsectionĠaboveĠ(theĠ7thĠproductĠimage,ĠshowingĠtheĠDarkĠOakĠframeĠaroundĠtheĠStretchedĠCanvas).ĠYouĠcanĠchooseĠbetweenĠaĠ
OakâĢĿĠisĠnotĠavailableĠasĠaĠcolourĠoptionĠforĠâĢľStretchedĠ&ĠMountedĠCanvas âĢĿ
WithĠMatĠBoardâĢĿĠ meansĠthatĠthereĠwillĠbeĠaĠhigh-quality,ĠwhiteĠcolouredĠmatĠboardĠinsertedĠintoĠtheĠframe.ĠTheĠmatĠboardĠgivesĠtheĠdesignĠaĠwhiteĠborderĠalongĠtheĠinsideĠedgeĠofĠtheĠframe.ĠTheĠdesignĠwillĠfillĠonlyĠtheĠwindowĠinsideĠtheĠmatĠboard.ĠThereĠisĠanĠexampleĠphotographĠofĠwhatĠthisĠlooksĠlikeĠinĠtheĠproductĠimageĠsectionĠaboveĠ(theĠ5thĠproductĠimage).IfĠyouĠdoĠnoĠchooseĠtoĠaddĠaĠMatĠBoard,ĠitĠmeansĠthatĠtheĠdesignĠwillĠfillĠtheĠframeĠwindow,Ġedge-to-edge.ĠThereĠisĠanĠexampleĠphotographĠofĠwhatĠthisĠlooksĠlikeĠinĠtheĠproductĠimageĠsectionĠaboveĠ(theĠ2ndĠproductĠimage).AllĠframesĠarriveĠreadyĠtoĠhang.
framed.ĠThisĠisĠcommonlyĠcalledĠaĠâĢľFloatingĠCanvasâĢĿĠstyle.ĠThereĠisĠanĠexampleĠphotographĠofĠwhatĠthisĠlooksĠlikeĠinĠtheĠproductĠimageĠsectionĠaboveĠ(theĠ7thĠproductĠimage,ĠshowingĠtheĠDarkĠOakĠframeĠaroundĠtheĠStretchedĠCanvas).ĠYouĠcanĠchooseĠbetweenĠaĠ âĢľWhite
âĢľ WithĠMatĠBoardâĢĿĠmeansĠthatĠthereĠwillĠbeĠaĠhigh-quality,ĠwhiteĠcolouredĠmatĠboardĠinsertedĠintoĠtheĠframe.ĠTheĠmatĠboardĠgivesĠtheĠdesignĠaĠwhiteĠborderĠalongĠtheĠinsideĠedgeĠofĠtheĠframe.ĠTheĠdesignĠwillĠfillĠonlyĠtheĠwindowĠinsideĠtheĠmatĠboard.ĠThereĠisĠanĠexampleĠphotographĠofĠwhatĠthisĠlooksĠlikeĠinĠtheĠproductĠimageĠsectionĠaboveĠ(theĠ5thĠproductĠimage).IfĠyouĠdoĠnoĠchooseĠtoĠaddĠaĠMatĠBoard,ĠitĠmeansĠthatĠtheĠdesignĠwillĠfillĠtheĠframeĠwindow,Ġedge-to-edge.ĠThereĠisĠanĠexampleĠphotographĠofĠwhatĠthisĠlooksĠlikeĠinĠtheĠproductĠimageĠsectionĠaboveĠ(theĠ2ndĠproductĠimage).AllĠframesĠarriveĠreadyĠtoĠhang.
âĢľWithĠMatĠBoardâĢĿĠmeansĠthatĠthereĠwillĠbeĠaĠhigh-quality,ĠwhiteĠcolouredĠmatĠboardĠinsertedĠintoĠtheĠframe.ĠTheĠmatĠboardĠgivesĠtheĠdesignĠaĠwhiteĠborderĠalongĠtheĠinsideĠedgeĠofĠtheĠframe.ĠTheĠdesignĠwillĠfillĠonlyĠtheĠwindowĠinsideĠtheĠmatĠboard.ĠThereĠisĠanĠexampleĠphotographĠofĠwhatĠthisĠlooksĠlikeĠinĠtheĠproductĠimageĠsectionĠaboveĠ(theĠ5thĠproductĠimage).IfĠyouĠdoĠnoĠchooseĠtoĠaddĠaĠMatĠBoard,ĠitĠmeansĠthatĠtheĠdesignĠwillĠfillĠtheĠframeĠwindow,Ġedge-to-edge.ĠThereĠisĠanĠexampleĠphotographĠofĠwhatĠthisĠlooksĠlikeĠinĠtheĠproductĠimageĠsectionĠaboveĠ(theĠ2ndĠproductĠimage).AllĠframesĠarriveĠreadyĠtoĠhang. âĢľFramedĠPrints
OakâĢĿĠisĠnotĠavailableĠasĠaĠâĢľFramedĠPaperĠPrin tâĢĿĠ
OakâĢĿĠisĠnotĠavailableĠasĠaĠâĢľFramedĠPaperĠPrintâĢĿĠ option.ĠMatteĠPaperĠPrint,ĠNoĠFram
LightĠ OakâĢĿĠisĠnotĠavailableĠasĠaĠcolourĠoptionĠforĠâĢľStretchedĠ&ĠMountedĠCanvasâĢĿ
MatĠBoard:BelowĠdescribesĠtheĠfinishedĠproductĠifĠyouĠchooseĠtoĠaddĠaĠMatĠBoardĠtoĠyourĠorder: âĢľWithĠMatĠBoardâĢĿĠmeansĠthatĠthereĠwillĠbeĠaĠhigh-quality,ĠwhiteĠcolouredĠmatĠboardĠinsertedĠintoĠtheĠframe.ĠTheĠmatĠboardĠgivesĠtheĠdesignĠaĠwhiteĠborderĠalongĠtheĠinsideĠedgeĠofĠtheĠframe.ĠTheĠdesignĠwillĠfillĠonlyĠtheĠwindowĠinsideĠtheĠmatĠboard.ĠThereĠisĠanĠexampleĠphotographĠofĠwhatĠthisĠlooksĠlikeĠinĠtheĠproductĠimageĠsectionĠaboveĠ(theĠ5thĠproductĠimage).IfĠyouĠdoĠnoĠchooseĠtoĠaddĠaĠMatĠBoard,ĠitĠmeansĠthatĠtheĠdesignĠwillĠfillĠtheĠframeĠwindow,Ġedge-to-edge.ĠThereĠisĠanĠexampleĠphotographĠofĠwhatĠthisĠlooksĠlikeĠinĠtheĠproductĠimageĠsectionĠaboveĠ(theĠ2ndĠproductĠimage).AllĠframesĠarriveĠreadyĠtoĠhang.âĢľFramedĠPrints
âĢĿ.Ġ âĢľDarkĠ
IfĠyouĠchooseĠtheĠâĢľMatteĠPaperĠPrint,ĠNoĠFrameâĢĿĠ option,ĠyouĠwillĠreceiveĠanĠunframedĠprintĠofĠyourĠchosenĠdesign.ĠTheĠpaperĠweĠuseĠtoĠprintĠonĠisĠ250ĠGSMĠmuseum-quality,Ġthick,Ġdurable,ĠmatteĠpaperĠ(non-reflectiveĠ&Ġnon-glossy).ĠTheĠinksĠweĠuseĠareĠhigh-qualityĠandĠUVĠprotected,ĠtheyĠwillĠlastĠaĠlifetime.ĠThisĠoptionĠisĠcommonlyĠchosenĠbyĠthoseĠwhoĠwishĠtoĠframeĠtheĠdesignĠthemselv
tâĢĿĠ section.ĠAfterĠprinting,ĠyourĠorderĠwillĠbeĠprofessionallyĠframed.ĠOurĠframesĠareĠmadeĠfromĠwood,ĠareĠflat-edgedĠandĠcomeĠwithĠaĠglassĠwindowĠ(thisĠisĠrealĠglass,ĠnotĠplexiglass).ĠToĠpreventĠbreakageĠwhileĠinĠtransit,ĠtheseĠframesĠareĠpackagedĠextremelyĠcare
âĢľStretchedĠ&ĠMountedĠCanvasâĢĿĠ framed.ĠThisĠisĠcommonlyĠcalledĠaĠâĢľFloatingĠCanvasâĢĿĠstyle.ĠThereĠisĠanĠexampleĠphotographĠofĠwhatĠthisĠlooksĠlikeĠinĠtheĠproductĠimageĠsectionĠaboveĠ(theĠ7thĠproductĠimage,ĠshowingĠtheĠDarkĠOakĠframeĠaroundĠtheĠStretchedĠCanvas).ĠYouĠcanĠchooseĠbetweenĠaĠâĢľWhite
:IfĠyouĠchooseĠtheĠâĢľStretchedĠ&ĠMountedĠCanvasâĢĿĠ option,ĠyourĠorderĠwillĠbeĠprintedĠofĠhigh-qualityĠcanvasĠmaterial,Ġgallery-wrapped,ĠstretchedĠandĠmountedĠaroundĠaĠwoodenĠframe.WeĠuseĠpremium-grade,Ġ360gsmĠcanvasĠmaterial.Gallery-wrappedĠonĠaĠ3cmĠdeepĠwoodenĠframe.StretchedĠCanvasĠordersĠ
âĢľStretchedĠ&ĠMountedĠCanvasâĢĿĠ ordersĠtakeĠ2-3ĠbusinessĠdaysĠlongerĠthanĠourĠnormalĠfulfilmentĠtimeframesĠandĠareĠsometimesĠsentĠwithĠcouriersĠotherĠthanĠAustraliaĠPost.
âĢĿ.ĠâĢľDarkĠ OakâĢĿĠisĠnotĠavailableĠasĠaĠâĢľFramedĠPaperĠPrintâĢĿĠoption.ĠMatteĠPaperĠPrint,ĠNoĠFram
MatĠBoard:BelowĠdescribesĠtheĠfinishedĠproductĠifĠyouĠchooseĠtoĠaddĠaĠMatĠBoardĠtoĠyourĠorder:âĢľWithĠMatĠBoardâĢĿĠmeansĠthatĠthereĠwillĠbeĠaĠhigh-quality,ĠwhiteĠcolouredĠmatĠboardĠinsertedĠintoĠtheĠframe.ĠTheĠmatĠboardĠgivesĠtheĠdesignĠaĠwhiteĠborderĠalongĠtheĠinsideĠedgeĠofĠtheĠframe.ĠTheĠdesignĠwillĠfillĠonlyĠtheĠwindowĠinsideĠtheĠmatĠboard.ĠThereĠisĠanĠexampleĠphotographĠofĠwhatĠthisĠlooksĠlikeĠinĠtheĠproductĠimageĠsectionĠaboveĠ(theĠ5thĠproductĠimage).IfĠyouĠdoĠnoĠchooseĠtoĠaddĠaĠMatĠBoard,ĠitĠmeansĠthatĠtheĠdesignĠwillĠfillĠtheĠframeĠwindow,Ġedge-to-edge.ĠThereĠisĠanĠexampleĠphotographĠofĠwhatĠthisĠlooksĠlikeĠinĠtheĠproductĠimageĠsectionĠaboveĠ(theĠ2ndĠproductĠimage).AllĠframesĠarriveĠreadyĠtoĠhang.âĢľFramedĠPrints âĢĿĠ
FramedĠCanvas:ThereĠisĠanĠoptionĠtoĠhaveĠyourĠ âĢľStretchedĠ&ĠMountedĠCanvasâĢĿĠframed.ĠThisĠisĠcommonlyĠcalledĠaĠâĢľFloatingĠCanvasâĢĿĠstyle.ĠThereĠisĠanĠexampleĠphotographĠofĠwhatĠthisĠlooksĠlikeĠinĠtheĠproductĠimageĠsectionĠaboveĠ(theĠ7thĠproductĠimage,ĠshowingĠtheĠDarkĠOakĠframeĠaroundĠtheĠStretchedĠCanvas).ĠYouĠcanĠchooseĠbetweenĠaĠâĢľWhite
FramedĠCanvas:ThereĠisĠanĠoptionĠtoĠhaveĠyourĠâĢľStretchedĠ&ĠMountedĠCanvasâĢĿĠframed.ĠThisĠisĠcommonlyĠcalledĠaĠâĢľFloatingĠCanvasâĢĿĠstyle.ĠThereĠisĠanĠexampleĠphotographĠofĠwhatĠthisĠlooksĠlikeĠinĠtheĠproductĠimageĠsectionĠaboveĠ(theĠ7thĠproductĠimage,ĠshowingĠtheĠDarkĠOakĠframeĠaroundĠtheĠStretchedĠCanvas).ĠYouĠcanĠchooseĠbetweenĠaĠâĢľWhite âĢĿ,ĠâĢľBlackâĢĿĠorĠâĢľ
MatĠBoard:BelowĠdescribesĠtheĠfinishedĠproductĠifĠyouĠchooseĠtoĠaddĠaĠMatĠBoardĠtoĠyourĠorder:âĢľWithĠMatĠBoardâĢĿĠmeansĠthatĠthereĠwillĠbeĠaĠhigh-quality,ĠwhiteĠcolouredĠmatĠboardĠinsertedĠintoĠtheĠframe.ĠTheĠmatĠboardĠgivesĠtheĠdesignĠaĠwhiteĠborderĠalongĠtheĠinsideĠedgeĠofĠtheĠframe.ĠTheĠdesignĠwillĠfillĠonlyĠtheĠwindowĠinsideĠtheĠmatĠboard.ĠThereĠisĠanĠexampleĠphotographĠofĠwhatĠthisĠlooksĠlikeĠinĠtheĠproductĠimageĠsectionĠaboveĠ(theĠ5thĠproductĠimage).IfĠyouĠdoĠnoĠchooseĠtoĠaddĠaĠMatĠBoard,ĠitĠmeansĠthatĠtheĠdesignĠwillĠfillĠtheĠframeĠwindow,Ġedge-to-edge.ĠThereĠisĠanĠexampleĠphotographĠofĠwhatĠthisĠlooksĠlikeĠinĠtheĠproductĠimageĠsectionĠaboveĠ(theĠ2ndĠproductĠimage).AllĠframesĠarriveĠreadyĠtoĠhang.âĢľFramedĠPrintsâĢĿĠ areĠavailableĠinĠeitherĠ
MatteĠPaperĠPrint,ĠFramed:IfĠyouĠchooseĠthisĠoption,ĠweĠwillĠprintĠyourĠorderĠtoĠtheĠsameĠspecificationsĠdescribedĠinĠtheĠâĢľMatteĠPaperĠPrin tâĢĿĠsection.ĠAfterĠprinting,ĠyourĠorderĠwillĠbeĠprofessionallyĠframed.ĠOurĠframesĠareĠmadeĠfromĠwood,ĠareĠflat-edgedĠandĠcomeĠwithĠaĠglassĠwindowĠ(thisĠisĠrealĠglass,ĠnotĠplexiglass).ĠToĠpreventĠbreakageĠwhileĠinĠtransit,ĠtheseĠframesĠareĠpackagedĠextremelyĠcare
LightĠOak âĢĿ.ĠâĢľDarkĠOakâĢĿĠisĠnotĠavailableĠasĠaĠâĢľFramedĠPaperĠPrintâĢĿĠoption.ĠMatteĠPaperĠPrint,ĠNoĠFram
âĢľBlackâĢĿ,ĠâĢľWhite âĢĿĠorĠâĢľ
FramedĠCanvas:ThereĠisĠanĠoptionĠtoĠhaveĠyourĠâĢľStretchedĠ&ĠMountedĠCanvasâĢĿĠframed.ĠThisĠisĠcommonlyĠcalledĠaĠâĢľFloatingĠCanvasâĢĿĠstyle.ĠThereĠisĠanĠexampleĠphotographĠofĠwhatĠthisĠlooksĠlikeĠinĠtheĠproductĠimageĠsectionĠaboveĠ(theĠ7thĠproductĠimage,ĠshowingĠtheĠDarkĠOakĠframeĠaroundĠtheĠStretchedĠCanvas).ĠYouĠcanĠchooseĠbetweenĠaĠâĢľWhiteâĢĿ,ĠâĢľBlackâĢĿĠorĠâĢľ DarkĠ
âĢľBlackâĢĿ,ĠâĢľWhiteâĢĿĠorĠâĢľ LightĠOakâĢĿ.ĠâĢľDarkĠOakâĢĿĠisĠnotĠavailableĠasĠaĠâĢľFramedĠPaperĠPrintâĢĿĠoption.ĠMatteĠPaperĠPrint,ĠNoĠFram
FramedĠCanvas:ThereĠisĠanĠoptionĠtoĠhaveĠyourĠâĢľStretchedĠ&ĠMountedĠCanvasâĢĿĠframed.ĠThisĠisĠcommonlyĠcalledĠaĠâĢľFloatingĠCanvasâĢĿĠstyle.ĠThereĠisĠanĠexampleĠphotographĠofĠwhatĠthisĠlooksĠlikeĠinĠtheĠproductĠimageĠsectionĠaboveĠ(theĠ7thĠproductĠimage,ĠshowingĠtheĠDarkĠOakĠframeĠaroundĠtheĠStretchedĠCanvas).ĠYouĠcanĠchooseĠbetweenĠaĠâĢľWhiteâĢĿ,ĠâĢľBlackâĢĿĠorĠâĢľDarkĠ OakâĢĿĠ
MatĠBoard:BelowĠdescribesĠtheĠfinishedĠproductĠifĠyouĠchooseĠtoĠaddĠaĠMatĠBoardĠtoĠyourĠorder:âĢľWithĠMatĠBoardâĢĿĠmeansĠthatĠthereĠwillĠbeĠaĠhigh-quality,ĠwhiteĠcolouredĠmatĠboardĠinsertedĠintoĠtheĠframe.ĠTheĠmatĠboardĠgivesĠtheĠdesignĠaĠwhiteĠborderĠalongĠtheĠinsideĠedgeĠofĠtheĠframe.ĠTheĠdesignĠwillĠfillĠonlyĠtheĠwindowĠinsideĠtheĠmatĠboard.ĠThereĠisĠanĠexampleĠphotographĠofĠwhatĠthisĠlooksĠlikeĠinĠtheĠproductĠimageĠsectionĠaboveĠ(theĠ5thĠproductĠimage).IfĠyouĠdoĠnoĠchooseĠtoĠaddĠaĠMatĠBoard,ĠitĠmeansĠthatĠtheĠdesignĠwillĠfillĠtheĠframeĠwindow,Ġedge-to-edge.ĠThereĠisĠanĠexampleĠphotographĠofĠwhatĠthisĠlooksĠlikeĠinĠtheĠproductĠimageĠsectionĠaboveĠ(theĠ2ndĠproductĠimage).AllĠframesĠarriveĠreadyĠtoĠhang.âĢľFramedĠPrintsâĢĿĠareĠavailableĠinĠeitherĠ âĢľBlackâĢĿ,ĠâĢľWhiteâĢĿĠorĠâĢľLightĠOakâĢĿ.ĠâĢľDarkĠOakâĢĿĠisĠnotĠavailableĠasĠaĠâĢľFramedĠPaperĠPrintâĢĿĠoption.ĠMatteĠPaperĠPrint,ĠNoĠFram
FramedĠCanvas:ThereĠisĠanĠoptionĠtoĠhaveĠyourĠâĢľStretchedĠ&ĠMountedĠCanvasâĢĿĠframed.ĠThisĠisĠcommonlyĠcalledĠaĠâĢľFloatingĠCanvasâĢĿĠstyle.ĠThereĠisĠanĠexampleĠphotographĠofĠwhatĠthisĠlooksĠlikeĠinĠtheĠproductĠimageĠsectionĠaboveĠ(theĠ7thĠproductĠimage,ĠshowingĠtheĠDarkĠOakĠframeĠaroundĠtheĠStretchedĠCanvas).ĠYouĠcanĠchooseĠbetweenĠaĠâĢľWhiteâĢĿ,ĠâĢľBlackâĢĿĠorĠâĢľDarkĠOakâĢĿĠ colourĠframe.ĠâĢľ
âĢľMatteĠPaperĠPrint,ĠNoĠFrameâĢĿĠ ordersĠareĠshippedĠflatĠbetweenĠultra-toughĠcardboardĠsheets.ĠB1ĠandĠA0ĠsizesĠareĠshippedĠcarefullyĠrolledĠinĠlargeĠtub
FramedĠCanvas:ThereĠisĠanĠoptionĠtoĠhaveĠyourĠâĢľStretchedĠ&ĠMountedĠCanvasâĢĿĠframed.ĠThisĠisĠcommonlyĠcalledĠaĠâĢľFloatingĠCanvasâĢĿĠstyle.ĠThereĠisĠanĠexampleĠphotographĠofĠwhatĠthisĠlooksĠlikeĠinĠtheĠproductĠimageĠsectionĠaboveĠ(theĠ7thĠproductĠimage,ĠshowingĠtheĠDarkĠOakĠframeĠaroundĠtheĠStretchedĠCanvas).ĠYouĠcanĠchooseĠbetweenĠaĠâĢľWhiteâĢĿ,ĠâĢľBlackâĢĿĠorĠâĢľDarkĠOakâĢĿĠcolourĠframe.ĠâĢľ LightĠOakâĢĿĠisĠnotĠavailableĠasĠaĠcolourĠoptionĠforĠâĢľStretchedĠ&ĠMountedĠCanvasâĢĿ
s ac
light weight
Ballo ons
fre edomĠ
DogĠColl ar
vo ic
mom ,Ġ
Bak ew
form alĠ
to dayĠ
p il
rel ativ
for tun
ingĠ anĠ
Warrant y
O ilĠ
ĠĠ -Ġ
/N Z
tra g
Moun tingĠ
compl i
sh adeĠ
erg onomicĠ
&Ġ L
ĠSho es
jo in
Ch e
ateĠ aĠ
p ush
or dingĠ
dr yingĠ
wor thĠ
am b
tum bleĠ
SportingĠGoods| SportsĠ
orĠexc eedĠ
H ON
friend .
orĠ andĠ
sensorĠ forĠ
Coun tryĠ
chur ch,Ġ
HomeĠ&ĠGarden|BuildingĠMaterialsĠ&ĠDIY|Nails,ĠScrewsĠ&ĠFasteners| ScrewsĠ&ĠBolts
T oteĠ
F -
substanti alĠ
Cer amicĠ
con vers
newsp ap
des tin
onĠ anyĠ
de ad
ĠSh ortĠ
fl ag
color ,Ġ
p etsĠ
NonĠSlipĠRugĠ MatĠ
ofĠ herĠ
L ightsĠ
In divid
ĠP ACK
MO BI
AS OS
to il
whoĠ areĠ
ak esĠ
i ansĠ
int ens
pap er
erĠ bar
es s,ĠandĠ
b oundĠ
inch es,Ġ
stim ul
de alĠ
BirthdayĠ PartyĠ
Blu e,Ġ
pl ication
Specification s:ĠĠ
ri erĠ
ĠS af
VEHICLEĠ ENG
TravelĠ Gear/
P um
toĠ giveĠ
s/ Women'sĠ
Qu es
t .
giftĠ boxĠ
Rev ol
tw enti
p add
Jes usĠ
âľ ¦
:Ġ OurĠ
H opeĠ
pro jectsĠ
Man agementĠ
or edĠ
Light s
ti anĠ
Tim ingĠ
G un
ĠS er
EC OR
cas esĠ
Lear n
,Ġ 5
em br
artis ticĠ
dom in
l av
D AĠ
QUILT ĠCOVER
customerĠ servic
USB -
G iveĠ
P enĠ
and al
sĠ atĠ
rug atedĠ
rop eĠ
Occasion :Ġ
ShoesĠ&Ġ FashionĠ
Resear chĠ
ing ;Ġ
toĠ useĠ
N ov
behindĠ theĠ
y.Ġ ThisĠ
en abl
FramedĠ CanvasĠ
PerformanceĠ Parts|
VehicleĠPartsĠ&ĠAccessories|CarĠ&ĠTruckĠParts| PerformanceĠParts|
sĠandĠ WeightĠProductĠ
TeeĠ -Ġ
Ge omet
Glo balĠ
</h2> <p>
k itsĠ
Tra ditionalĠ
increas inglyĠ
ag onĠ
PhonesĠ&Ġ Accessories|
)ĠOEMĠReplacementĠBrakeĠLineĠLayoutĠ-ĠFollowsĠOEMĠRouting.ĠKitĠIncludesĠ2ĠHosesĠFullĠStainlessĠSteelĠConstruction,ĠIncludesĠSSĠBoltsĠ&ĠCopperĠCrushĠWashersĠ TransparentĠ
le is
d rink
Th anksĠ
IN K
ĠSER VIC
r onĠ
Decor ationsĠ
draw Ġ
red sĠofĠ
bro adĠ
nois eĠandĠ
.Ġ [
withĠ hisĠ
bal anceĠ
f ro
16 "
allĠ kindsĠofĠ
Techn ologyĠ
mayĠv aryĠ
di agnos
MotorĠ Mounts
eg g
inĠtheĠ USAĠ
cool ĠandĠ
reinforc edĠ
Perf ect
manufactur ingĠ
TableĠ ofĠContentsĠ
ession alĠ
StationeryĠ&ĠOfficeĠProducts/OfficeĠProducts/OfficeĠ Supplies/
Mag n
si on,Ġ
R S
mean ing
s ay
sil icon
200 2
S AT
G ro
The irĠ
D ream
an xi
ĠA D
ĠM ini
3 .5Ġ
f ar
VehicleĠPartsĠ&ĠAccessories|CarĠ&ĠTruckĠParts|Engines,ĠComponents| MotorĠMounts
par entsĠ
ĠP ower
holidayĠ orĠ
afterĠ theĠ
educ ationĠ
spec i
edĠ intoĠ
Sh ellĠ
V G
Cloth ingĠ
ĠCon nec
ar eas
Rel ax
.-Ġ TheĠ
mag icĠ
UR ABLE
superĠ softĠ
exerc iseĠ
Fr ench
ĠD r
ĠB M
Ch rist
Vol tage:Ġ
ĠS pr
Res pon
M ULT
. ĠĠĠĠĠĠ
pol og
g earĠ
y !
key chainĠ
atĠ andĠ
L ou
bi bli
C lassĠ
let ter
T C
sil hou
phon yĠ
fin allyĠ
' veĠ
gradu ationĠ
cm):Ġ 46cmĠxĠ75
r ideĠ
colorĠ andĠ
8 ĠxĠ
ref resh
ur eĠofĠ
ToysĠ&ĠGames/ToysĠ&ĠGames/Kids'ĠPartyĠSupplies/Kids'ĠPartyĠDecorations/ Kids'ĠPartyĠ
ShoesĠ&ĠFashionĠ -Ġ
Ther ap
C RAFT
f oldĠ
WorldĠ WarĠ
Br on
2Ġ (
le astĠ
and /
pool Ġ
O CC
long- termĠ
ĠB RA
ACDel coĠ
elegantĠ andĠ
intell ect
C oversĠ
l eryĠ
powerĠ andĠ
2 pcsĠ
workĠ hasĠbeenĠ
ab y
oog leĠ
Sup portsĠ
M ENT
UK )
IfĠyouĠ areĠnotĠ
- 4
Bow l
B icycleĠ
ĠC ardĠ
%ĠC otton,Ġ
ĠPAR TS
forĠaĠ veryĠ
ma idĠ
confl ic
sign atureĠ
f auxĠ
T RA
N utĠ
em on
B eg
mis sion
Merchandis e|
con v
ĠCom mun
directĠ fitĠ
discus sionĠ
ĠĠ TheĠ
. D
as yĠ
e :ĠĠ
anc e.
batter iesĠ
um m
dri ver
accoun tĠ
ĠS qu
ĠM axĠ
withĠ noĠ
framew orkĠ
PU ĠLeatherĠ
shock proofĠ
S etsĠ
ĠSm allĠ
re al-
stick erĠ
suppl iesĠ
vo iceĠ
Toy s/
Sc ienceĠ
Sh ak
h ub
moneyĠbackĠ guarante
âĹ ı
ĠWALL PAPER
thatĠ extraĠ
v acuumĠ
createsĠ aĠ
shoulder .Ġ
character istic
M Ġ(
d ar
inst eadĠ
Stret chĠ
prec iousĠ
au toĠ
mus cleĠ
ig u
6 ,Ġ
King dom
youĠ mayĠ
esĠ atĠ
compan ionĠ
ĠB and
SamsungĠGalaxyĠ A
ĠS ec
Jour nalĠ
impress iveĠ
IN D
workĠ withĠ
gradu ateĠ
H arness
ofĠ anĠ
ch artĠ
Histor yĠ
H il
en velop
l ing,Ġ
P aintĠ
Quantit y:Ġ
b us
inter view
ess ay
exact lyĠ
Sel f-
gĠ (
N everĠ
En d
ersĠ ofĠtheĠ
tra il
IL VER
comp ressĠ
N ameĠ
connec tedĠ
ĠAreĠ youĠ
) ;Ġ
Co atingĠ
.Ġ IfĠ
11 /
r iseĠ
âĢĶâĢĶ âĢĶâĢĶ
isĠ inĠ
mo vi
Max i
do orsĠ
5 ĠM
O B
es centĠ
Train ers
re lyĠ
t ang
20 -
Up perĠ
ti d
M aleĠ
Wel comeĠtoĠ
able ,
leĠ andĠ
air eĠ
Mo tionĠ
ï¼ Ī
h arnessĠ
orĠ justĠ
Wind owĠ
I v
cm ),Ġ
Al thoughĠ
premiumĠ qualityĠ
L Ġ(
activ elyĠ
OneĠSiz e)
3D ĠL
work ,ĠtheĠ
-P UR
Di amond
e,Ġ aĠ
backĠ andĠ
P ull
Ġ toĠ
ass ur
ed yĠ
ItĠ isĠaĠ
AT E
theĠ extraĠ
siz es,Ġ
atten tionĠtoĠ
Inter ior|
RoseĠ GoldĠ
ther malĠ
N T
Sec urityĠ
ðĿ Ĺ
eng agingĠ
b orn
P ullĠ
Supplement s/
let terĠ
as suredĠ
newĠ look
b ad
D ef
SportingĠGoods|SportsĠ TradingĠCards|TradingĠCardĠSingles
yourĠ belong
Min er
i redĠ
sp ong
.ĠD imensions:Ġ
Wa istĠ
(Black )Ġ(
Draw ingĠ
provideĠ youĠ
piec esĠofĠ
Automotive/Automotive/AutomotiveĠReplacementĠParts/AutomotiveĠStylingĠ&ĠBodyĠ Fittings
Y esĠ
h u
.ĠS oĠ
Sec ondĠ
own edĠ
,Ġ W
19 .
ar y.Ġ
arch itec
hasĠ oneĠ
al ,
oper ation
accessĠtoĠ allĠ
friend s.Ġ
.ĠTheĠ bookĠ
sp otĠ
tr ic
secure lyĠ
bir d
Fil mĠ
Necklac esĠ&Ġ
Be ig
haveĠ anĠ
Con ver
A SĠ
loveĠ andĠ
Sh ow
P E
performanc e,Ġ
Jack etsĠ&Ġ
pear lĠ
flo atingĠ
s ignĠ
satis fac
stra iningĠ
Qual ity
eas eĠofĠ
lo seĠ
Custom erĠ
re tĠ
Wil dĠ
approachĠ toĠ
Supplement s
collec tionsĠ
sn ow
sĠ willĠ
ĠSt yleĠ
tre atĠ
bow lĠ
m ineĠ
focus esĠonĠ
at ing,Ġ
Sens ors
s !Ġ
min ist
inn er
childr en'sĠ
id geĠ
att ressĠ
wor r
plent yĠofĠ
âĢĵ ĠM
YouĠ doĠnotĠ
OW ER
Bl ind
liv esĠ
ro ot
F ourĠ
Med icalĠ
em is
Lin enĠ
allow sĠforĠ
freeĠ withĠ
9 x
onĠ thisĠ
con duc
Ris ersĠ
ri f
And re
50Ġ cm
topĠ ofĠtheĠ
Kg ĠĠĠĠĠĠĠĠĠĠĠĠĠĠĠĠĠĠĠĠĠĠĠĠĠĠĠĠĠĠĠĠĠĠĠĠĠĠĠĠĠĠĠĠĠĠĠĠĠĠĠĠĠĠĠĠĠĠĠĠĠĠĠĠĠĠĠĠĠĠĠĠĠĠĠĠĠĠĠĠĠĠĠĠĠĠ
Prin cessĠ
o s,Ġ
b erg
Hum anĠ
ĠH eadĠ
17 .
orn am
f ron
pin sĠandĠ
âĢ ļ
add ressĠ
a therĠ
CDsĠ&ĠVinyl/Music/ RockĠ
Post erĠ
en em
installĠ andĠ
mag icalĠ
! ĠWhetherĠ
- 6
a inĠtheĠ
R at
activi tiesĠ
24 5Ġ
B amboo
stainlessĠsteel ,Ġ
ĠSIZ ES
ing sĠ&Ġ
G asĠ
M az
exc it
rever se
P umpĠ
Ste ph
cmĠ -Ġ
imp act
lessĠ thanĠ
O m
Horn s
,Ġ E
ĠP ART
ard s
UpĠ toĠ
productsĠ forĠ
MOBI LEĠP
irr it
interes tingĠ
toĠcarryĠ yourĠ
smooth ,Ġ
sim ple,Ġ
r out
ShirtĠ (
i ouslyĠ
US E
seas onĠ
getĠ backĠ
PhotoĠ CarpetĠ
Automotive/Automotive/AutomotiveĠReplacementĠParts/AutomotiveĠReplacementĠBrakeĠSystemĠ Parts/AutomotiveĠ
o gĠ
consist entĠ
install ation
Wid elyĠ
resist ance,Ġ
mayĠbeĠ slightlyĠdifferentĠ
sl ideĠ
pleaseĠ contactĠusĠ
S warov
chooseĠtheĠ rightĠ
Man ual
UN D
typ eĠofĠ
at âĢĻsĠ
Piec eĠ
Hoo dieĠ
200 6-
art workĠ
ag oĠ
pl antsĠ
IN ES
C las
200 7-
sĠ&Ġ Mugs
Med ic
li ber
camp ing,Ġ
re pair
Educ ationĠ
I ron
color s,Ġ
Ov alĠ
aw ay
grow Ġ
ers :Ġ
byĠhandĠ orĠ
f ear
bott lesĠ
Y ĠD
s mo
Business |
) ĠĠĠĠ
airĠ RisersĠ
airĠRisersĠ DecorationĠ
ĠB ack
fold able,Ġ
ĠP uzz
ZO KK
Larg e
com mod
L uc
-S leev
sel lĠ
anim alsĠ
Gif ts,Ġ
Cur r
G il
H zĠ
dam agedĠ
N ic
acceler atorĠ
inn yĠ
ĠW H
ĠF REE
ou tsĠ
ToolsĠ&Ġ Accessories/
byĠ D
part y.Ġ
O d
S I
f ingerĠ
dis hĠ
art sĠ
sĠthatĠ areĠ
worri es.Ġ
leg end
re viewĠ
inĠ allĠ
hardĠ toĠ
C omeĠ
strateg iesĠ
3. 8
e,Ġ andĠtheĠ
c abl
thatĠ thisĠ
r ackĠ
ben ef
ic onĠ
6 ĠM
b ak
butt onsĠ
help sĠtoĠ
ro dĠ
Kit s/
govern mentĠ
V I
1 ,
ez eĠ
ph antĠ
s,ĠandĠ otherĠ
p atchĠ
levelĠ ofĠ
gress iveĠ
compartment sĠtoĠ
h ostĠ
auth enticĠ
lat exĠ
famil y.Ġ
.ĠP lasticĠ
in spir
los edĠ
1. 4
StyleĠ :Ġ
artĠ &Ġ
T umbl
edĠinĠ AustraliaĠ
3D ĠBlueĠ
15 -
11 -
l es/
stretch erĠbar
es .,
' S
lux uryĠ
tw ear
tion sĠforĠ
coll abor
forĠeveryĠ occasion
month sĠ
Ã¢ âĤ¬
inter pret
m oldĠ
Dis play
pic turesĠ
head ingĠtoĠ
Yellow ĠStamp
that âĢĻsĠ
ap par
Cont actĠ
F ireĠ
Ric hardĠ
3.5 mmĠ
an s,Ġ
ĠTH EĠ
CameraĠ&ĠPhoto/Electronics/MobileĠPhonesĠ&ĠCommunication/MobileĠPhoneĠAccessories/MobileĠPhoneĠCasesĠ&ĠCovers/MobileĠPhoneĠ Basic
3 mm
CameraĠ&ĠPhoto/Electronics/MobileĠPhonesĠ&ĠCommunication/MobileĠPhoneĠAccessories/MobileĠPhoneĠCasesĠ&ĠCovers/MobileĠPhoneĠBasic ĠCases
mm)ĠMet ricĠCoarseĠ
actualĠ colorĠofĠtheĠ
Hardwar e/
10 5
.ĠThisĠproductĠisĠavailableĠinĠ 2Ġ
pre p
t our
D ouble
st ageĠ
av o
Mo onĠ
narra tiveĠ
and erĠ
endĠ ofĠtheĠ
tiv elyĠ
Pock et
form ul
inĠ land
HairĠ Care/
s on,Ġ
ins ightĠ
e.Ġ OnceĠ
) .ĠĠ
/ A
Rest aur
1 "
ĠB andĠ
M old
aĠ varietyĠofĠ
co il
Prec iseĠ
ur ableĠ
l ooseĠ
Jour n
cakeĠ top
Ex ternalĠ
th ing
erson alĠ
monitorĠ sett
ac yĠandĠ
p ansĠ
ratherĠ thanĠ
h ass
understandingĠ ofĠtheĠ
ArtĠ PrintĠ
J u
work .
Comp atibil
St uff
In nov
wasĠ theĠ
Bul b
cre ditĠ
HoseĠ&ĠStainlessĠ BanjosĠ98ĠColorĠCombinationsĠAvailableĠforĠtheĠLinesĠ&ĠFittings
ShoppingĠ Bag
ZOKK O
VehicleĠPartsĠ&ĠAccessories|CarĠ&ĠTruckĠParts| Interior|
ĠB edĠPillowcasesĠ
to log
oper ationĠ
ep tĠ
d ish
l asĠ
ex teriorĠ
Pl ac
theyĠ canĠ
isĠ ourĠ
z inc
sh opperĠ
asĠwellĠasĠ theĠ
WallĠArtĠ PrintĠ
ra il
at ure,Ġ
Valentine âĢĻsĠDay,Ġ
c rim
M ail
ĠWind owĠ
inĠ orderĠtoĠ
ĠM icro
it elyĠ
sĠ&Ġ Horns
sĠ haveĠ
therap yĠ
dyn amicĠ
ĠPh oneĠ
ĠSt retchedĠ
focusĠ onĠ
touchĠ ofĠ
LuggageĠ &Ġ
ĠC ha
lap el
RugbyĠ LeagueĠ
Re inforc
Num ber
c ubicĠ
HairĠCare/ HairĠ
Beauty/Beauty/ HairĠCare/HairĠ
job Ġ
construc tedĠ
youĠ wishĠtoĠ
read millĠ
us ionĠ
Exerc iseĠ
look ingĠforĠ
- and-
16 -
P anĠ
bod y,Ġ
s ell
M ay
youĠneedĠforĠ yourĠ
tra v
conf igur
weight .ĠTheĠ
l overĠ
8 Ġ(
pill owĠ
SizeĠ :Ġ
Ex teriorĠ
forĠaĠveryĠ longĠtime.Ġ
HoseĠ&ĠStainlessĠBlueĠ BanjosĠ98ĠColorĠCombinationsĠAvailableĠforĠtheĠLinesĠ&ĠFittings
c utt
b oneĠ
WhenĠ youĠ
M r
AD EĠ
it ter
3D ĠS
ofĠ theirĠ
a ,
200 5-
hug eĠ
tionĠ ofĠtheĠ
tec hĠ
Hu awe
IT YĠ
Bel ts
e fulĠ
Qu ick
cur vedĠ
ch ar
board ,Ġ
inĠ S
RE C
Bre ath
3 30
on .
7 2Ġ
T at
1 :Ġ
kid s,Ġ
er n
24 -
m ud
qu antit
Clothing,ĠShoesĠ&ĠAccessories/Clothing,ĠShoesĠ&ĠAccessories/Women'sĠFashion/Women'sĠJewellery/Women'sĠ Necklaces
collec tionsĠofĠ
ĠĠ ĉĉĉ
in spec
appro xĠ
whereĠ youĠcanĠ
ÃĹ Ġ4.
Ear lyĠ
reve alĠ
ATISFACTION ĠGUARANTE
enĠ andĠ
firm lyĠ
ĠD e
go ingĠtoĠ
blu e
les s,Ġ
recycl able.Ġ
:Ġ TheseĠ
T B
et erĠ
eco- friendlyĠ
Sn ap
inĠ herĠ
d oll
Cl amp
g/m Â²
suppl i
</ li>Ġ
wideĠ openĠ
earring s,Ġ
2 13
printedĠ onĠ
JacketsĠ&Ġ Vests
and/ orĠ
Clothing,ĠShoesĠ&ĠAccessories/Clothing,ĠShoesĠ&ĠAccessories/Men'sĠFashion/Men'sĠ Jewellery
ing,Ġ theĠ
al ong
Fit tingĠ
show er,Ġ
C AR
hisĠ ownĠ
Cor dĠ
ĠW ALLĠART
N ar
el yĠandĠ
CDsĠ&ĠVinyl/Music/ ClassicalĠ
n urs
Pillowcas es
heavyĠ dutyĠ
gra inĠ
ersĠ canĠ
B lockĠ
Cup s,Ġ
b es
opr eneĠ
260 cm
ent ingĠ
ballo onsĠ
RA P
withoutĠcausingĠ anyĠ
A sh
m ist
HoseĠ&ĠStainlessĠRedĠ BanjosĠ98ĠColorĠCombinationsĠAvailableĠforĠtheĠLinesĠ&ĠFittings
wallĠ artĠ
pres sĠtheĠ
ï¼ ī
orĠ evenĠ
dir ty
useĠ inĠ
RugbyĠ Union
school ,ĠtheĠ
aer odyn
lo om
ÃĹ 2.
HomeĠImprovement/HomeĠImprovement/PowerĠToolsĠ&ĠHandĠTools/ PowerĠ
wom en'sĠ
ALLOYĠWHEEL ĠM
ut s
ext ensionĠ
l y.
do .ĠTheĠ
onĠyourĠ shoulderĠ
tit leĠ
Pl ain
P ORT
Dat aĠ
dee plyĠ
Dri verĠ
work,Ġ travel,Ġ
0. 8
N ight
t,Ġ theĠ
MoneyĠ BackĠ
decor ateĠyourĠ
closureĠ type:Ġ
M ayĠ
decom pos
back ground
mainĠcompart mentĠandĠ
sn owĠ
: TheĠ
fl agĠ
emo tionalĠ
( B
byĠ K
needĠ oneĠ
C ab
Wedd ing,Ġ
âĢĻ ,Ġ
combin esĠ
SteeringĠWheel sĠ&ĠHorns
r it
HoseĠ&ĠStainlessĠGreenĠ BanjosĠ98ĠColorĠCombinationsĠAvailableĠforĠtheĠLinesĠ&ĠFittings
ge omet
Gasket s|
VehicleĠPartsĠ&ĠAccessories|CarĠ&ĠTruckĠParts| Gaskets|
M os
ine 'sĠ
fundam entalĠ
M C
D un
groceryĠ bag
- TheĠ
ING S
meetĠ orĠexceedĠ
&ĠD rink
m assageĠ
.ĠL oadĠ
tri mĠ
Out putĠ
Mon itor
datingĠ backĠ
Holid ayĠ
MuralĠ VinylĠ
AF L,Ġ
bo di
ĠA P
ĠStor ageĠ
th ankĠyouĠ
!ĠWhetherĠ youĠareĠ
ColourĠ( Colour:Ġ
Ac adem
co mĠ
di vers
willĠbeĠ yourĠf
ĠS W
TrimĠKitĠ DipstickĠ
C hairĠ
groceryĠ shopping,Ġ
Tre as
RugbyĠLeagueĠ &Ġ
P in
f ing
I QU
Lux uryĠ
y- dutyĠ
f icationĠ
compress ionĠ
Por t
p ac
ĠSu itableĠforĠ
RugbyĠLeagueĠ&Ġ RugbyĠUnion
20 mmĠ
AFL,Ġ RugbyĠLeagueĠ&ĠRugbyĠUnion
Organ ic
not e
HoseĠ&ĠStainlessĠGoldĠ BanjosĠ98ĠColorĠCombinationsĠAvailableĠforĠtheĠLinesĠ&ĠFittings
C astĠ
moreĠ durable,ĠandĠ
care erĠ
if f
PhotoĠ MuralĠVinylĠ
sequ enc
SportingĠGoods| AFL,ĠRugbyĠLeagueĠ&ĠRugbyĠUnion
back ingĠ
roc k
SportingĠGoods|AFL,ĠRugbyĠLeagueĠ&ĠRugbyĠUnion |
TheseĠ reusableĠ
oll owĠ
Toys,ĠHobbies| ModelĠBuild
Toys,ĠHobbies|ModelĠBuild ing|
M ari
examin esĠ
br assĠ
m en,Ġ
FitsĠ YamahaĠ
reinforc edĠbyĠ
29 5cm
RemoteĠ ControlĠ
L ooseĠ
dang erousĠ
way sĠtoĠ
et een
Earr ingĠ
ItĠ canĠ
Ex clusiveĠ
M ain
giveĠ youĠaĠ
airĠRisersĠDecorationĠ PhotoĠMuralĠVinylĠ
.Ġ PerfectĠ
.ĠAĠ versatileĠ
R opeĠ
independ entĠ
dur ableĠforĠ
hers elfĠ
420 cmĠXĠH:Ġ
Hood edĠ
420cmĠXĠH:Ġ 260cm
imag esĠ
At mosĠ
-Sub ject:Ġ
l id
E asterĠ
IT Ġ
itĠ canĠbeĠ
225 cm
Con cer
and aĠ
Res inĠ
10 ,Ġ
-by- stepĠ
willĠbeĠyourĠf aithfulĠ
groceryĠ bagĠ
H S
HoseĠ&ĠStainlessĠPurpleĠ BanjosĠ98ĠColorĠCombinationsĠAvailableĠforĠtheĠLinesĠ&ĠFittings
d reamĠ
ST R
clothĠ bagĠ
ĠC N
Warrant yĠ
h ouse
Cr yst
ĠTyp e:Ġ
withoutĠ anyĠ
fruit sĠ&Ġ
Guarante edĠ
con firmĠ
Metal workingĠ
* Ġ1
differenc esĠ
C NC
ON LY
ex pressĠ
ĠD O
146 cm
comfortablyĠ carryĠ
cover ,Ġ
ET S
inĠland fill
edĠwithĠ draw
un dĠ
WeĠ areĠ
Wid thĠandĠ
Sur faceĠ
p agesĠ
FromĠ TheĠ
sc op
KawasakiĠ Z
cer tain
alis m
makesĠ easyĠtoĠ
outerĠ material:Ġ
ĠC OMP
ĠĠĠĠĠĠĠĠĠĠĠĠĠĠĠĠĠĠĠĠĠĠĠĠĠĠĠĠĠĠĠĠĠĠĠĠĠĠĠĠĠĠĠĠĠĠĠĠ ĠĠĠĠĠĠĠĠ
gym ,ĠaĠ
Pet erĠ
N etĠ
Se al
In f
Garden/Garden/ OutdoorĠ
special tyĠ
I ĠL
loadĠ andĠun
2. 3
canvasĠ toteĠbagĠ
childrenĠ andĠ
2. 8
DrillĠ B
whichĠcanĠ holdĠyourĠ
2 7Ġ
re put
replac ement
and omĠ
beachĠ holidayĠorĠ
groceryĠ bagsĠareĠ
g entlyĠ
HoseĠ&ĠStainlessĠBlackĠ BanjosĠ98ĠColorĠCombinationsĠAvailableĠforĠtheĠLinesĠ&ĠFittings
thanĠ plasticĠbag
yourĠbelong ings.Ġ
occ ur
thatĠextraĠ bitĠofĠ
UK Ġ
s.ĠTheseĠ bagsĠ
S em
R ab
easilyĠandĠ canĠfitĠ
M ugĠ
sĠtoĠ carryĠyourĠ
gloveĠ compartmentsĠtoĠ
anywhereĠ rangingĠfromĠ
compressĠ easilyĠandĠcanĠfitĠ
compressĠeasilyĠandĠcanĠfitĠ anywhereĠrangingĠfromĠ
gloveĠcompartmentsĠtoĠ purs
customizableĠ thanĠplasticĠbag
work,ĠtheĠ gym,ĠaĠ
compressĠeasilyĠandĠcanĠfitĠanywhereĠrangingĠfromĠ gloveĠcompartmentsĠtoĠpurs
work,ĠtheĠgym,ĠaĠ beachĠholidayĠorĠ
cover ingĠ
willĠbeĠ enoughĠ
headingĠtoĠ work,ĠtheĠgym,ĠaĠbeachĠholidayĠorĠ
customizableĠthanĠplasticĠbag s.ĠTheseĠbagsĠ
customizableĠthanĠplasticĠbags.ĠTheseĠbagsĠ compressĠeasilyĠandĠcanĠfitĠanywhereĠrangingĠfromĠgloveĠcompartmentsĠtoĠpurs
moreĠdurable,ĠandĠ customizableĠthanĠplasticĠbags.ĠTheseĠbagsĠcompressĠeasilyĠandĠcanĠfitĠanywhereĠrangingĠfromĠgloveĠcompartmentsĠtoĠpurs
ĠS et
et ch
ActionĠFig ures
takesĠ allĠ
beachĠ dayĠ
ac Ġ
toĠ createĠ
25 mmĠ
gym,Ġ beach,Ġ
Embroid eryĠ
reusableĠ &Ġ
ĠWALLĠART ĠPictureĠ
forĠeveryĠ season
ANVAS ĠWALLĠARTĠPictureĠ
hes it
til ityĠ
j acket
CoffeeĠ Cup
ars hĠ
loadĠandĠun loadĠ
erced esĠB
with standĠ
ĠPl atedĠ
ChemicalĠ FreeĠ
map s,Ġ
biodegrad able,ĠandĠ
P ast
Hand yĠtoĠ
reve al
D augh
li esĠ
can 'tĠ
clear lyĠ
h ourĠ
wideĠopenĠ mouthĠ
toteĠ hasĠ
320 cmĠXĠH:Ġ
An droidĠ
Radi oĠ
320cmĠXĠH:Ġ 225cm
intend oĠ
mon thĠ
m i
ĠNoĠ worries.Ġ
cmĠ( H
?ĠF eelĠ
fruitsĠ&Ġ vegetabl
R iverĠ
cmĠXĠH:Ġ 295cm
525 cmĠXĠH:Ġ295cm
iti s
Engine er
keepĠthemĠ fresh
es.ĠTheyĠ canĠalsoĠbeĠ
v estĠ
M 16ĠxĠ
stayĠ thereĠ
anĠexcellentĠ alternativeĠtoĠ
V iv
spaciousĠ mainĠcompartmentĠandĠ
br oughtĠ
s/ AutomotiveĠReplacementĠ
.Ġ SuitableĠforĠ
school,Ġ work,Ġtravel,Ġ
decorations,Ġ wedd
ent s.Ġ
sĠforĠmaximumĠ strengthĠandĠ
upĠtoĠ10Ġ kgĠ
engine eringĠ
hund redsĠofĠ
artĠ&Ġ crafts,Ġ
Samsun g
byĠhandĠorĠ overĠyourĠ
MadeĠofĠ highĠqualityĠ
DIY,Ġ artĠ&Ġcrafts,Ġ
customĠ DIY,ĠartĠ&Ġcrafts,Ġ
sĠinĠyourĠ bag.Ġ
answ erĠ
foldable,Ġ lightweightĠ
church,Ġ customĠDIY,ĠartĠ&Ġcrafts,Ġ
makesĠeasyĠtoĠ loadĠandĠunloadĠ
ĠSil iconeĠ
comfortablyĠcarryĠ byĠhandĠorĠoverĠyourĠ
H Y
itĠtoĠ getĠbackĠ
Ind ex
church,ĠcustomĠDIY,ĠartĠ&Ġcrafts,Ġ decorations,Ġwedd
groceryĠshopping,Ġ school,Ġwork,Ġtravel,Ġ
wideĠopenĠmouthĠ makesĠeasyĠtoĠloadĠandĠunloadĠ
gym,Ġbeach,Ġ church,ĠcustomĠDIY,ĠartĠ&Ġcrafts,Ġdecorations,Ġwedd
picnicĠ essential
e. ĠĠĠĠ
groceryĠshopping,Ġschool,Ġwork,Ġtravel,Ġ gym,Ġbeach,Ġchurch,ĠcustomĠDIY,ĠartĠ&Ġcrafts,Ġdecorations,Ġwedd
"Ġ andĠ
meth odĠ
beach /Ġ
ĠWater proofĠ
BM WĠ
hasĠoneĠ spaciousĠmainĠcompartmentĠandĠ
.ĠLoadĠ yourĠ
ill aĠ
)Ġ( OneĠSize)
strainingĠ yourĠhand
sĠ&Ġ wrist
orĠyourĠ handsĠ
wideĠopenĠmouthĠmakesĠeasyĠtoĠloadĠandĠunloadĠ yourĠbelongings.Ġ
theĠextraĠ weight
TheseĠreusableĠ cottonĠ
inĠlandfill s,ĠtheyĠ
plasticĠbag s.ĠTheyĠareĠ
canĠalsoĠ keepĠthemĠfresh
ingsĠorĠ pinsĠandĠ
shoulderĠtoĠcarryĠ thatĠextraĠbitĠofĠ
headingĠtoĠwork,ĠtheĠgym,ĠaĠbeachĠholidayĠorĠ school,ĠtheĠ
groceryĠbagĠ whichĠcanĠholdĠyourĠ
handlesĠareĠ reinforcedĠbyĠ
ingsĠorĠpinsĠandĠ lapel
plasticĠbags.ĠTheyĠareĠ moreĠdurable,ĠandĠcustomizableĠthanĠplasticĠbags.ĠTheseĠbagsĠcompressĠeasilyĠandĠcanĠfitĠanywhereĠrangingĠfromĠgloveĠcompartmentsĠtoĠpurs
overĠyourĠ shoulderĠtoĠcarryĠ
YouĠdoĠnotĠ needĠoneĠ
withoutĠcausingĠanyĠ strainĠ
TheseĠreusableĠcottonĠ groceryĠbagsĠareĠ
forĠeveryĠoccasion .ĠOneĠ
fabricĠhandlesĠ restsĠ
sĠinĠyourĠbag.Ġ HandyĠtoĠ
headingĠtoĠwork,ĠtheĠgym,ĠaĠbeachĠholidayĠorĠschool,ĠtheĠ toteĠ
takesĠallĠ youĠneedĠforĠyourĠ
?ĠFeelĠ freeĠwithĠ
willĠbeĠyourĠfaithfulĠ friend.
comeĠwithĠ30ĠCmĠlongĠhandlesĠwhichĠcanĠgoĠ overĠyourĠshoulderĠtoĠcarryĠ
TheseĠreusableĠcottonĠgroceryĠbagsĠareĠ anĠexcellentĠalternativeĠtoĠ
sĠinĠyourĠbag.ĠHandyĠtoĠ carry,Ġ
edĠwithĠdraw ingsĠorĠpinsĠandĠlapel
takesĠallĠyouĠneedĠforĠyourĠ beachĠdayĠ
orĠyourĠhandsĠ withoutĠcausingĠanyĠstrainĠ
shoppingĠ youĠwishĠtoĠ
handlesĠareĠreinforcedĠbyĠ stitch
beach/Ġ picnicĠessential
outing.Ġ GotĠ
canĠalsoĠkeepĠthemĠfresh .ĠLoadĠyourĠ
sĠinĠyourĠbag.ĠHandyĠtoĠcarry,Ġ takesĠallĠyouĠneedĠforĠyourĠbeachĠdayĠ
shoppingĠyouĠwishĠtoĠ do.ĠTheĠ
forĠaĠveryĠlongĠtime.Ġ TheseĠreusableĠcottonĠgroceryĠbagsĠareĠanĠexcellentĠalternativeĠtoĠ
handlesĠareĠreinforcedĠbyĠstitch sĠforĠmaximumĠstrengthĠandĠ
whichĠ comeĠwithĠ30ĠCmĠlongĠhandlesĠwhichĠcanĠgoĠoverĠyourĠshoulderĠtoĠcarryĠ
toteĠbagsĠareĠ reusableĠ&Ġ
shoppingĠyouĠwishĠtoĠdo.ĠTheĠ handlesĠareĠreinforcedĠbyĠstitchsĠforĠmaximumĠstrengthĠandĠ
stayĠthereĠ forĠaĠveryĠlongĠtime.ĠTheseĠreusableĠcottonĠgroceryĠbagsĠareĠanĠexcellentĠalternativeĠtoĠ
whichĠcomeĠwithĠ30ĠCmĠlongĠhandlesĠwhichĠcanĠgoĠoverĠyourĠshoulderĠtoĠcarryĠ theĠextraĠweight
fabricĠhandlesĠrestsĠ firmĠ
sĠinĠyourĠbag.ĠHandyĠtoĠcarry,ĠtakesĠallĠyouĠneedĠforĠyourĠbeachĠdayĠ outing.ĠGotĠ
shopping ?ĠFeelĠfreeĠwithĠ
canĠalsoĠkeepĠthemĠfresh.ĠLoadĠyourĠ beach/ĠpicnicĠessential
WashĠ itĠtoĠgetĠbackĠ
fabricĠhandlesĠrestsĠfirmĠ onĠyourĠshoulderĠ
shoulderĠtoĠcarryĠthatĠextraĠbitĠofĠ shoppingĠyouĠwishĠtoĠdo.ĠTheĠhandlesĠareĠreinforcedĠbyĠstitchsĠforĠmaximumĠstrengthĠandĠ
WashĠitĠtoĠgetĠbackĠ it'sĠ
clothĠbagĠ comeĠwithĠ30ĠCmĠlongĠhandlesĠwhichĠcanĠgoĠ
.ĠGreatĠforĠ groceryĠshopping,Ġschool,Ġwork,Ġtravel,Ġgym,Ġbeach,Ġchurch,ĠcustomĠDIY,ĠartĠ&Ġcrafts,Ġdecorations,Ġwedd
.ĠAĠversatileĠ breathableĠ
upĠtoĠ10ĠkgĠ weight.ĠTheĠ
.ĠAĠversatileĠbreathableĠ groceryĠbagĠwhichĠcanĠholdĠyourĠ
clothĠbagĠcomeĠwithĠ30ĠCmĠlongĠhandlesĠwhichĠcanĠgoĠ overĠtheĠ
toĠcarryĠ upĠtoĠ10ĠkgĠweight.ĠTheĠ
flatĠ fabricĠhandlesĠrestsĠfirmĠonĠyourĠshoulderĠ
sĠtoĠcarryĠyourĠ shopping?ĠFeelĠfreeĠwithĠ
esĠ&Ġ canĠalsoĠkeepĠthemĠfresh.ĠLoadĠyourĠbeach/ĠpicnicĠessential
es.ĠTheyĠcanĠalsoĠbeĠ personaliz
.ĠAĠversatileĠbreathableĠgroceryĠbagĠwhichĠcanĠholdĠyourĠ fruitsĠ&Ġvegetabl
toteĠ forĠeveryĠoccasion.ĠOneĠ
headingĠtoĠwork,ĠtheĠgym,ĠaĠbeachĠholidayĠorĠschool,ĠtheĠtoteĠ willĠbeĠyourĠfaithfulĠfriend.
areĠgoodĠ toĠcarryĠupĠtoĠ10ĠkgĠweight.ĠTheĠ
sĠ&Ġwrist sĠtoĠcarryĠyourĠshopping?ĠFeelĠfreeĠwithĠ
es.ĠTheyĠcanĠalsoĠbeĠpersonaliz edĠwithĠdrawingsĠorĠpinsĠandĠlapel
clothĠbagĠcomeĠwithĠ30ĠCmĠlongĠhandlesĠwhichĠcanĠgoĠoverĠtheĠ shoulderĠtoĠcarryĠthatĠextraĠbitĠofĠshoppingĠyouĠwishĠtoĠdo.ĠTheĠhandlesĠareĠreinforcedĠbyĠstitchsĠforĠmaximumĠstrengthĠandĠ
groceryĠbag .ĠAĠversatileĠbreathableĠgroceryĠbagĠwhichĠcanĠholdĠyourĠfruitsĠ&Ġvegetabl
strainingĠyourĠhand sĠ&ĠwristsĠtoĠcarryĠyourĠshopping?ĠFeelĠfreeĠwithĠ
clothĠbagĠcomeĠwithĠ30ĠCmĠlongĠhandlesĠwhichĠcanĠgoĠoverĠtheĠshoulderĠtoĠcarryĠthatĠextraĠbitĠofĠshoppingĠyouĠwishĠtoĠdo.ĠTheĠhandlesĠareĠreinforcedĠbyĠstitchsĠforĠmaximumĠstrengthĠandĠ areĠgoodĠtoĠcarryĠupĠtoĠ10ĠkgĠweight.ĠTheĠ
flatĠfabricĠhandlesĠrestsĠfirmĠonĠyourĠshoulderĠ orĠyourĠhandsĠwithoutĠcausingĠanyĠstrainĠ
YouĠdoĠnotĠneedĠoneĠ toteĠforĠeveryĠoccasion.ĠOneĠ
groceryĠbag.ĠAĠversatileĠbreathableĠgroceryĠbagĠwhichĠcanĠholdĠyourĠfruitsĠ&Ġvegetabl esĠ&ĠcanĠalsoĠkeepĠthemĠfresh.ĠLoadĠyourĠbeach/ĠpicnicĠessential
YouĠdoĠnotĠneedĠoneĠtoteĠforĠeveryĠoccasion.ĠOneĠ toteĠbagĠ
flatĠfabricĠhandlesĠrestsĠfirmĠonĠyourĠshoulderĠorĠyourĠhandsĠwithoutĠcausingĠanyĠstrainĠ toĠcarryĠyourĠ
forĠeveryĠseason !ĠWhetherĠyouĠareĠ
ĠNoĠworries.Ġ WashĠitĠtoĠgetĠbackĠit'sĠ
flatĠfabricĠhandlesĠrestsĠfirmĠonĠyourĠshoulderĠorĠyourĠhandsĠwithoutĠcausingĠanyĠstrainĠtoĠcarryĠyourĠ heavyĠ
sĠinĠyourĠbag.ĠHandyĠtoĠcarry,ĠtakesĠallĠyouĠneedĠforĠyourĠbeachĠdayĠouting.ĠGotĠ dirty
inĠlandfills,ĠtheyĠ stayĠthereĠforĠaĠveryĠlongĠtime.ĠTheseĠreusableĠcottonĠgroceryĠbagsĠareĠanĠexcellentĠalternativeĠtoĠ
hasĠoneĠspaciousĠmainĠcompartmentĠandĠ wideĠopenĠmouthĠmakesĠeasyĠtoĠloadĠandĠunloadĠyourĠbelongings.Ġ
YouĠdoĠnotĠneedĠoneĠtoteĠforĠeveryĠoccasion.ĠOneĠtoteĠbagĠ willĠbeĠenoughĠ
YouĠdoĠnotĠneedĠoneĠtoteĠforĠeveryĠoccasion.ĠOneĠtoteĠbagĠwillĠbeĠenoughĠ forĠeveryĠseason!ĠWhetherĠyouĠareĠ
clothĠbagĠcomeĠwithĠ30ĠCmĠlongĠhandlesĠwhichĠcanĠgoĠoverĠtheĠshoulderĠtoĠcarryĠthatĠextraĠbitĠofĠshoppingĠyouĠwishĠtoĠdo.ĠTheĠhandlesĠareĠreinforcedĠbyĠstitchsĠforĠmaximumĠstrengthĠandĠareĠgoodĠtoĠcarryĠupĠtoĠ10ĠkgĠweight.ĠTheĠ flatĠfabricĠhandlesĠrestsĠfirmĠonĠyourĠshoulderĠorĠyourĠhandsĠwithoutĠcausingĠanyĠstrainĠtoĠcarryĠyourĠheavyĠ
groceryĠbag.ĠAĠversatileĠbreathableĠgroceryĠbagĠwhichĠcanĠholdĠyourĠfruitsĠ&ĠvegetablesĠ&ĠcanĠalsoĠkeepĠthemĠfresh.ĠLoadĠyourĠbeach/ĠpicnicĠessential sĠinĠyourĠbag.ĠHandyĠtoĠcarry,ĠtakesĠallĠyouĠneedĠforĠyourĠbeachĠdayĠouting.ĠGotĠdirty
plasticĠbags.ĠTheyĠareĠmoreĠdurable,ĠandĠcustomizableĠthanĠplasticĠbags.ĠTheseĠbagsĠcompressĠeasilyĠandĠcanĠfitĠanywhereĠrangingĠfromĠgloveĠcompartmentsĠtoĠpurs es.ĠTheyĠcanĠalsoĠbeĠpersonalizedĠwithĠdrawingsĠorĠpinsĠandĠlapel
YouĠdoĠnotĠneedĠoneĠtoteĠforĠeveryĠoccasion.ĠOneĠtoteĠbagĠwillĠbeĠenoughĠforĠeveryĠseason!ĠWhetherĠyouĠareĠ headingĠtoĠwork,ĠtheĠgym,ĠaĠbeachĠholidayĠorĠschool,ĠtheĠtoteĠwillĠbeĠyourĠfaithfulĠfriend.
ĠNoĠworries.ĠWashĠitĠtoĠgetĠbackĠit'sĠ newĠlook
ĠB C
us uallyĠ
softĠ selfĠ
ThanksgivingĠ Day,Ġ
200 8Ġ
f ightĠ
hand yĠ
dam pĠ
D B
Emb oss
soĠyouĠcanĠ comfortablyĠcarryĠbyĠhandĠorĠoverĠyourĠ
H at
sk in,Ġ
comfortableĠtoĠ wear
17 0
toteĠbagsĠareĠ reusable,Ġ
bagsĠ doĠnotĠ
fabricĠhandlesĠ soĠyouĠcanĠcomfortablyĠcarryĠbyĠhandĠorĠoverĠyourĠ
at aĠ
TheseĠ shopperĠ
toteĠbagsĠareĠreusable,Ġ biodegradable,ĠandĠ
for get
TheseĠshopperĠ toteĠhasĠ
softĠselfĠ fabricĠhandlesĠsoĠyouĠcanĠcomfortablyĠcarryĠbyĠhandĠorĠoverĠyourĠ
Pack ingĠ
Eco-FriendlyĠ toteĠbagsĠareĠreusable,Ġbiodegradable,ĠandĠ
comb ineĠ
whichĠ willĠ
O -
hand s-
Eco-FriendlyĠtoteĠbagsĠareĠreusable,Ġbiodegradable,ĠandĠ recyclable.Ġ
foldable,ĠlightweightĠ canvasĠtoteĠbagĠ
eĠtoĠuseĠ toteĠbagsĠareĠreusableĠ&Ġ
BagsĠ whichĠcomeĠwithĠ30ĠCmĠlongĠhandlesĠwhichĠcanĠgoĠoverĠyourĠshoulderĠtoĠcarryĠtheĠextraĠweight
CanĠbeĠusedĠasĠ groceryĠbag.ĠAĠversatileĠbreathableĠgroceryĠbagĠwhichĠcanĠholdĠyourĠfruitsĠ&ĠvegetablesĠ&ĠcanĠalsoĠkeepĠthemĠfresh.ĠLoadĠyourĠbeach/ĠpicnicĠessentialsĠinĠyourĠbag.ĠHandyĠtoĠcarry,ĠtakesĠallĠyouĠneedĠforĠyourĠbeachĠdayĠouting.ĠGotĠdirty
foldable,ĠlightweightĠcanvasĠtoteĠbagĠ hasĠoneĠspaciousĠmainĠcompartmentĠandĠwideĠopenĠmouthĠmakesĠeasyĠtoĠloadĠandĠunloadĠyourĠbelongings.Ġ
thereĠ isĠaĠ
TheseĠshopperĠtoteĠhasĠ 30ĠCmĠ
BonamaisonĠ clothĠbagĠcomeĠwithĠ30ĠCmĠlongĠhandlesĠwhichĠcanĠgoĠoverĠtheĠshoulderĠtoĠcarryĠthatĠextraĠbitĠofĠshoppingĠyouĠwishĠtoĠdo.ĠTheĠhandlesĠareĠreinforcedĠbyĠstitchsĠforĠmaximumĠstrengthĠandĠareĠgoodĠtoĠcarryĠupĠtoĠ10ĠkgĠweight.ĠTheĠflatĠfabricĠhandlesĠrestsĠfirmĠonĠyourĠshoulderĠorĠyourĠhandsĠwithoutĠcausingĠanyĠstrainĠtoĠcarryĠyourĠheavyĠ
TheseĠshopperĠtoteĠhasĠ30ĠCmĠ softĠselfĠfabricĠhandlesĠsoĠyouĠcanĠcomfortablyĠcarryĠbyĠhandĠorĠoverĠyourĠ
wi peĠ
ĠM ag
18 .
normalĠ plasticĠbags.ĠTheyĠareĠmoreĠdurable,ĠandĠcustomizableĠthanĠplasticĠbags.ĠTheseĠbagsĠcompressĠeasilyĠandĠcanĠfitĠanywhereĠrangingĠfromĠgloveĠcompartmentsĠtoĠpurses.ĠTheyĠcanĠalsoĠbeĠpersonalizedĠwithĠdrawingsĠorĠpinsĠandĠlapel
ChemicalĠFreeĠ &ĠSaf
bagsĠdoĠnotĠ decompos
e.ĠOnceĠ inĠlandfills,ĠtheyĠstayĠthereĠforĠaĠveryĠlongĠtime.ĠTheseĠreusableĠcottonĠgroceryĠbagsĠareĠanĠexcellentĠalternativeĠtoĠ
.ĠPlasticĠ bagsĠdoĠnotĠdecompos
washable .ĠPlasticĠbagsĠdoĠnotĠdecompos
washable.ĠPlasticĠbagsĠdoĠnotĠdecompos e.ĠOnceĠinĠlandfills,ĠtheyĠstayĠthereĠforĠaĠveryĠlongĠtime.ĠTheseĠreusableĠcottonĠgroceryĠbagsĠareĠanĠexcellentĠalternativeĠtoĠ
washable.ĠPlasticĠbagsĠdoĠnotĠdecompose.ĠOnceĠinĠlandfills,ĠtheyĠstayĠthereĠforĠaĠveryĠlongĠtime.ĠTheseĠreusableĠcottonĠgroceryĠbagsĠareĠanĠexcellentĠalternativeĠtoĠ normalĠplasticĠbags.ĠTheyĠareĠmoreĠdurable,ĠandĠcustomizableĠthanĠplasticĠbags.ĠTheseĠbagsĠcompressĠeasilyĠandĠcanĠfitĠanywhereĠrangingĠfromĠgloveĠcompartmentsĠtoĠpurses.ĠTheyĠcanĠalsoĠbeĠpersonalizedĠwithĠdrawingsĠorĠpinsĠandĠlapel
Ġ âĢ¢
ful ly.ĠĠ
Je ansĠ
ingĠ theirĠ
WallĠArtĠ FrameĠ/ĠSize:Ġ
cmĠXĠH:Ġ 146cm
210 cmĠXĠH:Ġ146cm
Pro mo
A ĠG
INST ALL
b umĠ
dist anceĠ
youĠ wantĠtoĠ
thatĠ weĠ
J igsaw
absor bingĠ
ĠCmĠ Height
CanĠbeĠusedĠasĠgroceryĠbag.ĠAĠversatileĠbreathableĠgroceryĠbagĠwhichĠcanĠholdĠyourĠfruitsĠ&ĠvegetablesĠ&ĠcanĠalsoĠkeepĠthemĠfresh.ĠLoadĠyourĠbeach/ĠpicnicĠessentialsĠinĠyourĠbag.ĠHandyĠtoĠcarry,ĠtakesĠallĠyouĠneedĠforĠyourĠbeachĠdayĠouting.ĠGotĠdirty ??
-Ġ andĠ
BagsĠwhichĠcomeĠwithĠ30ĠCmĠlongĠhandlesĠwhichĠcanĠgoĠoverĠyourĠshoulderĠtoĠcarryĠtheĠextraĠweight !!
ĠCmĠ WidthĠandĠ
eĠtoĠuseĠtoteĠbagsĠareĠreusableĠ&Ġ washable.ĠPlasticĠbagsĠdoĠnotĠdecompose.ĠOnceĠinĠlandfills,ĠtheyĠstayĠthereĠforĠaĠveryĠlongĠtime.ĠTheseĠreusableĠcottonĠgroceryĠbagsĠareĠanĠexcellentĠalternativeĠtoĠnormalĠplasticĠbags.ĠTheyĠareĠmoreĠdurable,ĠandĠcustomizableĠthanĠplasticĠbags.ĠTheseĠbagsĠcompressĠeasilyĠandĠcanĠfitĠanywhereĠrangingĠfromĠgloveĠcompartmentsĠtoĠpurses.ĠTheyĠcanĠalsoĠbeĠpersonalizedĠwithĠdrawingsĠorĠpinsĠandĠlapel
ĠCmĠHeight .ĠGreatĠforĠgroceryĠshopping,Ġschool,Ġwork,Ġtravel,Ġgym,Ġbeach,Ġchurch,ĠcustomĠDIY,ĠartĠ&Ġcrafts,Ġdecorations,Ġwedd
CanĠbeĠusedĠasĠgroceryĠbag.ĠAĠversatileĠbreathableĠgroceryĠbagĠwhichĠcanĠholdĠyourĠfruitsĠ&ĠvegetablesĠ&ĠcanĠalsoĠkeepĠthemĠfresh.ĠLoadĠyourĠbeach/ĠpicnicĠessentialsĠinĠyourĠbag.ĠHandyĠtoĠcarry,ĠtakesĠallĠyouĠneedĠforĠyourĠbeachĠdayĠouting.ĠGotĠdirty?? ĠNoĠworries.ĠWashĠitĠtoĠgetĠbackĠit'sĠnewĠlook
BagsĠwhichĠcomeĠwithĠ30ĠCmĠlongĠhandlesĠwhichĠcanĠgoĠoverĠyourĠshoulderĠtoĠcarryĠtheĠextraĠweight!! YouĠdoĠnotĠneedĠoneĠtoteĠforĠeveryĠoccasion.ĠOneĠtoteĠbagĠwillĠbeĠenoughĠforĠeveryĠseason!ĠWhetherĠyouĠareĠheadingĠtoĠwork,ĠtheĠgym,ĠaĠbeachĠholidayĠorĠschool,ĠtheĠtoteĠwillĠbeĠyourĠfaithfulĠfriend.
ChemicalĠFreeĠ&ĠSaf eĠtoĠuseĠtoteĠbagsĠareĠreusableĠ&Ġwashable.ĠPlasticĠbagsĠdoĠnotĠdecompose.ĠOnceĠinĠlandfills,ĠtheyĠstayĠthereĠforĠaĠveryĠlongĠtime.ĠTheseĠreusableĠcottonĠgroceryĠbagsĠareĠanĠexcellentĠalternativeĠtoĠnormalĠplasticĠbags.ĠTheyĠareĠmoreĠdurable,ĠandĠcustomizableĠthanĠplasticĠbags.ĠTheseĠbagsĠcompressĠeasilyĠandĠcanĠfitĠanywhereĠrangingĠfromĠgloveĠcompartmentsĠtoĠpurses.ĠTheyĠcanĠalsoĠbeĠpersonalizedĠwithĠdrawingsĠorĠpinsĠandĠlapel
Eco-FriendlyĠtoteĠbagsĠareĠreusable,Ġbiodegradable,ĠandĠrecyclable.Ġ TheseĠshopperĠtoteĠhasĠ30ĠCmĠsoftĠselfĠfabricĠhandlesĠsoĠyouĠcanĠcomfortablyĠcarryĠbyĠhandĠorĠoverĠyourĠ
Eco-FriendlyĠtoteĠbagsĠareĠreusable,Ġbiodegradable,ĠandĠrecyclable.ĠTheseĠshopperĠtoteĠhasĠ30ĠCmĠsoftĠselfĠfabricĠhandlesĠsoĠyouĠcanĠcomfortablyĠcarryĠbyĠhandĠorĠoverĠyourĠ shoulder.Ġ
foldable,ĠlightweightĠcanvasĠtoteĠbagĠhasĠoneĠspaciousĠmainĠcompartmentĠandĠwideĠopenĠmouthĠmakesĠeasyĠtoĠloadĠandĠunloadĠyourĠbelongings.Ġ Eco-FriendlyĠtoteĠbagsĠareĠreusable,Ġbiodegradable,ĠandĠrecyclable.ĠTheseĠshopperĠtoteĠhasĠ30ĠCmĠsoftĠselfĠfabricĠhandlesĠsoĠyouĠcanĠcomfortablyĠcarryĠbyĠhandĠorĠoverĠyourĠshoulder.Ġ
inch )
ĠProf essionalĠ
pl anĠ
anyoneĠ whoĠ
ser ies,Ġ
Print :ĠAĠ
AtmosĠ GreenĠ
strainingĠyourĠhandsĠ&ĠwristsĠtoĠcarryĠyourĠshopping?ĠFeelĠfreeĠwithĠ AtmosĠGreenĠ
th sĠ
strainingĠyourĠhandsĠ&ĠwristsĠtoĠcarryĠyourĠshopping?ĠFeelĠfreeĠwithĠAtmosĠGreenĠ BagsĠwhichĠcomeĠwithĠ30ĠCmĠlongĠhandlesĠwhichĠcanĠgoĠoverĠyourĠshoulderĠtoĠcarryĠtheĠextraĠweight!!YouĠdoĠnotĠneedĠoneĠtoteĠforĠeveryĠoccasion.ĠOneĠtoteĠbagĠwillĠbeĠenoughĠforĠeveryĠseason!ĠWhetherĠyouĠareĠheadingĠtoĠwork,ĠtheĠgym,ĠaĠbeachĠholidayĠorĠschool,ĠtheĠtoteĠwillĠbeĠyourĠfaithfulĠfriend.
V isĠ
S ym
ph ab
a id
I -
moun tedĠ
2 )
Al cohol
,Ġ heĠ
Coat s,Ġ
withoutĠ theĠ
1 cm
m asĠ
Spec iallyĠ
tr ou
ic ientĠ
ank leĠ
tr yingĠ
PRE MI
Work shopĠ
4 mmĠ
3 8Ġ
3 ĠP
oil ,Ġ
d edicatedĠ
Scr atch
I mm
Ear thĠ
Mar ineĠ
po etryĠ
ĠH ON
al .
enh anc
Bo atĠ
lab or
In -
bod yĠandĠ
differentĠ stylesĠ
re lĠ
Ġ4 0
Ther malĠ
cover edĠ
b annerĠ
liv esĠinĠ
Th inĠ
ad idasĠ
TEC TION
Ġ-Ġ TheĠ
50 -
pow der
Kn itĠ
academ icĠ
s. ĠĠĠĠ
ship p
Disc ĠR
thous andsĠofĠ
ĠT OO
ĠF ac
T oneĠ
Rom anĠ
atmosp hereĠ
w entĠ
K ick
what everĠ
see kingĠ
K AW
post -
us erĠ
id eas
C ri
licens edĠ
Under stand
LĠ X
AccessoriesĠ> ĠM
str umentĠ
per formĠ
isĠtheĠ firstĠ
NotĠ onlyĠ
Inspi redĠ
ossĠ KitĠ
makesĠ youĠ
y )Ġ
S top
Aqu ariumĠ
P ictureĠ
wal kĠ
C ylĠ
vac ation,Ġ
connec tor
up p
< strong>
Curtain sĠ
2 3.6
too kĠ
g ymĠ
laim edĠ
VehicleĠPartsĠ&ĠAccessories|CarĠ&ĠTruckĠParts|PerformanceĠParts| Other
Clothing,ĠShoesĠ&ĠAccessories/Clothing,ĠShoesĠ&ĠAccessories/ LuggageĠ&Ġ
f avor
bookĠ ofĠ
16 0Ġ
ac t,Ġ
ough lyĠ
Jew ishĠ
M exic
Shor ts
s ess
Decoration s
skill sĠ
ap sĠ
det ec
WiperĠBl adesĠ
The or
fe et
tsĠ inĠ
W ool
ĠL EDĠ
cre amĠ
edĠ thatĠ
Eng agementĠ
AD E
H o
ar ound
F F
ĠPackag ing:Ġ
W arn
M ainten
OL OG
whatĠ isĠ
il i
sizeĠ isĠ
P G
3 1Ġ
Im age:Ġ
AJ ĠWALLPAPER
ĠS M
mur der
P ep
NecklacesĠ&Ġ Pendants
Vel vetĠ
experienc edĠ
throughĠ aĠ
eng ag
ne ut
Light ing/
j e
a ,ĠandĠ
ible ,Ġ
L ot
lo b
Att ach
me ticĠ
hes iv
Kn iv
S tickĠ
nat ure
year- oldĠ
shin yĠ
glos sĠ
helpĠ toĠ
resp ond
Clothing,ĠShoesĠ&ĠAccessories/Clothing,ĠShoesĠ&ĠAccessories/LuggageĠ&Ġ TravelĠGear/
sk illĠ
ed .ĠĠ
ĠCloth ingĠ
ĠCommun ication
i tion
system sĠ
h arshĠ
D ol
gard en
co ast
cardĠ slo
Gu ardĠ
famil iarĠ
sturd y,Ġ
diamet er:Ġ
wom ensĠ
cor nerĠ
student sĠandĠ
L etĠ
5 V
delic iousĠ
ol aĠ
Or iginĠ
ma xĠ
Back pack
Children'sĠ Music
Up per
program m
,Ġ K
l ar
us hes
-G RE
yourĠ vehicleĠ
hand craftedĠ
act orĠ
B ush
Sweat shir
R V
âĢľ TheĠ
l aceĠ
Sweat shirtĠ
,Ġ 4
cubicĠ z
Â° Ġ
youĠ haveĠ
your sĠ
AT URE
wh ol
6 ĠxĠ
Features Color:Ġ
CareĠInstruction s:Ġ
6 .Ġ
ĠN ot
en ableĠ
Warrant y:Ġ
wareĠ &Ġ
I c
ToysĠ&ĠGames/ToysĠ&ĠGames/ArtsĠ&ĠCraftsĠSupplies/ CraftĠ
le ashĠ
mag az
re aliz
Shor tsĠ
.ĠD oĠnotĠ
dou b
wor dsĠ
kitch en,Ġ
C able
commun icationĠ
se alingĠ
ho diumĠ
Ret urnĠ
I SĠ
Man ufacture
edĠ asĠaĠ
ĉ Ġĉ
ion e
gener allyĠ
Shor t
w ick
la un
On ly
Sp i
M ol
tool ĠforĠ
hab it
.ĠĠ PleaseĠnoteĠthatĠ
O z
tin yĠ
ro letĠ
temper edĠ
el lyĠ
quiltĠcoverĠ set
Cand yĠ
beg inningĠ
k insĠ
HD MI
Computers/ComputersĠ&ĠAccessories/ ComputerĠAccessories/
SizeĠ( Size:Ġ
St ringĠ
ag on
Al waysĠ
s,Ġ aĠ
am elĠ
inĠtheĠ UnitedĠStat
M16ĠxĠ 1.5Ġ
b uff
G AN
shap e,Ġ
el ĠS
- proofĠ
!! !
u tionĠofĠ
transmis sionĠ
ĠST ICK
heatĠ andĠ
&Ġ T
Æ Ĵ
ersĠ whoĠ
yl on
FurnitureĠ>ĠB edroomĠ
VehicleĠPartsĠ&ĠAccessories|CarĠ&ĠTruckĠParts| Other
# Ġ
organ is
aut um
CG IĠ
atedĠ byĠ
pas sion
Vol tageĠ
adv anc
forĠtheĠ firstĠ
15 00
individ uallyĠ
ĠR ec
p athĠ
Shap edĠ
es.Ġ ItĠ
band sĠ
edi tionĠofĠ
Com b
she etsĠ
saf eĠtoĠ
en -
offic ialĠ
cmĠ andĠ
expl an
madeĠinĠAustraliaĠtoĠorder .ĠĠ
des tro
1Ġ *
Intell ig
Har ryĠ
P -
USB ĠC
happ yĠtoĠ
0ĠframesĠmeasureĠ88cmĠxĠ125 cm,ĠhaveĠaĠ2cmĠwidthĠandĠaĠ2.5cmĠdepth
&ĠMountedĠ Canvas
WidthĠ -ĠS
arriveĠreadyĠtoĠhang .ĠOptionalĠ
.ĠĠPleaseĠnoteĠthatĠ âĢľStretchedĠ&ĠMountedĠCanvasâĢĿĠordersĠtakeĠ2-3ĠbusinessĠdaysĠlongerĠthanĠourĠnormalĠfulfilmentĠtimeframesĠandĠareĠsometimesĠsentĠwithĠcouriersĠotherĠthanĠAustraliaĠPost.
fully.ĠĠ FrameĠMeasurements:A3ĠframesĠmeasureĠ32ÃĹ44cm,ĠhaveĠaĠ2.5cmĠwidthĠandĠaĠ2.5cmĠdepth.A2ĠframesĠmeasureĠ44ÃĹ61cm,ĠhaveĠaĠ2cmĠwidthĠandĠaĠ2.5cmĠdepth.A1ĠframesĠmeasureĠ61ÃĹ86cm,ĠhaveĠaĠ2cmĠwidthĠandĠaĠ2.5cmĠdepth.B1ĠframesĠmeasureĠ72cmĠxĠ102
.ĠA 0ĠframesĠmeasureĠ88cmĠxĠ125cm,ĠhaveĠaĠ2cmĠwidthĠandĠaĠ2.5cmĠdepth
fully.ĠĠFrameĠMeasurements:A3ĠframesĠmeasureĠ32ÃĹ44cm,ĠhaveĠaĠ2.5cmĠwidthĠandĠaĠ2.5cmĠdepth.A2ĠframesĠmeasureĠ44ÃĹ61cm,ĠhaveĠaĠ2cmĠwidthĠandĠaĠ2.5cmĠdepth.A1ĠframesĠmeasureĠ61ÃĹ86cm,ĠhaveĠaĠ2cmĠwidthĠandĠaĠ2.5cmĠdepth.B1ĠframesĠmeasureĠ72cmĠxĠ102 cm,ĠhaveĠaĠ2cmĠwidthĠandĠaĠ2.5cmĠdepth
arriveĠreadyĠtoĠhang.ĠOptionalĠ FramedĠCanvas:ThereĠisĠanĠoptionĠtoĠhaveĠyourĠâĢľStretchedĠ&ĠMountedĠCanvasâĢĿĠframed.ĠThisĠisĠcommonlyĠcalledĠaĠâĢľFloatingĠCanvasâĢĿĠstyle.ĠThereĠisĠanĠexampleĠphotographĠofĠwhatĠthisĠlooksĠlikeĠinĠtheĠproductĠimageĠsectionĠaboveĠ(theĠ7thĠproductĠimage,ĠshowingĠtheĠDarkĠOakĠframeĠaroundĠtheĠStretchedĠCanvas).ĠYouĠcanĠchooseĠbetweenĠaĠâĢľWhiteâĢĿ,ĠâĢľBlackâĢĿĠorĠâĢľDarkĠOakâĢĿĠcolourĠframe.ĠâĢľLightĠOakâĢĿĠisĠnotĠavailableĠasĠaĠcolourĠoptionĠforĠâĢľStretchedĠ&ĠMountedĠCanvasâĢĿ
.ĠOptionalĠ MatĠBoard:BelowĠdescribesĠtheĠfinishedĠproductĠifĠyouĠchooseĠtoĠaddĠaĠMatĠBoardĠtoĠyourĠorder:âĢľWithĠMatĠBoardâĢĿĠmeansĠthatĠthereĠwillĠbeĠaĠhigh-quality,ĠwhiteĠcolouredĠmatĠboardĠinsertedĠintoĠtheĠframe.ĠTheĠmatĠboardĠgivesĠtheĠdesignĠaĠwhiteĠborderĠalongĠtheĠinsideĠedgeĠofĠtheĠframe.ĠTheĠdesignĠwillĠfillĠonlyĠtheĠwindowĠinsideĠtheĠmatĠboard.ĠThereĠisĠanĠexampleĠphotographĠofĠwhatĠthisĠlooksĠlikeĠinĠtheĠproductĠimageĠsectionĠaboveĠ(theĠ5thĠproductĠimage).IfĠyouĠdoĠnoĠchooseĠtoĠaddĠaĠMatĠBoard,ĠitĠmeansĠthatĠtheĠdesignĠwillĠfillĠtheĠframeĠwindow,Ġedge-to-edge.ĠThereĠisĠanĠexampleĠphotographĠofĠwhatĠthisĠlooksĠlikeĠinĠtheĠproductĠimageĠsectionĠaboveĠ(theĠ2ndĠproductĠimage).AllĠframesĠarriveĠreadyĠtoĠhang.âĢľFramedĠPrintsâĢĿĠareĠavailableĠinĠeitherĠâĢľBlackâĢĿ,ĠâĢľWhiteâĢĿĠorĠâĢľLightĠOakâĢĿ.ĠâĢľDarkĠOakâĢĿĠisĠnotĠavailableĠasĠaĠâĢľFramedĠPaperĠPrintâĢĿĠoption.ĠMatteĠPaperĠPrint,ĠNoĠFram
e:Ġ IfĠyouĠchooseĠtheĠâĢľMatteĠPaperĠPrint,ĠNoĠFrameâĢĿĠoption,ĠyouĠwillĠreceiveĠanĠunframedĠprintĠofĠyourĠchosenĠdesign.ĠTheĠpaperĠweĠuseĠtoĠprintĠonĠisĠ250ĠGSMĠmuseum-quality,Ġthick,Ġdurable,ĠmatteĠpaperĠ(non-reflectiveĠ&Ġnon-glossy).ĠTheĠinksĠweĠuseĠareĠhigh-qualityĠandĠUVĠprotected,ĠtheyĠwillĠlastĠaĠlifetime.ĠThisĠoptionĠisĠcommonlyĠchosenĠbyĠthoseĠwhoĠwishĠtoĠframeĠtheĠdesignĠthemselv
âĢľMatteĠPaperĠPrint,ĠNoĠFrameâĢĿĠordersĠareĠshippedĠflatĠbetweenĠultra-toughĠcardboardĠsheets.ĠB1ĠandĠA0ĠsizesĠareĠshippedĠcarefullyĠrolledĠinĠlargeĠtub es.ĠĠ
:IfĠyouĠchooseĠtheĠâĢľStretchedĠ&ĠMountedĠCanvasâĢĿĠoption,ĠyourĠorderĠwillĠbeĠprintedĠofĠhigh-qualityĠcanvasĠmaterial,Ġgallery-wrapped,ĠstretchedĠandĠmountedĠaroundĠaĠwoodenĠframe.WeĠuseĠpremium-grade,Ġ360gsmĠcanvasĠmaterial.Gallery-wrappedĠonĠaĠ3cmĠdeepĠwoodenĠframe.StretchedĠCanvasĠordersĠ arriveĠreadyĠtoĠhang.ĠOptionalĠFramedĠCanvas:ThereĠisĠanĠoptionĠtoĠhaveĠyourĠâĢľStretchedĠ&ĠMountedĠCanvasâĢĿĠframed.ĠThisĠisĠcommonlyĠcalledĠaĠâĢľFloatingĠCanvasâĢĿĠstyle.ĠThereĠisĠanĠexampleĠphotographĠofĠwhatĠthisĠlooksĠlikeĠinĠtheĠproductĠimageĠsectionĠaboveĠ(theĠ7thĠproductĠimage,ĠshowingĠtheĠDarkĠOakĠframeĠaroundĠtheĠStretchedĠCanvas).ĠYouĠcanĠchooseĠbetweenĠaĠâĢľWhiteâĢĿ,ĠâĢľBlackâĢĿĠorĠâĢľDarkĠOakâĢĿĠcolourĠframe.ĠâĢľLightĠOakâĢĿĠisĠnotĠavailableĠasĠaĠcolourĠoptionĠforĠâĢľStretchedĠ&ĠMountedĠCanvasâĢĿ
.ĠA0ĠframesĠmeasureĠ88cmĠxĠ125cm,ĠhaveĠaĠ2cmĠwidthĠandĠaĠ2.5cmĠdepth .ĠOptionalĠMatĠBoard:BelowĠdescribesĠtheĠfinishedĠproductĠifĠyouĠchooseĠtoĠaddĠaĠMatĠBoardĠtoĠyourĠorder:âĢľWithĠMatĠBoardâĢĿĠmeansĠthatĠthereĠwillĠbeĠaĠhigh-quality,ĠwhiteĠcolouredĠmatĠboardĠinsertedĠintoĠtheĠframe.ĠTheĠmatĠboardĠgivesĠtheĠdesignĠaĠwhiteĠborderĠalongĠtheĠinsideĠedgeĠofĠtheĠframe.ĠTheĠdesignĠwillĠfillĠonlyĠtheĠwindowĠinsideĠtheĠmatĠboard.ĠThereĠisĠanĠexampleĠphotographĠofĠwhatĠthisĠlooksĠlikeĠinĠtheĠproductĠimageĠsectionĠaboveĠ(theĠ5thĠproductĠimage).IfĠyouĠdoĠnoĠchooseĠtoĠaddĠaĠMatĠBoard,ĠitĠmeansĠthatĠtheĠdesignĠwillĠfillĠtheĠframeĠwindow,Ġedge-to-edge.ĠThereĠisĠanĠexampleĠphotographĠofĠwhatĠthisĠlooksĠlikeĠinĠtheĠproductĠimageĠsectionĠaboveĠ(theĠ2ndĠproductĠimage).AllĠframesĠarriveĠreadyĠtoĠhang.âĢľFramedĠPrintsâĢĿĠareĠavailableĠinĠeitherĠâĢľBlackâĢĿ,ĠâĢľWhiteâĢĿĠorĠâĢľLightĠOakâĢĿ.ĠâĢľDarkĠOakâĢĿĠisĠnotĠavailableĠasĠaĠâĢľFramedĠPaperĠPrintâĢĿĠoption.ĠMatteĠPaperĠPrint,ĠNoĠFram
:IfĠyouĠchooseĠtheĠâĢľStretchedĠ&ĠMountedĠCanvasâĢĿĠoption,ĠyourĠorderĠwillĠbeĠprintedĠofĠhigh-qualityĠcanvasĠmaterial,Ġgallery-wrapped,ĠstretchedĠandĠmountedĠaroundĠaĠwoodenĠframe.WeĠuseĠpremium-grade,Ġ360gsmĠcanvasĠmaterial.Gallery-wrappedĠonĠaĠ3cmĠdeepĠwoodenĠframe.StretchedĠCanvasĠordersĠarriveĠreadyĠtoĠhang.ĠOptionalĠFramedĠCanvas:ThereĠisĠanĠoptionĠtoĠhaveĠyourĠâĢľStretchedĠ&ĠMountedĠCanvasâĢĿĠframed.ĠThisĠisĠcommonlyĠcalledĠaĠâĢľFloatingĠCanvasâĢĿĠstyle.ĠThereĠisĠanĠexampleĠphotographĠofĠwhatĠthisĠlooksĠlikeĠinĠtheĠproductĠimageĠsectionĠaboveĠ(theĠ7thĠproductĠimage,ĠshowingĠtheĠDarkĠOakĠframeĠaroundĠtheĠStretchedĠCanvas).ĠYouĠcanĠchooseĠbetweenĠaĠâĢľWhiteâĢĿ,ĠâĢľBlackâĢĿĠorĠâĢľDarkĠOakâĢĿĠcolourĠframe.ĠâĢľLightĠOakâĢĿĠisĠnotĠavailableĠasĠaĠcolourĠoptionĠforĠâĢľStretchedĠ&ĠMountedĠCanvasâĢĿ .ĠĠPleaseĠnoteĠthatĠâĢľStretchedĠ&ĠMountedĠCanvasâĢĿĠordersĠtakeĠ2-3ĠbusinessĠdaysĠlongerĠthanĠourĠnormalĠfulfilmentĠtimeframesĠandĠareĠsometimesĠsentĠwithĠcouriersĠotherĠthanĠAustraliaĠPost.
ĠStretchedĠ &ĠMountedĠCanvas
e:ĠIfĠyouĠchooseĠtheĠâĢľMatteĠPaperĠPrint,ĠNoĠFrameâĢĿĠoption,ĠyouĠwillĠreceiveĠanĠunframedĠprintĠofĠyourĠchosenĠdesign.ĠTheĠpaperĠweĠuseĠtoĠprintĠonĠisĠ250ĠGSMĠmuseum-quality,Ġthick,Ġdurable,ĠmatteĠpaperĠ(non-reflectiveĠ&Ġnon-glossy).ĠTheĠinksĠweĠuseĠareĠhigh-qualityĠandĠUVĠprotected,ĠtheyĠwillĠlastĠaĠlifetime.ĠThisĠoptionĠisĠcommonlyĠchosenĠbyĠthoseĠwhoĠwishĠtoĠframeĠtheĠdesignĠthemselv es.ĠĠ
ĠPackaging:Ġ âĢľMatteĠPaperĠPrint,ĠNoĠFrameâĢĿĠordersĠareĠshippedĠflatĠbetweenĠultra-toughĠcardboardĠsheets.ĠB1ĠandĠA0ĠsizesĠareĠshippedĠcarefullyĠrolledĠinĠlargeĠtubes.ĠĠ
YouĠmayĠpurchaseĠthisĠdesignĠasĠaĠFramedĠPrint,ĠStretchedĠ&ĠMountedĠCanvasĠorĠasĠaĠMatteĠPaperĠPrin t.Ġ
e:ĠIfĠyouĠchooseĠtheĠâĢľMatteĠPaperĠPrint,ĠNoĠFrameâĢĿĠoption,ĠyouĠwillĠreceiveĠanĠunframedĠprintĠofĠyourĠchosenĠdesign.ĠTheĠpaperĠweĠuseĠtoĠprintĠonĠisĠ250ĠGSMĠmuseum-quality,Ġthick,Ġdurable,ĠmatteĠpaperĠ(non-reflectiveĠ&Ġnon-glossy).ĠTheĠinksĠweĠuseĠareĠhigh-qualityĠandĠUVĠprotected,ĠtheyĠwillĠlastĠaĠlifetime.ĠThisĠoptionĠisĠcommonlyĠchosenĠbyĠthoseĠwhoĠwishĠtoĠframeĠtheĠdesignĠthemselves.ĠĠ ĠPackaging:ĠâĢľMatteĠPaperĠPrint,ĠNoĠFrameâĢĿĠordersĠareĠshippedĠflatĠbetweenĠultra-toughĠcardboardĠsheets.ĠB1ĠandĠA0ĠsizesĠareĠshippedĠcarefullyĠrolledĠinĠlargeĠtubes.ĠĠ
YouĠmayĠpurchaseĠthisĠdesignĠasĠaĠFramedĠPrint,ĠStretchedĠ&ĠMountedĠCanvasĠorĠasĠaĠMatteĠPaperĠPrint.Ġ EachĠoptionĠisĠdescribedĠbelow
MatteĠPaperĠPrint,ĠFramed:IfĠyouĠchooseĠthisĠoption,ĠweĠwillĠprintĠyourĠorderĠtoĠtheĠsameĠspecificationsĠdescribedĠinĠtheĠâĢľMatteĠPaperĠPrintâĢĿĠsection.ĠAfterĠprinting,ĠyourĠorderĠwillĠbeĠprofessionallyĠframed.ĠOurĠframesĠareĠmadeĠfromĠwood,ĠareĠflat-edgedĠandĠcomeĠwithĠaĠglassĠwindowĠ(thisĠisĠrealĠglass,ĠnotĠplexiglass).ĠToĠpreventĠbreakageĠwhileĠinĠtransit,ĠtheseĠframesĠareĠpackagedĠextremelyĠcare fully.ĠĠFrameĠMeasurements:A3ĠframesĠmeasureĠ32ÃĹ44cm,ĠhaveĠaĠ2.5cmĠwidthĠandĠaĠ2.5cmĠdepth.A2ĠframesĠmeasureĠ44ÃĹ61cm,ĠhaveĠaĠ2cmĠwidthĠandĠaĠ2.5cmĠdepth.A1ĠframesĠmeasureĠ61ÃĹ86cm,ĠhaveĠaĠ2cmĠwidthĠandĠaĠ2.5cmĠdepth.B1ĠframesĠmeasureĠ72cmĠxĠ102cm,ĠhaveĠaĠ2cmĠwidthĠandĠaĠ2.5cmĠdepth
ĠStretchedĠ&ĠMountedĠCanvas :IfĠyouĠchooseĠtheĠâĢľStretchedĠ&ĠMountedĠCanvasâĢĿĠoption,ĠyourĠorderĠwillĠbeĠprintedĠofĠhigh-qualityĠcanvasĠmaterial,Ġgallery-wrapped,ĠstretchedĠandĠmountedĠaroundĠaĠwoodenĠframe.WeĠuseĠpremium-grade,Ġ360gsmĠcanvasĠmaterial.Gallery-wrappedĠonĠaĠ3cmĠdeepĠwoodenĠframe.StretchedĠCanvasĠordersĠarriveĠreadyĠtoĠhang.ĠOptionalĠFramedĠCanvas:ThereĠisĠanĠoptionĠtoĠhaveĠyourĠâĢľStretchedĠ&ĠMountedĠCanvasâĢĿĠframed.ĠThisĠisĠcommonlyĠcalledĠaĠâĢľFloatingĠCanvasâĢĿĠstyle.ĠThereĠisĠanĠexampleĠphotographĠofĠwhatĠthisĠlooksĠlikeĠinĠtheĠproductĠimageĠsectionĠaboveĠ(theĠ7thĠproductĠimage,ĠshowingĠtheĠDarkĠOakĠframeĠaroundĠtheĠStretchedĠCanvas).ĠYouĠcanĠchooseĠbetweenĠaĠâĢľWhiteâĢĿ,ĠâĢľBlackâĢĿĠorĠâĢľDarkĠOakâĢĿĠcolourĠframe.ĠâĢľLightĠOakâĢĿĠisĠnotĠavailableĠasĠaĠcolourĠoptionĠforĠâĢľStretchedĠ&ĠMountedĠCanvasâĢĿ.ĠĠPleaseĠnoteĠthatĠâĢľStretchedĠ&ĠMountedĠCanvasâĢĿĠordersĠtakeĠ2-3ĠbusinessĠdaysĠlongerĠthanĠourĠnormalĠfulfilmentĠtimeframesĠandĠareĠsometimesĠsentĠwithĠcouriersĠotherĠthanĠAustraliaĠPost.
MatteĠPaperĠPrint,ĠFramed:IfĠyouĠchooseĠthisĠoption,ĠweĠwillĠprintĠyourĠorderĠtoĠtheĠsameĠspecificationsĠdescribedĠinĠtheĠâĢľMatteĠPaperĠPrintâĢĿĠsection.ĠAfterĠprinting,ĠyourĠorderĠwillĠbeĠprofessionallyĠframed.ĠOurĠframesĠareĠmadeĠfromĠwood,ĠareĠflat-edgedĠandĠcomeĠwithĠaĠglassĠwindowĠ(thisĠisĠrealĠglass,ĠnotĠplexiglass).ĠToĠpreventĠbreakageĠwhileĠinĠtransit,ĠtheseĠframesĠareĠpackagedĠextremelyĠcarefully.ĠĠFrameĠMeasurements:A3ĠframesĠmeasureĠ32ÃĹ44cm,ĠhaveĠaĠ2.5cmĠwidthĠandĠaĠ2.5cmĠdepth.A2ĠframesĠmeasureĠ44ÃĹ61cm,ĠhaveĠaĠ2cmĠwidthĠandĠaĠ2.5cmĠdepth.A1ĠframesĠmeasureĠ61ÃĹ86cm,ĠhaveĠaĠ2cmĠwidthĠandĠaĠ2.5cmĠdepth.B1ĠframesĠmeasureĠ72cmĠxĠ102cm,ĠhaveĠaĠ2cmĠwidthĠandĠaĠ2.5cmĠdepth .ĠA0ĠframesĠmeasureĠ88cmĠxĠ125cm,ĠhaveĠaĠ2cmĠwidthĠandĠaĠ2.5cmĠdepth.ĠOptionalĠMatĠBoard:BelowĠdescribesĠtheĠfinishedĠproductĠifĠyouĠchooseĠtoĠaddĠaĠMatĠBoardĠtoĠyourĠorder:âĢľWithĠMatĠBoardâĢĿĠmeansĠthatĠthereĠwillĠbeĠaĠhigh-quality,ĠwhiteĠcolouredĠmatĠboardĠinsertedĠintoĠtheĠframe.ĠTheĠmatĠboardĠgivesĠtheĠdesignĠaĠwhiteĠborderĠalongĠtheĠinsideĠedgeĠofĠtheĠframe.ĠTheĠdesignĠwillĠfillĠonlyĠtheĠwindowĠinsideĠtheĠmatĠboard.ĠThereĠisĠanĠexampleĠphotographĠofĠwhatĠthisĠlooksĠlikeĠinĠtheĠproductĠimageĠsectionĠaboveĠ(theĠ5thĠproductĠimage).IfĠyouĠdoĠnoĠchooseĠtoĠaddĠaĠMatĠBoard,ĠitĠmeansĠthatĠtheĠdesignĠwillĠfillĠtheĠframeĠwindow,Ġedge-to-edge.ĠThereĠisĠanĠexampleĠphotographĠofĠwhatĠthisĠlooksĠlikeĠinĠtheĠproductĠimageĠsectionĠaboveĠ(theĠ2ndĠproductĠimage).AllĠframesĠarriveĠreadyĠtoĠhang.âĢľFramedĠPrintsâĢĿĠareĠavailableĠinĠeitherĠâĢľBlackâĢĿ,ĠâĢľWhiteâĢĿĠorĠâĢľLightĠOakâĢĿ.ĠâĢľDarkĠOakâĢĿĠisĠnotĠavailableĠasĠaĠâĢľFramedĠPaperĠPrintâĢĿĠoption.ĠMatteĠPaperĠPrint,ĠNoĠFram
YouĠmayĠpurchaseĠthisĠdesignĠasĠaĠFramedĠPrint,ĠStretchedĠ&ĠMountedĠCanvasĠorĠasĠaĠMatteĠPaperĠPrint.ĠEachĠoptionĠisĠdescribedĠbelow :Ġ
MatteĠPaperĠPrint,ĠFramed:IfĠyouĠchooseĠthisĠoption,ĠweĠwillĠprintĠyourĠorderĠtoĠtheĠsameĠspecificationsĠdescribedĠinĠtheĠâĢľMatteĠPaperĠPrintâĢĿĠsection.ĠAfterĠprinting,ĠyourĠorderĠwillĠbeĠprofessionallyĠframed.ĠOurĠframesĠareĠmadeĠfromĠwood,ĠareĠflat-edgedĠandĠcomeĠwithĠaĠglassĠwindowĠ(thisĠisĠrealĠglass,ĠnotĠplexiglass).ĠToĠpreventĠbreakageĠwhileĠinĠtransit,ĠtheseĠframesĠareĠpackagedĠextremelyĠcarefully.ĠĠFrameĠMeasurements:A3ĠframesĠmeasureĠ32ÃĹ44cm,ĠhaveĠaĠ2.5cmĠwidthĠandĠaĠ2.5cmĠdepth.A2ĠframesĠmeasureĠ44ÃĹ61cm,ĠhaveĠaĠ2cmĠwidthĠandĠaĠ2.5cmĠdepth.A1ĠframesĠmeasureĠ61ÃĹ86cm,ĠhaveĠaĠ2cmĠwidthĠandĠaĠ2.5cmĠdepth.B1ĠframesĠmeasureĠ72cmĠxĠ102cm,ĠhaveĠaĠ2cmĠwidthĠandĠaĠ2.5cmĠdepth.ĠA0ĠframesĠmeasureĠ88cmĠxĠ125cm,ĠhaveĠaĠ2cmĠwidthĠandĠaĠ2.5cmĠdepth.ĠOptionalĠMatĠBoard:BelowĠdescribesĠtheĠfinishedĠproductĠifĠyouĠchooseĠtoĠaddĠaĠMatĠBoardĠtoĠyourĠorder:âĢľWithĠMatĠBoardâĢĿĠmeansĠthatĠthereĠwillĠbeĠaĠhigh-quality,ĠwhiteĠcolouredĠmatĠboardĠinsertedĠintoĠtheĠframe.ĠTheĠmatĠboardĠgivesĠtheĠdesignĠaĠwhiteĠborderĠalongĠtheĠinsideĠedgeĠofĠtheĠframe.ĠTheĠdesignĠwillĠfillĠonlyĠtheĠwindowĠinsideĠtheĠmatĠboard.ĠThereĠisĠanĠexampleĠphotographĠofĠwhatĠthisĠlooksĠlikeĠinĠtheĠproductĠimageĠsectionĠaboveĠ(theĠ5thĠproductĠimage).IfĠyouĠdoĠnoĠchooseĠtoĠaddĠaĠMatĠBoard,ĠitĠmeansĠthatĠtheĠdesignĠwillĠfillĠtheĠframeĠwindow,Ġedge-to-edge.ĠThereĠisĠanĠexampleĠphotographĠofĠwhatĠthisĠlooksĠlikeĠinĠtheĠproductĠimageĠsectionĠaboveĠ(theĠ2ndĠproductĠimage).AllĠframesĠarriveĠreadyĠtoĠhang.âĢľFramedĠPrintsâĢĿĠareĠavailableĠinĠeitherĠâĢľBlackâĢĿ,ĠâĢľWhiteâĢĿĠorĠâĢľLightĠOakâĢĿ.ĠâĢľDarkĠOakâĢĿĠisĠnotĠavailableĠasĠaĠâĢľFramedĠPaperĠPrintâĢĿĠoption.ĠMatteĠPaperĠPrint,ĠNoĠFram e:ĠIfĠyouĠchooseĠtheĠâĢľMatteĠPaperĠPrint,ĠNoĠFrameâĢĿĠoption,ĠyouĠwillĠreceiveĠanĠunframedĠprintĠofĠyourĠchosenĠdesign.ĠTheĠpaperĠweĠuseĠtoĠprintĠonĠisĠ250ĠGSMĠmuseum-quality,Ġthick,Ġdurable,ĠmatteĠpaperĠ(non-reflectiveĠ&Ġnon-glossy).ĠTheĠinksĠweĠuseĠareĠhigh-qualityĠandĠUVĠprotected,ĠtheyĠwillĠlastĠaĠlifetime.ĠThisĠoptionĠisĠcommonlyĠchosenĠbyĠthoseĠwhoĠwishĠtoĠframeĠtheĠdesignĠthemselves.ĠĠĠPackaging:ĠâĢľMatteĠPaperĠPrint,ĠNoĠFrameâĢĿĠordersĠareĠshippedĠflatĠbetweenĠultra-toughĠcardboardĠsheets.ĠB1ĠandĠA0ĠsizesĠareĠshippedĠcarefullyĠrolledĠinĠlargeĠtubes.ĠĠ
[...]
